#version: 0.2
e n
e r
Ġ d
i n
Ġ t
c h
Ġ a
o n
Ġt h
e s
i s
u n
Ġ w
i t
Ġ s
a t
č Ċ
i e
Ġth e
o r
r e
a n
i ch
Ġ b
i on
Ġ in
Ġ o
Ġ m
a l
Ġ f
a r
r o
t e
Ġ e
l e
Ġ p
en t
Ġ h
Ġ n
Ġa n
Ġ c
g e
un g
Ġ un
Ã ¼
Ã ¤
Ġd ie
Ġo f
Ġt o
s t
Ġd er
Ġ v
a s
o m
Ġ E
Ġb e
l l
Ġ I
u r
in g
Ġan d
Ġ A
u s
Ġ is
e d
i r
Ġun d
i g
Ã Ł
Ġ S
Ġ z
Ġ M
Ġe in
r a
Ġ P
e m
i c
Ġ g
i m
u t
e it
ich t
Ġ B
i es
e l
Ġ re
o l
om m
Ġ D
d er
s ch
a m
t en
at ion
Ġ T
Ġ W
t er
u l
d en
ro p
l ich
Ġ F
v e
i l
b er
Ġz u
c t
Ġth at
h r
g en
Ġ K
e t
i d
Ã ¶
Ġw h
Ġa u
Ã¼ r
Ġ R
Ġd a
Ġ l
is ch
Ġ V
Ġ k
Ġd en
er e
u rop
Ġ G
Ġf or
o t
Ġ C
a b
u m
l y
Ġ H
is s
Ġw ir
Ġ on
e in
r es
ĠE urop
Ġw e
Ġ ge
i er
Ġ U
Ġa l
Ġd ies
Ġs o
Ġ im
d e
ĠT h
o s
or t
f f
Ġda ÃŁ
omm iss
Ġc on
Ġth is
c e
Ġv er
v er
Ġv on
es t
m en
ommiss ion
Ġf Ã¼r
Ġ it
Ġp ro
Ġis t
an d
Ġ er
f t
a ch
Ġa re
Ġau f
Ġs t
k t
Ġ L
Ġh a
m ent
Ġa s
Ġn icht
i ll
ĠU n
Ġd es
ĠV er
Ġn ot
ul d
ĠI n
it h
Ġd as
isch en
o uld
Ġwh ich
o w
Ġd e
es s
Ġn e
Ġw ith
o p
Ġ Z
i k
p p
l a
u st
ung en
Ġha ve
h er
in d
t s
Ġw er
Ġal s
Ġ N
t r
ĠEurop e
Ġein e
Ġ j
id ent
i v
Ġ es
at e
i ve
f or
Ġwer den
Ġd em
am ent
Ġs e
ĠR e
ĠP ar
Ã¤ n
en d
a k
Ã¼ ber
i al
s p
Ġ le
Ġe x
Ġm it
en s
i f
q u
Ġ ich
Ġc o
it y
a y
an n
i b
an t
l ie
Ġa ll
Ġ r
Ġs u
Ġ -
Ġw ill
ĠTh e
ĠS t
n e
Ġv or
un d
n en
w e
c k
ĠA n
Ġau ch
ĠPar l
a h
h al
Ġ y
h t
Ġun s
Ġs ich
0 0
a us
s en
ung s
u ÃŁ
u g
er r
Ġb y
ĠC ommission
s te
Ġa b
Ġ 1
o ch
ig en
ĠM r
ĠUn ion
ĠEurope an
Ġ Ã¼ber
Ġs h
sch a
p e
ion s
h en
Ġh ab
Ġ res
Ġm e
ĠF ra
a in
er n
g es
Ġh as
p ort
ie l
ĠW e
ĠH err
ar t
Ġ um
te d
Ġa us
a d
Ġa t
r Ã¤
b en
u f
scha ft
ĠK ommission
ol it
Ġ or
er s
ĠB e
ĠI ch
Ġwir d
ĠE n
u re
Ġw ie
i en
Ġs ind
u ch
z e
m e
Ġd o
ĠD ie
Ġh at
a hr
Ġw as
it te
is t
Ġ J
u p
or d
Ġs ch
ĠA us
ch te
h eit
et z
ll en
o ur
ĠS ch
ĠP ro
ĠW ir
en n
Ġc om
b e
Ġ i
g r
Ġhab en
k eit
Ġals o
Ġw ould
isch e
Ġz ur
ĠE r
t z
ĠEurop Ã¤
Ġth ere
er en
Ġ Ã
ĠV or
Ġd ar
lich en
ro m
Ġ O
b eit
al l
ĠB er
u e
is e
Ġre g
ĠA r
Ġs ie
Ġm Ã¶
es e
e ct
ar d
s e
9 9
Ġsh ould
g t
Ġm an
ĠA b
o us
ĠP res
Ġh e
rÃ¤ s
der n
Ġ ent
em ber
at es
i ge
Ġd i
r an
Ġs ein
at en
ation s
Ġ 2
rÃ¤s ident
es ch
Ġw or
Ġin ter
Ġo ur
Ġa g
Ã¶ n
er t
ĠEn t
Ġm ust
Ġa m
ch t
o d
o u
ation al
Ġa d
ĠPres ident
d u
ur ch
t her
Ġf a
Ã¤ r
t h
Ġ en
ic al
Ġf rom
Ġein er
le m
i ament
Ġ qu
ĠParl ament
Ġdies e
Ġb ut
i p
Ġun ter
Ã¼ s
u d
c ial
ic k
ab le
Ġ us
or e
o un
Ã¤ t
Ġbe i
it ion
omm en
ĠM it
ul t
Ġp art
ĠBer icht
ĠP rÃ¤sident
a ge
o ut
for m
ak e
Ġbe en
Ġp rop
ĠI t
r it
ĠE in
Ġn ach
Ġa pp
Ġc omm
o k
an z
Ã¼ hr
an g
a st
ĠS ie
Ġco un
Ġ ch
ĠG r
ig h
Ġk Ã¶n
ĠParl iament
Ġd is
g ra
ct ion
Ã¼ n
v el
Ġdies er
Ġcom p
Ġs a
ut ion
c c
u b
im m
Ġg o
u te
Ġc an
Ġy ou
ĠM ember
om e
ar y
el t
c on
ĠmÃ¶ chte
Ġbe t
Ġp o
ol le
ch en
lich e
Ã¶ r
ĠG e
Ã¼s sen
Ġcoun tr
Ġo b
Ġein en
Ġre port
m p
as s
an k
i z
Ġs te
Ġd urch
Ġit s
e ar
is h
r u
ier ung
ĠEuropÃ¤ ischen
Ġm Ã¼ssen
ier en
st a
Ġp os
g lie
re at
Ġg ro
Ġn och
ĠE U
Ġm uÃŁ
o g
ĠTh is
Ġprop os
g er
ik e
o c
Ġin c
h l
l in
Ġp r
ig ht
Ġm ore
z u
Ġp olit
c il
Ġso ll
Ġk ann
Ġm ein
ra g
Ġg en
n ah
Ġl ike
el y
m er
m s
Ġz w
p t
Ġth ese
Ġcon c
al ly
ĠRe g
Ġs pe
Ġcon s
h e
f en
Ġn ur
Ġzu m
Ġb er
ĠE s
Ġf in
Ġdies em
Ġ (
ĠMit glie
Ġne ed
Ġm a
l o
Ġim p
ĠFra u
o ll
an ce
ol ic
b lem
os e
for e
Ġj ed
g an
res s
ĠkÃ¶n nen
Ġw ur
Ġp re
st en
ĠD as
Ã¼ ck
Ġi h
ig keit
a ÃŁ
Ġ ra
gra m
r ie
y ste
Ġo ther
g lich
Ġbe c
kt ion
sch en
us s
Ġw enn
h men
im e
Ġb es
Ġo der
ment s
Ġk ein
Ġcon t
Ġa ber
Ġwh o
Ġt e
Ġs p
ĠC oun
Ġver y
ĠC omm
Ġthe ir
ff en
w er
i der
ĠCoun cil
Ġn o
s am
a p
olit ik
Ġin t
ier t
t schaft
c ed
Ġp olic
Ġp e
w o
Ġim port
ĠSt ates
ĠMitglie d
00 0
k e
at ive
Ġthe y
a re
s icht
Ġg es
w ick
Ġw eit
aus e
l ic
a g
j ect
itte l
a u
Ġon e
r at
id e
lie ÃŁ
Ġw ar
re ich
Ġge gen
s ib
Ġwor k
st it
ar k
em ent
pp ort
Ġwh at
Ġ up
ĠAr beit
l ung
ent ion
Ġcountr ies
Ġse hr
on e
Ġex p
Ã¤ hr
ĠÃ Ħ
er v
re ct
Ġo ut
Ġ1 99
Ġle g
am men
i ous
Ġi hr
Ġab out
urop Ã¤
le ich
ĠJ ahr
r i
vel op
us ammen
Ġh in
ĠM en
Ġm y
ĠK on
ug h
Ġe ff
ĠMitglied sta
Ġw o
in k
te il
men d
f Ã¼hr
ch e
ut z
Ġ if
at ed
ĠD ies
ĠUn ter
Ġm o
ĠD e
er st
n ung
ĠVor sch
Ġy ear
at ter
Ġa cc
Ġein em
Ġe uropÃ¤
Ġis s
Ġon ly
Ġne w
Ã¤n d
r ing
Ġdies es
Ġin d
ic e
Ġde c
igh ts
in t
c ess
c y
a uf
ig n
it u
as sen
ĠMen schen
it ies
Ġan y
Ġh ier
Ġde velop
op le
Ã¼ tz
Ġuns er
Ġe v
b ar
m ein
n der
on der
as e
Ġbec ause
il ity
Ġpropos al
e ver
Ġo p
ĠR at
ĠÃĦ nder
ar beit
ĠK olle
on g
c es
ĠF or
etz t
f e
iv en
it Ã¤t
f ahr
is m
l Ã¤
Ġt ra
w end
ch n
le ar
Ã¤n der
Ġal le
r en
Ġme hr
ter n
Ġpart ic
hal b
con om
l an
ĠMitgliedsta aten
ĠU m
Ġw icht
Ġs ol
ĠGr und
Ġconc ern
re e
ig t
Ġt ime
te t
ib t
Ġimport ant
ĠD er
ĠA uf
i ÃŁ
t re
ah l
ir st
Ġpe ople
Ġber eit
Ġag ain
Ġinter n
Ġn ational
Ġp er
Ġf e
Ġsu b
ĠEnt wick
Ġa ct
ul ar
ĠL e
Ġpolic y
un ity
ge b
w ir
um an
x t
il d
Ġd am
ll t
sch e
f l
Ġj ust
itte e
ĠS o
la g
al t
Ġwur de
yste m
l os
Ġfa ct
Ġqu est
i a
Ġthere fore
Ġt ran
ch ts
m al
Ġv ie
ĠVer b
l ar
Ġdi rect
ĠC h
hal ten
l and
ĠR icht
w or
tr Ã¤
Ġs ome
ing s
i den
Ġpro v
itu ation
Ġih re
o te
it e
Ġin v
n er
ĠFra ge
ur es
ĠG em
Ġk on
Ġsu pport
Ġn ow
l le
iv es
Ġ 3
Ġt ake
am p
Ġin s
nah men
Ġde b
pe ct
un kt
res ent
Ġint o
ie d
ĠZ usammen
a ck
sch lieÃŁ
ĠT e
i re
k ommen
in e
er ung
Ġs ay
f r
Ġre c
Ġpro blem
ĠAr t
f ol
Ġe conom
is ation
ow ever
ĠGem ein
z ial
ĠEurop a
ĠS e
Ġm ake
ver n
Ġdis c
n ow
Ġsu ch
p on
Ġdi ff
if ic
ĠÃ ľ
ge l
le gen
Ġpro du
h and
Ġv iel
Ġpartic ular
Ġs on
ra uch
it i
ig ung
k en
or s
an s
ĠA s
um ent
ĠM aÃŁ
Ġc lear
Ġw ay
ĠEuropÃ¤ ische
r y
le d
ĠÃľ ber
ne hmen
f Ã¼r
o v
st Ã¼tz
m it
w ie
am e
Ġge w
Ã¤ ch
ĠZ eit
ol og
Ġr ights
Ġre l
ĠÃĦnder ungs
Ġh uman
Ġg r
we en
Ġbe ing
Ġwh en
h Ã¶r
Ġbet ween
ig er
ĠF in
is ion
Ġb as
Ġa mend
Ġdies en
Ġre f
ge t
Ġjed och
z ie
k te
t y
u al
Ġg ibt
Ġt ak
Ġma de
Ġson dern
Ġb est
for der
at z
u es
le g
Ġf irst
stit ution
sib le
form ation
iss en
o b
ur al
Ġth an
ĠAus sch
Ġm ark
er ation
z eit
ere ich
Ġm ich
Ġpolit ical
h n
Ġk now
Ġof f
i ff
b st
Ġreg ard
Ġein es
ĠI h
g in
Ġden n
lin ie
an ge
Ġe mp
Ġthe m
Ġdam it
ĠHerr n
t w
Ġd ann
we ise
Ġa r
Ġth ose
Ġad d
Ġgro ÃŁ
is ten
ich er
hal t
ce pt
Ġo ver
Ġp la
Ġst r
Ġw ere
ĠM ein
u en
re i
Ġzw ischen
Ġre p
en z
ĠB ereich
ĠG es
d ay
ĠB ed
Ġkein e
Ġw el
Ġcons ider
Ġth ink
ord nung
st r
ĠH aus
ĠL and
Ġand eren
is k
ert ain
w eit
el s
er d
Ġbereit s
Ġag re
Ġein z
ach t
Ġg anz
w n
Ġund er
is ed
Ġre qu
Ġres pon
el bst
ub lic
esch Ã¤
et t
Ġintern ational
t ro
Ġhe ute
Ġquest ion
ĠCommission er
Ġso cial
at er
im in
Ġas s
ĠeuropÃ¤ ischen
ge ord
Ġiss ue
Ġwith in
Ġmark et
ĠEntwick lung
Ġpo int
Ġhab e
l d
Ġa c
geord ne
at s
at ing
Ġge mein
gen d
Ġwh ere
h a
Ġ end
Ġso wie
Ġuns ere
p r
Ġn at
ĠSt a
Ġg reat
Ġre m
u ro
Ġ ro
s el
ch ten
f all
Ã¤ l
is en
ĠComm ittee
ĠS te
Ġh o
ir on
Ġw Ã¼r
la gen
Ġf und
Ġst at
Ġse e
Ġco ur
re ad
Ġman y
i ent
ĠRe chts
ion en
Ġbe lie
ra gen
re chen
ĠB Ã¼r
Ġpro gram
en e
en den
Ġf est
ate g
in c
f in
h in
Ã¤n dern
eschÃ¤ ft
ic ult
le ment
v iron
Ġge ht
ver y
ach en
v ed
Ġr ight
ĠParlament s
Ġdo es
viron ment
in is
Ġwe il
Ġbes te
ĠC on
ĠAb geordne
Ġyear s
is l
Ġc ertain
Ġl a
p ro
ul ation
lo y
am en
ĠMr s
i le
ent lich
Ġdevelop ment
Ġ 4
Ġweit er
ĠMaÃŁ nahmen
w elt
ĠVorsch lag
st Ã¤nd
Ġdirect ive
Ġc ann
ere in
s etz
Ġf ar
Ġcann ot
f eren
Ġw ant
Ġf re
n is
Ġh er
op e
a ct
Ġh and
ĠIn ter
Ġ 5
m ittel
ion al
Ġor der
ĠRicht linie
u ll
Ġdeb ate
ar kt
ent r
Ġev en
ĠS tr
Ġme as
r imin
ĠComm unity
Ġc ould
Ġeff ect
icher heit
ll ung
v ention
Ġd ra
w ard
it z
Ġagain st
p iel
Ġh ere
ĠW h
Ġpro te
st imm
ĠK o
Ġb is
Ġwie der
Ġl ie
ĠTh ere
Ġad op
Ġm atter
ke hr
Ġinc l
sch ie
f Ã¼
Ġres ol
ges ch
Ġsoll ten
Ġwicht ig
ot h
a c
Ġden en
Ġdar auf
v ing
ĠM ittel
l es
ĠGemein schaft
h ne
nah me
Ġunser er
vern ment
Ġwir k
Ġs ystem
or te
ĠKolle gen
fahr en
k l
v or
Ġte chn
Ġapp ro
ĠA l
Ġbelie ve
ĠG ro
ah men
ĠK ommiss
Ġfin an
Ġa ut
ff e
ĠW ie
Ġleg isl
Ġeconom ic
Ġal lem
ĠD a
ĠR ahmen
Ġvie w
read y
o ugh
ers on
Ġg er
Ġas k
Ġto o
Ġdisc uss
Ġt wo
r icht
Ġal ready
Ġle vel
et h
ud get
Ġv ote
Ġd och
ĠM e
ge ben
f Ã¤
ic t
i ber
Ġim mer
Ġy our
Ġs ame
Ġm ir
Ġh al
ĠKommiss ar
Ġmo st
b ens
Ġp ublic
Ġ ens
Ġe tw
Ġwe ll
iss e
g ab
Ã¶ glich
Ġagre ement
Ã¤ ÃŁ
Ġz we
Ġsoll te
ge hen
Ġen vironment
Ġp ar
ut ions
inc ip
Ġs elbst
Ġpr incip
Ġda fÃ¼r
Ġsa gen
trÃ¤ ge
iti ative
Ġe very
ĠGe b
s s
it iz
ĠH in
Ġm on
Ġcour se
c ted
Ġle tz
isch er
k on
Ġha d
Ġgemein sam
d s
Ġinc re
Ġspe c
Ġs ituation
ĠW enn
ĠUm welt
Ġgo od
Ġth en
Ġso zial
ess en
Ġf o
ĠN ach
ĠWir tschaft
ĠBÃ¼r ger
i an
Ġb in
Ġh el
Ġan ge
t rag
re chte
Ġg u
Ġg leich
a de
is ierung
Ġs c
or y
Ġo wn
Ġv om
Ġcon f
Ġver b
Ġpos sible
Ã¤ re
in n
er al
b es
Ġb ring
ĠZ u
l ish
ĠZ iel
ĠFra ktion
onder e
Ġm uch
la ge
Ġex amp
Ġpro cess
or ity
Ġto day
ĠP olitik
ok rat
sche id
Ġm ay
Ġp resent
ĠH a
rit t
Ġst ill
Ġre al
Ġc itiz
ĠTh em
ĠPro blem
it ed
u er
2 000
s atz
Ġ2 000
ĠI m
le men
Ġus e
st er
con d
Ã¶ s
is piel
Ġl o
ĠS p
Ġihr er
Ġs er
Ġsa id
Ã¤ m
a ges
ent ly
Ġmeas ures
Ġt er
Ġcountr y
ĠE uro
Ġn um
Ġc ur
op eration
Ġe le
Ġh ope
ĠH owever
Ġa id
Ġcomm on
f ul
Ġth ro
Ġcont in
Ġf ra
Ġh igh
as on
s uch
Ġmein e
ĠIh nen
p unkt
v es
ĠD em
Ġh is
h il
w ort
Ġg esch
b at
Ġtran sp
Ġw en
Ġs erv
Ġc ase
Ã¼ ÃŁ
Ġwur den
ar ge
i o
t ing
Ġ Ã¶
Ġh ow
Ġj etzt
Ġres pect
ĠO r
w ay
re d
ĠTh at
gan gen
Ġare a
ĠDies e
re it
Ġtak en
Ġp ut
ĠPro gram
wor k
Ã¼r lich
Ġf ut
Ġl ast
l uÃŁ
ĠL Ã¤nder
al k
Ã¼hr en
hal ts
ze ug
ch ie
erst atter
Ã¶ l
Ġda zu
Ġfut ure
ver s
Ã¤l t
Ġexamp le
ant rag
Ġab le
Ġb udget
Ġor gan
Ġre ason
ĠH er
ru ck
iber al
z us
er g
be i
om en
Ġpos ition
st ru
Ġwo llen
Ã¶glich keit
Ġp ra
Ġn un
a il
Ġinter est
tr ib
Ġthro ugh
Ġob ject
Ġpos it
Ġbe z
gen ommen
orte ur
Ġ est
pp orteur
Ġunter stÃ¼tz
Ġcitiz ens
ĠD es
ical ly
Ġgro up
ant wort
Ġat t
ĠBericht erstatter
Ġamend ments
Ġo hne
wo hl
Ġb oth
Ġc ar
Ġfinan cial
Ġinv ol
Ġf ind
Ġein ige
schie den
ar m
ak ing
Ġ199 9
ĠFin anz
Ġin formation
ab ility
kl Ã¤r
Ġnum ber
ĠwÃ¼r de
ĠmÃ¶ glich
ĠB ut
loy ment
ur ing
Ġne uen
Ġra pporteur
ten d
Ġwh y
Ġaus ge
Ġsch on
Ġ Q
ĠS icherheit
ic es
ĠV erein
ous e
Ġare as
Ġa chie
p h
ĠÃĦnderungs an
Ġaut h
ĠAb stimm
bes ondere
it Ã¤
ĠA u
ĠM on
Ġge t
om p
Ġth ank
te llt
Ġleg al
f ung
Ġa ction
imm t
ĠI f
ges e
Ġpre v
f ra
Ġst and
heit en
Ġmein er
ĠJahr en
Ã¶ ÃŁ
Ġne g
ze ich
Ġens ure
der ung
ĠF l
Ġcomp et
Ġ .
it al
ur ther
ent ial
lich er
Ġne cess
in ce
Ġop in
ĠÃ ĸ
wer b
ĠGro up
Ġbe gr
el n
al th
reich en
a ir
g est
Ġ Y
d em
ab lish
Ġt un
Ġma j
Ġs om
Ġt r
p olitik
Ã¤ tz
un den
ste llen
ĠkÃ¶n n
et her
Ġ2 00
oun t
Ġpla ce
ĠEnt schlieÃŁ
te gr
ĠB eit
Ġco operation
ĠAussch uÃŁ
inis ter
Ġall en
ĠGeb ie
b le
Ġein mal
ĠBe i
Ġdiff er
Ġdem oc
ĠFra gen
Ġins besondere
Ġetw as
re t
ĠA fr
ism us
e kt
kt ur
Ġne ue
Ã¤n g
Ġ 6
ĠK os
Ġl ong
Ġw issen
Ġw Ã¤re
Ġand ere
a ffen
ĠF all
Ġm ain
ier ungs
Ġme ans
Ġest ablish
ass ung
ĠN amen
gr und
ĠKos ov
o st
Ġs im
f ten
Ġg iven
Ġb esch
im men
Ġla w
ĠA ll
ĠEnt scheid
ĠTe il
f er
Ã¤ mp
Ġg la
Ġsich er
ow n
Ġ ur
Ġparticular ly
a ff
Ġf ull
ig ten
Ġfor m
de ut
Ġwor ld
Ġs et
Ġpro ced
w Ã¤
un ft
Ã¤ uÃŁ
ĠF re
Ġent sp
r Ã¼
Ġg ut
ĠB et
oll ow
Ġincl ud
Ġind ust
Ġproblem s
ett be
Ġd ank
in der
Ġg est
i um
ĠT reat
Ġtran s
los sen
Ġm or
Ġbe fore
b al
ĠH and
Ġnot wend
ĠRe cht
k unft
Ġm achen
ettbe werb
ĠH ouse
pp en
Ġr at
fall s
ĠArbeit s
Ġopin ion
Ġwith out
lich keit
ĠMember s
ĠKosov o
or ities
Ġsein e
ĠZusammen arbeit
Ġresol ution
n isse
Ġall ow
Ã¶l k
Ġ 8
ge le
Ġnecess ary
l ungs
al ity
ĠM Ã¶glichkeit
a ce
uss es
a gt
t ra
ĠVerb rauch
Ġh owever
Ġwir tschaft
wir tschaft
entr al
Ġre form
ĠSt and
Ġimp lement
f ter
m Ã¤ÃŁ
at ely
Ġk e
Ġwor den
Ġf ollow
ĠW as
el f
icht s
Ġbe tr
Ġse ct
st an
Ġexp ress
c ing
ann t
ib le
ten s
Ġcur r
fÃ¼hr t
Ġ %
Ġbe k
hal f
Ġzw ar
Ġrequ ire
ort ug
ĠMein ung
Ġg ive
Ġimp ro
h ang
Ġbe half
ir d
ĠW elt
ĠSch utz
z ip
ĠN o
Ġiss ues
Ġre du
ĠH e
Ġprote ction
v on
ĠDe bat
w alt
Ġdiffer ent
y s
Ġwh ether
ill ion
Ġzwe i
Ġ 7
ll schaft
Ġk lar
ĠAbgeordne ten
ĠArt ik
ĠHaus halts
Ġser ious
sp ro
Ġconcern ed
Ġnat Ã¼rlich
Ġprogram me
Ġs m
Ġp res
ge mein
ble me
Ġpro m
it ions
Ã¼ b
Ġter ms
Ġw es
we isen
ut ung
ĠIn tern
ab il
Ġex tre
ĠAbstimm ung
Ġw ish
ĠUnter stÃ¼tz
ĠStr u
m an
ĠA m
ul es
Ġge l
Ġcons um
sib ility
ĠG er
ord in
Ġprodu ct
g leich
Ġs ign
ĠM ad
ent s
ĠD isk
Ġk ommen
Ġs eit
ah re
Ġvie le
ĠReg ierung
ĠFrau en
Ġa v
ĠPrÃ¤sident in
Ġac cept
er k
Ġge b
Ġreg ional
Ġprincip le
Ġk omm
sp olitik
k s
Ġde al
Ġrep resent
ĠSta aten
h o
Ġge f
ament al
Ġproposal s
ĠUnterstÃ¼tz ung
ste llung
Ġd Ã¼r
Ġn Ã¤m
ĠW ettbewerb
ach e
str ument
ĠnÃ¤m lich
ug ht
fl icht
gin nen
feren z
Ġm in
1 99
Ġv oll
ĠÃĦnderungsan trÃ¤ge
ur s
Ġdec ision
Ġbeste ht
und heit
Ġinv est
v our
en ce
st and
f it
Ġw omen
Ġbe d
ĠZusammen hang
ĠArtik el
is ions
Ġau ÃŁ
Ġzur Ã¼ck
Ġd el
ra che
an te
Ġge ben
Ġer forder
Ã¼n d
Ġpropos ed
ĠUnter nehmen
l us
ik a
Ġdar Ã¼ber
Ġpo in
Ġpolit ischen
m arkt
le x
ĠÃĦnderungs antrag
Ġf ol
el d
r if
ier ten
r Ã¤n
Ġ 9
Ġl ang
etz en
ĠMad am
c ome
ze pt
Ġcomm un
ĠThem a
ĠPro bleme
ĠMenschen rechte
ed ing
Ġste hen
g ung
Ġlegisl ation
Ġe ing
ĠO n
ĠDes halb
ĠDebat te
Ġda von
ben e
se qu
fÃ¼hr ung
Ġso c
gra ph
Ġlo ok
l ick
Ġs ince
Ġdar f
Ġcont ro
id ed
Ġcom e
Ġihr en
Ġwirk lich
Ġgla u
in nen
Ġgr Ã¶ÃŁ
kt or
as ed
ĠS ituation
iff t
ĠA mend
Ġwho le
it or
ĠM a
ĠVorsch lÃ¤
Ġdiff icult
Ġf urther
u ge
Ġse c
Ġhel p
Ġb ess
Ġstr ateg
Ġbetr ifft
ent lichen
ra ft
Ġreg ulation
lo bal
Ġbas is
rif ten
Ġde ut
ĠL Ã¤ndern
Ġbes onder
un e
Ã¼ck sicht
ge w
ĠR ates
Ġda her
Ġin de
ien st
ĠVerbrauch er
0 1
Ġcon trib
if ied
ĠJ ahre
ĠBed e
ĠA ber
lie gen
Ġm ention
ĠB es
Ġse cond
Ġne xt
Ġ ir
Ġ ide
Ġcomm it
Ġspec ific
ĠÃ¶ ff
u ally
ĠB est
Ġsein er
Ġletz ten
199 9
n ing
ie ty
ĠG en
Ġj a
ĠTreat y
h ol
gr icult
stit utions
ĠA t
Ġfe w
en de
Ġv al
Ġsim p
ĠBede utung
Ġc re
ĠM ill
iv il
Ġsu pp
ĠWh at
Ġo pport
hal l
age ment
m es
Ġpro ject
Ã¼n ft
al e
Ġre cht
Ġch ild
Ġcon d
Ġt a
ĠM an
Ġr isk
Ġw ord
if e
up t
zie h
h m
ra cht
Ġsch w
Ã¤r k
ĠB esch
am il
f te
Ġsub ject
p ar
ĠP unkt
Ġbest imm
Ġpra ct
Ġe igen
Ġp l
Ġeinz el
me work
Ġzw eit
ĠA uÃŁ
Ġ1 9
Ã¤ch st
o vernment
Ġe qu
Ġgegen Ã¼ber
Ġhe alth
Ġ Ã¤uÃŁ
Ġe ben
ic le
Ġab s
Ġc rit
Ġvor gesch
g ress
o int
Ġa w
le icht
ĠSo zial
Ġs hall
ĠL Ã¶s
ĠH il
ĠVer antwort
ĠAn sicht
Ġqu ite
Ġd one
Ġp lan
gab en
ib en
Ġges agt
Ġadop ted
al s
Ġme et
Ġbegr Ã¼ÃŁ
Ġb ack
Ġs ens
at t
ie le
f et
Ġin stitutions
ra chten
Ġres our
ich te
wend ung
t ain
in zip
wir k
Ġemp loyment
is ing
ur z
ward s
u de
Ġclear ly
pro chen
sch ied
in es
ĠV ol
ĠunterstÃ¼tz en
Ġco st
Ġc all
Ġc olle
ot her
ier te
Ġfa vour
der t
Ġfra mework
Ġextre m
g lichen
il t
Ġstat t
ĠB eschÃ¤ft
ot i
pe cial
Ġkon k
d i
k Ã¤mp
Ġb rauch
sp r
Ġuns eren
e p
h Ã¤ng
i ar
it t
ĠF und
Ġl assen
yste ms
w ert
ĠIn formation
rie den
ĠOr gan
Ġ1 5
Ġvorgesch lagen
er ien
Ã¤hr end
fet y
Ġf Ã¼hren
Ġan ges
Ġver schieden
Ġacc ount
Ġappro ach
h Ã¤lt
l ungen
at ives
ver kehr
iv ely
ze ÃŁ
Ġste llen
vor sch
d ruck
an der
Ġr icht
ard s
Ġbez ug
Ġsoc iety
ĠF isch
ĠAn ge
Ġrat her
ar ante
em p
ĠSt ate
g re
Ġ Ã¼b
ff air
ĠN e
etz ung
Ġres ult
m aÃŁ
ur ity
ic a
Ġge hÃ¶r
ĠIn stitution
Ġgo ing
ĠUn d
ĠUn ited
Ġag ree
Ġst ru
Ġdes halb
Ġwork ing
gese hen
Ġde fin
ĠKon tro
Ġh Ã¤t
Ġc ap
ies en
ĠT ages
Ġneg oti
on ds
is ts
Ġc r
Ġre v
ĠG leich
Ġr ules
ĠPro du
Ġad v
Ġcomm ittee
re ffen
Ġund erst
Ġenvironment al
way s
Ġt alk
Ġv ar
Ġst ate
Ġgu arante
v ement
Ġm il
Ġand er
rop ri
Ġfin anz
ĠD urch
Ġ1 2
l er
Ġb ro
Ġin tegr
Ġbe w
Ġl im
ĠTh ese
Ġreg ions
Ġste ht
ĠKolle ginnen
ĠLe bens
Ġglau be
f ach
ĠVer trag
u ft
Ġro le
eth ing
Ġfo od
Ġta x
os ition
Ġsa fety
are d
tre ten
ĠWe ise
Ġgo vernment
Ġacc ess
ed om
ĠB r
Ġreg ul
un Ã¤chst
Ġer st
Ġbet ter
Ġindust ry
ge ment
Ġder en
ĠRe chte
ĠEU R
ĠQ u
Ġcontro l
Ġum f
ĠkÃ¶nn te
g l
Ġp erson
Ġc or
ĠSt ra
Ġresour ces
e ich
Ġes pecial
h ip
Ġ ess
Ġa fter
Ġim m
Ġdar an
Ġsom ething
Ġespecial ly
f ort
ar ter
Ġp ow
sp rache
Ġpr i
arm on
S E
Ġd own
Ġein ge
fol g
Ġadd ition
st o
m iss
ĠT ran
ffair s
e k
ĠVer ordnung
setz ung
r on
ĠD i
iv id
re cht
ro du
Ġre ad
ĠIn d
w ed
Ġe l
ĠT ur
ĠeuropÃ¤ ische
gend a
aus sch
Ġits elf
ab ly
Ġpro gress
Ġex ist
Ġprogram mes
z w
ĠA ust
am t
Ġl arge
ĠArt icle
kÃ¤mp fung
Ġa ir
ĠD ar
ens ion
ĠZu kunft
gele gt
Ġess ential
re ten
Ġm illion
Ġso llen
Ġspe ak
ĠAussch usses
Ġin itiative
ĠS eit
ial og
o gen
p end
ĠF e
Ġdi re
Ġpoin ts
v Ã¶lk
Ġg ent
Ġus ed
Ġb al
Ġc l
ab e
lin ien
if y
ĠBe ispiel
Ġgen eral
erd ings
ĠdÃ¼r fen
at h
Ġto wards
as es
ĠAn d
Ġcompet ition
Ġe ach
Ġz e
Ġserv ices
ter m
erv or
Ġprov ide
Ġrespon sibility
Ġd uring
Ġp ay
Ġder zeit
ĠM arkt
Ġop er
Ġlie gt
Ġsozial en
Ġj e
ad ies
Ġgo vern
Ġorgan is
Ġposit ive
Ġapp ropri
ĠIh re
Ġgent lemen
w Ã¤r
Ġle t
legen heit
Ġextrem ely
ĠR ed
ĠEurop as
ĠL age
ĠStru ktur
g ar
m Ã¶
v en
is es
Ġg lobal
ik an
ĠThe y
ĠReg ionen
ĠgroÃŁ en
ĠP r
ier ungen
ĠEr geb
Ġcomp an
rie d
Ġfund amental
feren ce
ĠMe hr
ĠVorschlÃ¤ ge
iv ing
ĠRe form
Ġall gemein
Ġpolic ies
one y
Ġh ervor
ĠP l
ĠU ms
Ġsect or
ges tellt
igkeit en
Ġho ffe
Ġso wohl
Ġdar in
Ã¤t ze
Ġpr iv
ĠStand punkt
ĠI hr
ĠL iberal
th ough
Ġsm all
Ġnational en
ĠEntschlieÃŁ ung
z Ã¼
Ġan s
ra um
Ġge m
ver stÃ¤nd
Ġj ob
ktion en
Ġ199 8
fÃ¤ h
s id
Ġ 000
Ġin ner
ge ther
Ġl ess
Ġeff ort
Ġdemoc rat
T O
re g
Ġch ange
a um
Ġw Ã¤hrend
ĠI s
ĠR olle
ste hen
ĠTages ordnung
s weise
ol d
Ġges am
ĠZ ust
ĠAus sprache
Ġintern al
Ġnotwend ig
im es
kt iv
ĠUn s
ĠAu ff
om ent
Ġcontin ue
Ġa k
Ġa gricult
Ġse em
enn t
at iven
Ġc ult
Ġste p
Ġconcern s
sche iden
ĠE bene
Ġein igen
Ġ- ,
Ġind ivid
une hmen
E R
re ch
ĠM inister
ĠF ran
Ġproced ure
Ġm oney
el le
Ġst art
Ġst ren
Ġnicht s
Ġse i
all en
cc ess
Ġpar l
un de
ĠA uch
Ġre ally
Ġda bei
Ġer sten
Ġle ad
Ġsu ff
Ġpo st
Ġgro w
Ġwel come
b lick
i od
z iel
Ġz usammen
Ġber Ã¼cksicht
itÃ¤ ten
ahl en
Ġcond itions
ic ial
ĠB el
Ġfor ward
Ġimport ance
Ġunderst and
e kte
Ġd id
ĠRe gel
Ġabs ol
ĠHil fe
mer k
Ġacc ord
Ġtra de
Ġact iv
erd em
ar en
Ġof fen
ur n
ese llschaft
Ġbeste hen
Ġstru ct
l ing
ar n
Ġv o
Ġauf ge
Ġ1 0
scha ften
b eding
Ġbe f
ct ions
Ġle ast
Ġop en
Ġvar ious
p flicht
Ġa im
Ġth ree
sp ect
Ġpre c
ĠF ol
ĠF ort
Ġb ene
Ġbe ispiel
ĠP erson
Ġwer de
art a
uf en
Ġgew Ã¤hr
Ġ2 0
sicht lich
Ġk urz
Ġon ce
Ġm ember
Ġv i
Ġl oc
ĠBe vÃ¶lk
Ġcomp le
we g
Ġneed s
i ation
Ġd rei
ĠZ us
ĠEr weit
ĠGe gen
ĠEntwick lungs
iden cy
Ġtransp ort
k omm
Ġb u
ic ient
Ġall er
Ġin form
Ġm aking
ĠDem okrat
Ġinterest s
ĠLÃ¶s ung
b au
Ġd ort
Ġto t
ĠP ortug
Ġper iod
ĠÃ¼b r
ĠN at
Ġdem and
Ġeconom y
Ġkomm t
Ġb le
ĠN ot
ĠVerantwort ung
wÃ¤r t
ĠUms etzung
Ġal ways
Ġint rodu
ĠR ights
ĠEn erg
Ġpe ace
Ġrem ain
Ġth ird
ĠE x
ĠB em
Ġpolit ische
Ġfre edom
Ġinclud ing
Ġak zept
Ġw ater
Ġb en
ge d
Ġref er
Ġwel che
Ġbring en
Ġauth orities
Ġentsp rechen
Ġinner halb
Ġbec ome
ll ig
ĠPar te
Ġfe el
ĠEntscheid ung
Ġbesonder s
ll er
Ġen lar
gab e
Ġinvol ved
Ġger ade
Ġdank en
Ġo pp
Ġn or
ot ing
ust rie
ĠFor m
in ess
Ġo cc
Ġm ed
um en
we is
Ġ1 1
Ġgen au
ĠReg ierungs
or g
Ġan t
sch utz
ĠW er
ĠPro j
th ing
Ġapp lic
ute t
Ġproduct s
ĠAust ri
Ġbeispiel sweise
Ġan other
ĠInstitution en
te xt
Ġh Ã¶
Ġn on
Ġl adies
ess e
Ġto gether
ild ung
ĠGes undheit
ster reich
ĠP at
der s
ĠK inder
Ġk ind
Ġbas ed
Ġsec urity
Ġdeut lich
w es
ĠS ystem
Ġk le
Ġsch affen
ass er
Ġachie ve
ic ation
ĠWe g
Ġsol che
Ġquest ions
Ġaw are
eit s
ĠU N
ĠEin e
Ġwar en
ĠErweit erung
Ġf ight
Ġad m
Ġrec og
Ġhal te
Ġcurr ent
ĠB innen
ĠW ort
Ġrel ations
ĠgroÃŁ e
Ġtechn olog
Ġmon th
Ġm ot
Ġde f
Ġd et
iel d
enz en
Ġamend ment
r itte
ĠL is
Ġih nen
iden ce
Ġadop t
Ġsh ort
Ġme an
ĠAus druck
Ġhand elt
Ġmaj ority
ĠIntern et
ĠVer fahren
Ġdo c
ap s
Ġdra ft
Ġincre ase
fra ge
as ing
ĠF rei
ĠGr Ã¼n
ĠJahr es
ĠÃ¤uÃŁ erst
ĠS ol
Ġeinzel nen
Ġg ilt
Ġre le
Ġas pect
Ġdem okrat
Ġhin aus
mal s
ĠAmend ment
ĠMill ionen
Ġbrauch en
Ġindivid ual
Ġc reat
Ġer halten
ĠVer walt
Ġle d
Ġdoc ument
r Ã¼ck
inis tr
z uf
Ġin stitution
Ġn ie
ĠA sp
ĠF irst
ĠTran sp
ur f
Ġgroup s
ĠGebie t
A F
ĠA ffairs
Ġre ce
ber eich
ĠV iel
if en
Ġy et
Ġres ear
Ġdar um
ĠFor sch
Ġresear ch
o ck
us iness
ir m
ĠauÃŁ er
en ted
un kte
Ġn Ã¤ch
il y
Ġle a
Ġcertain ly
ver fahren
Ġex ce
Ġsu ccess
Ġstat ement
Ġan n
el ess
ere cht
Ġdes sen
w ar
ff entlich
Ġ ,
sch ein
zeit ig
ĠSte llung
h Ã¶
ĠE mp
ĠU S
ĠZ we
hn t
in a
ĠH o
Ġgreat er
y p
ge gen
Ã¤ d
Ġein deut
Ġre ach
sp rÃ¤sident
Ġall es
Ġprop er
Ã¤ hl
ĠBe kÃ¤mpfung
ĠGemein sam
Ġhal ten
Ġprev ent
Ġmaj or
f onds
n ess
and id
Ġup on
Ġobject ives
f ern
Ġb o
ro w
le tz
Ġer ste
Ġopport unity
z ogen
Ġp ass
Ġvor gesehen
ĠJ ust
Ġm ind
Ġer n
ĠVer hand
Ġvor liegen
Ġent scheiden
setz en
kon ferenz
ĠWirtschaft s
Ġeben falls
n et
Ġc los
ĠS itz
Ġden ke
C O
o graph
al le
Ġbe im
ĠIn itiative
Ġwas te
ĠPro di
ch an
Ġex c
Ġcre ate
Ġer reichen
Ġ1 3
ĠGrund lage
zie hen
Ġav ail
Ġgem acht
g ang
y l
re chts
Ġbe gin
ĠH ier
Ġwo hl
Ġword s
Ġof ten
id ar
ĠEr klÃ¤r
Ġgr und
ĠAbgeordne te
ĠBinnen markt
l ess
Ġt able
Ġf un
ĠS ub
ĠW ith
ĠR Ã¼ck
if iz
Ġhe iÃŁ
hil fen
Ġchild ren
Ġe th
ter s
gr at
ig in
Ġge geben
mit t
ĠFin ally
Ġtak ing
ra cy
ĠD ienst
Ġobject ive
Ġmention ed
Ġcomple te
Ġadm inistr
Ġer ne
Ġdo ub
Ġeigen en
h ing
Ġt reat
Ġsh ow
Ġen erg
iÃŁ b
Ġsimp ly
Ġb usiness
Ġp le
ein ander
ĠVer tre
ult ur
Ġadd ress
Ġwen iger
Ġvi ol
Ġer mÃ¶
utz en
Ġdemocrat ic
ab hÃ¤ng
Ġcon grat
Ġne hmen
Ġsch ne
Ã¤r en
Ã¶r derung
he b
Ġeffect ive
bens o
gangen en
ĠAfr ica
Ġin n
Ġg ar
Ġl ack
Ġqu ality
Ġconc lus
ĠwÃ¼r den
Ġenlar gement
b our
e an
ĠM y
Ġver such
pp e
ĠEn de
aÃŁ t
Ġgemeinsam en
Ġbess er
Ġproject s
ĠAuff assung
Ġcongrat ul
Ġin strument
Ġhat te
Ġatt ention
Ġt ry
ĠM ed
Ġha ppen
Ġbei den
Ġsp rechen
Ġweit ere
Ġviel leicht
Ġerforder lich
i x
Ġs ing
re icht
ĠE rachten
ation en
Ġdec isions
Ġrequ est
Ġfund s
ĠHin blick
ĠDisk uss
ĠErachten s
in ed
Ġm ult
Ġe ig
Ġp ers
ges etzt
ber eit
Ġwe iÃŁ
Ġact ually
ĠCh arta
hil fe
Ġbene fit
Ġloc al
h ere
z en
z ahl
in ing
Ġt err
or n
ĠF Ã¤
Ġauf grund
Ġte xt
Ġgegen wÃ¤rt
ĠArbeit sp
ĠGemeinschaft s
Ġfollow ing
Ġcolle ag
Ġcompan ies
Ġrecog n
le ist
ip f
Ġverschieden en
Ġa ff
on ger
ĠVer kehr
ers eits
Ġman agement
Ġent wick
Ġfin den
w ach
Ġm od
Ġp op
ĠT o
isch es
Ġfor ce
os ed
ĠBe hÃ¶r
Ġob l
Ġspe cial
Ġmember s
p er
Ġal though
ĠZ iele
ĠRe p
Ġor igin
Ġinternational en
Ġm oment
st erd
rimin al
ĠY ou
aff ung
Ġmor gen
Ġimplement ation
sterd am
l Ã¤ndern
Ġt as
it s
al en
Ġc ases
ge lung
omm end
Ġjed er
Ġcont ain
ĠKo sten
ĠVerein igten
ĠAm sterdam
Ġsing le
ĠM itte
Ġl iberal
ne h
ĠAus wirk
Ġreg ion
Ġweiter hin
or gen
rit ten
Ġhin sichtlich
Ġwicht ige
ats Ã¤ch
Ġmatter s
Ġprev ious
Ġm en
Ġqu al
Ġdis p
Ġste llt
0 2
g ern
h aps
Ġein fach
ĠAn wendung
Ġpla y
ĠBed ing
Ġparl iament
ĠRegierungs konferenz
c en
Ġm ak
Ġm ight
Ġv Ã¶
ĠT Ã¼r
Ġha ving
f ang
w urf
ed er
Ġer inn
ĠAb kommen
Ġother s
Ġdisc rimin
Ġserv ice
Ġa genda
Ġbe hand
um mit
Ġdis k
alt ung
ĠBeit rag
b on
it en
ro ss
ĠN or
ann ten
ĠSch luÃŁ
Ġen c
ĠReg ion
pr Ã¼
Ġan genommen
Ġsein en
Ġmein es
Ġkein en
ĠVerb ess
ĠInter esse
i ver
is ik
Ġf ree
ut es
Ġso gar
ĠSch affung
ific ation
ĠDa her
at or
Ġp ast
ĠG eschÃ¤ft
Ġver sch
ap er
ĠCon vention
itÃ¤ ts
ent en
Ġh on
ĠK rit
ĠVer pflicht
oc ol
ĠWettbewerb s
Ġavail able
u le
ie llen
Ġz us
Ġver s
Ġapp ly
Ã¼n f
fe hl
ĠWie der
o ten
v est
at ast
Ġc ivil
ĠM ar
ĠW och
Ġsu g
Ġpre p
Ġte il
ĠProgram m
Ġwirtschaft lichen
Ġmil it
v oll
ĠF rieden
ĠAuswirk ungen
a kt
ĠG eld
Ġsch lieÃŁ
halt ung
Ġwen ig
le is
ĠHerr en
Ġpo ll
Ġrec ommend
ĠAl s
c om
er ous
st ant
Ġwh ile
op er
ĠGes etz
Ġincre asing
atast rop
d ition
al led
st ens
ĠG esellschaft
ĠZ ahl
ĠSt abil
ĠCh arter
Ġviel en
ha ft
er b
id es
Ġer wÃ¤
ĠIt al
Ġrespon sible
Ġmon itor
ĠProgram me
st immen
ĠF Ã¼r
ĠVer tra
Ġmein en
Ġprote ct
zieh ungen
ĠBeschÃ¤ft igung
Ġt atsÃ¤ch
Ġh armon
st um
ĠW or
ĠU hr
forder t
ĠÃ¶ff entlichen
ĠheiÃŁ t
on t
un ter
Ġc are
im um
Ġl ife
Ġag o
m ut
ĠM il
iv ed
chn olog
schlieÃŁ end
Ġlegisl ative
s erv
z ug
or row
Ġst ates
la st
Ġsu re
ĠDemokrat ie
Ġth ings
ur teil
Ġch allen
Ġjed en
Ġfull y
ĠFisch ere
Ġappropri ate
verstÃ¤nd lich
ĠFort sch
j en
Ġs it
ĠF est
Ġk Ã¼nft
ĠSo cial
Ġconf lic
k ten
Ã¶ t
ĠZ ug
Ġsub sid
ateg ie
Ġagreement s
ĠInformation en
is her
te llen
Ġh ist
Ġge hen
Ġall erdings
Ġsch wer
Ġstand ards
Ġans wer
l assen
Ġ ident
re te
Ġihre m
Ġregard ing
ĠLand wirtschaft
Ġguarante e
ĠBevÃ¶lk erung
a i
Ġd ist
or gan
ĠA mer
ĠU r
our t
ĠSch w
ĠInter essen
Ġprincip les
Ġbek annt
Ġnegoti ations
Ġpow er
an den
Ġj ud
ĠTe xt
sel ves
Ġsozial e
ĠhÃ¤t te
ĠMehr heit
ĠvÃ¶ llig
f ragen
ah n
Ġ1 4
spr uch
a gen
h ab
Ġd ang
Ġin tend
Ġp ress
us e
ĠF r
ind est
h end
Ã¼ d
el ves
Ġst ress
Ġne ver
Ġass ist
Ġ5 0
Ġgu id
neh mer
c o
Ã¼ t
ĠRe i
Ġco ver
Ġpartic ip
fol gen
stan ces
aussch uÃŁ
d rÃ¼ck
ro und
Ġcon text
Ġgovern ments
ĠGeschÃ¤ft s
v ious
z unehmen
Ġw ahr
Ġs ur
ent liche
ig es
Ġse hen
ens te
ĠVor aus
Ġent er
Ġ3 0
ĠCon ference
Ġeffort s
b ur
Ġc ent
ĠB alk
Ġres tr
Ġih m
Ġrec ent
Ġinde ed
merk sam
Ġvo ted
Ġthe ms
Ġent halten
Ġstr ong
lex ib
ĠBeding ungen
Ġthems elves
l Ã¤nder
Ġs ystems
Ġf ish
ic an
ĠW Ã¤hr
me hr
ĠSch ul
Ġour selves
Ġfar m
ĠgehÃ¶r t
Ġkle in
Ġf amil
Ġe uro
Ġto m
Ġit em
Ġer klÃ¤r
ĠBericht s
Ġev ent
ĠSe cond
Ġsign ific
Ġgef Ã¤hr
m b
od y
imm ung
Ġges tellt
Ġconcern ing
tw ort
i ft
Ġd ring
an gen
ich tet
ĠS elbst
Ġj oint
Ġco ordin
out h
fin den
Ġgemeinsam e
Ġ200 1
fort un
Ġw ider
Ġverb ess
ĠG ree
ĠG overnment
ĠAn twort
Ġcom es
Ġsa g
Ġcommun ication
jen igen
a v
ĠW asser
qu e
Ġdo ing
rit ts
Ġreason s
o de
ro tz
Ġg ute
Ġl onger
Ġtra ff
ĠÃĸ sterreich
Ġmonth s
ĠD och
Ġunter schied
Ġpart ies
Ġdiscuss ion
stan den
Ġschw ier
vorsch riften
Ġgrow th
Ġtom orrow
en ken
ĠF Ã¶rderung
Ġst Ã¤rk
Ġnot hing
Ġbis her
Ġconsum er
an u
Ġbe it
im s
ĠD amen
Ã¼s se
age d
Ġsol ution
Ġke ep
Ġstrateg y
ĠTur ke
ĠnÃ¤ch sten
Ġdiscrimin ation
b an
it ive
Ġc aus
Ġl ab
ab on
iss abon
Ġsh e
trÃ¤ gen
leg ation
Ġemp h
Ġwirk sam
ĠTÃ¼r ke
Ġdisk ut
) )
m den
in ge
Ġo pt
ĠS icht
ĠC ourt
ĠVor s
Ġweit eren
ĠDies er
Ġdemoc racy
ĠKontro lle
v ant
in ation
te id
ĠK ultur
ĠR isik
Ġcon v
ĠL issabon
ĠIn vest
eren ce
Ġide a
i ze
u gen
ro ffen
Ġe ar
Ġfa ir
wor ten
Ġdra w
ĠOrgan isation
ĠTurke y
ĠL uft
ĠZ weit
Ġam ong
ĠGe w
Ġcont ra
led ge
Ġagricult ural
ĠLis bon
ĠRei he
ĠK omp
ĠG esch
de utet
ĠL et
fr ist
sel f
Ġregul ations
ĠNot wend
ĠTÃ¼rke i
at is
ÃŁ en
ĠT ats
Ġtechn ical
zus tellen
Ġeth n
Ġan al
ing en
Ġz ie
Ġer reicht
lie d
Ġar beit
ĠKommissar in
Ġfo und
Ġabsol ute
ĠSitz ung
c kt
or ted
ĠB SE
il ung
ĠR aum
Ġfor e
Ġdis ast
Ġind em
Ġhuman it
Ġfind et
w Ã¼r
ch er
Ġund ert
ĠVer fÃ¼
Ġreport s
ĠÃľber ein
Ġseem s
ĠÃ¼br igen
o ver
or ge
an ts
Ġf our
Ġoff icial
itt le
u ppen
Ġun t
ĠP re
ĠK Ã¶n
Ġl ink
ot t
ĠEr zeug
Ġen ough
Ġwicht igen
Ġcurr ently
ĠDisk rimin
Ġern st
ch es
Ġb il
ĠA ktion
Ġda y
Ġl ittle
ĠunterstÃ¼tz t
ĠBerichterstatter in
Ġenerg y
Ġf Ã¼nf
Ġe benso
ĠE C
Ġbe deut
ce ed
ĠBe ziehungen
ĠO p
bar en
ĠBehÃ¶r den
n ers
Ġm ar
Ġf Ã¶r
Ġn et
Ġz ahl
Ġre t
am b
ĠGe fahr
Ġra c
rie g
Ġexp erien
ĠkÃ¶nn ten
R E
ll ent
ĠK l
Ġdevelop ing
ĠVol ks
Ġactiv ities
Ġguid el
L AF
o ve
le i
ĠPro zeÃŁ
land s
h ens
re iben
Ġh im
ir c
ĠD am
Ġde p
gr iff
Ġgro und
ĠReg ierungen
ring en
ren ch
p rÃ¤
ic s
Ġcon sequ
Ġra il
gram m
Ġact ions
Ġprodu ction
ull y
Ġke y
ĠAuÃŁ erdem
ĠVerhand lungen
ĠSecond ly
ĠNotwend igkeit
. .
o y
u ese
Ġd ue
Ġp ot
Ġof t
Ġbe deutet
ĠP ri
ĠG ipf
Ġver treten
se hen
ĠPres idency
ĠVorsch riften
ĠGrund rechte
Ġrel ation
ater ial
Ġconsum ers
ho f
ĠPortug uese
Ġexce llent
g Ã¤n
Ġf ran
Ġc irc
ff ice
ver b
ĠAn trag
Ġsh are
imm ungen
ĠAuf gabe
Ġincl ude
Ġbu ild
Ġenc our
b a
l ies
at ors
Ġv e
Ġver w
ĠL eit
ĠPar t
enn ung
ĠPrÃ¤sident schaft
sta at
ĠHer aus
ĠAuÃŁ en
Ġjob s
Ġstren gt
Ġtable d
Ġmak es
a pp
Ġer fÃ¼
Ġres ul
ĠPro t
utz ung
Ġper haps
ĠBei hilfen
. )
f ully
i ffen
Ġf all
ra el
ĠD ank
ĠF rench
Ġver n
ĠO b
at ory
Ġm Ã¼ÃŁ
Ġv ier
Ġv ict
ll ing
omm un
ĠW ach
ĠPar ty
Ġex pect
forder ungen
Ġcost s
Ġobl ig
Ġemph as
Ġguidel ines
at iv
an ges
Ġf ield
ĠD ok
ĠKommission s
maÃŁ nahmen
Ġhon our
bur g
Ġz unÃ¤chst
Ġschne ll
E urop
b est
g overnment
Ġs ett
or m
ĠA gr
we il
Ġ2 5
ĠKon fl
Ġunser em
ĠQ ual
fÃ¤h igkeit
g liche
l ow
u c
Ġp ur
ĠW o
ĠG re
ĠC o
Ġcongratul ate
ig ungs
Ġqu ick
Ġmein em
Ġbestimm te
ĠPri or
government al
Ġb it
Ġp ortug
Ã¼ cht
ĠM in
ĠB rit
ĠR ass
ust ain
ĠN r
Ġse en
ĠO LAF
Ġent ire
ĠRat sprÃ¤sident
ĠAs s
Ġmain tain
ĠberÃ¼cksicht igt
Ġeig entlich
Ġportug ies
w Ã¼n
Ġl Ã¤nd
Ġver st
du c
Ġcomp rom
Ġfin al
Ġgesam ten
ĠEnerg ie
Ġb re
Ã¼ h
Ġv oting
icht en
Ã¤n de
Ġam b
Ġgen er
Ġprov ided
Ġkon n
Ġagre ed
Ġeindeut ig
ĠVerbess erung
z entr
Ġf Ã¼hr
ĠSch ritt
Ã¤t igkeit
mit ted
ĠGemeinsam en
h es
l t
ĠP al
os s
Ġver fÃ¼
Ġer war
Ġse ver
ck en
schaft lichen
ĠJ anu
ĠO ur
Ġen g
Ġsol chen
ĠBereich en
richt ung
stru ct
gre ifen
Ġprep ared
fortun ately
i vers
on d
Ġb zw
ig lich
ĠP unkte
ĠK ap
Ġse x
Ã¼s sel
mittel n
Ġcontin u
Ġm er
ĠT ag
il leg
Ġge e
ort h
Ġdem on
Ġsein em
Ġob vious
Ġneed ed
arbeit en
ĠSta ats
ĠMitte ilung
Ġin iti
ĠM E
Ġg ra
ĠIn form
ith er
Ġimpro ve
ĠPr inzip
ĠForsch ung
ĠDiskuss ion
a ut
h nen
s ide
Ġt y
it im
ĠB as
Ġl ine
Ġst ar
Ġst ud
ĠN ahr
uÃŁ t
ĠAustri a
ste ll
Ġwork ers
Ġbas ic
Ġele ct
ĠPl en
ar f
te mp
Ġe as
sp rechen
ank en
Ġ199 7
ĠEntschlieÃŁ ungs
Ġumf assen
Ġled iglich
Ġsignific ant
0 3
p id
Ġver gangenen
Ġsch ein
Ġpo or
Ġricht ig
Ġpop ulation
atis f
A D
im me
ĠZ um
ĠWir k
ĠO ne
yste me
ĠRicht ung
fol gt
Ġproced ures
Ġlang u
Ġan im
Ġv is
ĠD enn
ĠK amp
Ã¼r z
ĠN icht
Ġhat ten
Ġch anges
Ġetw a
Ġthrough out
Ġgel ten
Ġval ues
Ġcrit er
Ġsens e
umen te
ĠGrÃ¼n den
ĠEmp fehl
Ġunt il
Ġnet work
m ost
s Ã¤tz
z Ã¶s
Ġb an
ent ions
Ġre in
Ġl ow
Ġst ark
ĠÃĦnder ung
kon tro
Ġgleich zeitig
ĠMÃ¶glichkeit en
Ġcommit ment
ĠVol k
Ġs ustain
Ġder art
Ġre pe
Ġdurch ge
p lan
y n
Ġbe g
ce p
Ġst op
Ġpart ners
arbeit et
ĠLe g
legen heiten
ĠThem en
ffentlich keit
ĠNahr ungs
Ġd isch
es en
Ġein gehen
ĠT od
ĠW ahl
Ġl and
Ġge fÃ¼hrt
op h
la ÃŁ
ĠMitglie der
Ġra d
Ġra ised
ĠÃĸ ffentlichkeit
Ġzus Ã¤tz
ĠZweit ens
ĠAgr ar
b y
f ert
or en
al ten
ĠA ut
im b
Ġver hin
Ġex tend
geb racht
Ġget an
Ġtr ue
Ġexpress ed
gew iesen
Ġzweit e
Ġanges ichts
Ġaspect s
ĠErklÃ¤r ung
b are
c r
in ne
ĠLe ben
Ġass ess
Ã¤ÃŁ t
ĠFre mden
Ġsag te
Ġanal ys
ĠVerfÃ¼ gung
an a
Ġe ither
Ġp a
ĠM al
ĠH uman
Ġvor gelegt
ĠAn t
Ġres t
Ġprov isions
Ġemp loy
Ġcar ried
Ġfol gen
Ġmeet ing
ĠAnge legenheit
ĠParte i
ĠFrei heit
ĠWach stum
Ġpur p
a at
f re
Ġf ive
Ġn am
ĠW ill
Ġapp e
Ġbet roffen
Ġask ed
Ġestablish ed
ĠEntscheid ungen
leis tet
ĠTats ache
ĠDam it
Ġty pe
Ġm acht
al itÃ¤t
Ġc lar
ge leg
Ġbe ant
ĠS ache
Ġih n
Ġunser es
fÃ¤ lle
Ġrequire d
ialog ue
ĠI ra
Ġch e
lin e
arbeit ung
ĠSte uer
Ġpra kt
Ġcontrib ution
komm ens
Ġsug gest
g o
Ġb or
as ch
Ġl ange
Ġwe ek
zu legen
Ġwo bei
lemen ted
Ġter m
Ġachie ved
s on
ed i
ig r
Ġfa il
Ġevery one
Ġwes entlich
ĠInform ations
n issen
p or
ar ing
Ġun abhÃ¤ng
ĠD ialog
Ġst immen
ĠZ unÃ¤chst
Ġle ider
iel le
ist ischen
Ġch ocol
hl en
Ġnat ure
gl Ã¼ck
ĠStellung nahme
Ġgrund legen
ĠArbeitsp l
ĠRass ismus
is on
Ġs etzen
ie w
Ġb itte
Ġf rÃ¼
ĠS erb
ste llt
ĠEn g
ĠZeit punkt
ĠgroÃŁ er
Ġher aus
gese llschaft
Ġpres ented
pend ent
ĠZug ang
Ġd ialogue
ie ten
ig te
ĠP osition
ind ung
ĠAb schlieÃŁend
ok ol
geb ung
ĠSe ktor
Ġconf idence
Ġorganis ations
g u
Ġe duc
Ġwh ose
ĠH Ã¶
Ġcon ne
ĠAn frage
ĠReg ional
b ildung
p ite
r ug
u ppe
Ġc la
Ġun emp
Ġver g
Ġcom b
Ġhin weisen
Ġdec ided
Ġcar ry
ĠSeit e
ĠtatsÃ¤ch lich
Ġresul ts
g ument
Ġ illeg
un ities
Ġw Ã¼n
Ġb eschÃ¤ft
ĠI r
ĠP ra
Ġver l
Ġhe ut
ĠBel g
Ġtot al
Ġchocol ate
e llen
m ore
Ġst age
ĠIn tegr
Ġex am
Ġ2 1
cc o
reich e
conom ic
ĠCh ina
schlieÃŁ lich
Ġmarket s
Ġrem ind
ĠBesch luÃŁ
Ġcor rect
Ġallgemein en
ennt nis
en nen
Ġa kt
ĠF ern
id ing
Ġso on
ver ty
Ġer heb
for men
Ġ1 8
Ġpo verty
Ġfund ing
ĠDem oc
ĠVertrag s
ĠErgeb nis
Ġdoub t
Ġfran zÃ¶s
Ġsever al
imb ab
on en
Ġth ing
te m
ĠP er
sch luÃŁ
Ġfa st
Ġch o
ĠHaus halt
Ġdel ay
Ġlim it
Ġexist ing
ĠPerson en
) :
o f
Ġd est
Ġt urn
Ġh och
Ġc andid
ĠM inder
ĠD en
ĠR es
Ġbet reffen
he ben
ha upt
Ġstrengt hen
Ġbe fÃ¼r
ff t
ĠVer s
ran g
Ġmo dern
Ġsee k
zeich ne
ĠIs rael
c ies
at ic
ich en
Ġf oc
ĠV Ã¶lk
Ġwe gen
ĠJ u
rie f
ĠStr ategie
ĠBeit ritts
Ġur g
Ġbestimm ten
Ġbro ad
ĠDi rect
ĠNat ur
Ġassist ance
es ted
Ã¼ lt
Ġbe teil
ĠS an
Ġl Ã¤ÃŁt
Ġy es
ĠEr stens
ĠGe legenheit
stru ktur
Ġprom ote
Ġfol gt
Ġaccord ing
ĠFirst ly
ĠVertre ter
ĠKomp rom
Ġdisch arge
Ġsp iel
Ġtra gen
Ġtra dition
fol ge
leg ung
Ġoff er
ĠVerein bar
Ġcap ital
Ġmot ion
Ġple ased
a graph
en ces
Ġf isher
ar ian
Ġv erein
Ġbe ha
ĠM Ã¤r
Ġzu stÃ¤nd
gen cy
Ġk o
pe ten
ult ure
Ġimp lemented
ink i
ĠDe c
lan gen
els inki
ĠKo ordin
ĠFl Ã¼cht
ĠbegrÃ¼ÃŁ en
Ġcomprom ise
Ġcriter ia
Ġto ur
el ten
ĠR om
ĠH elsinki
Ġer ziel
Ġgen ommen
Ġte le
teil en
setz ungen
Ġpract ice
Ġpriv ate
ĠFol gen
Ġquick ly
Ġs atisf
Ġbe h
lich es
Ġk omp
Ġfor t
Ġauf genommen
ĠSch okol
Ġunter b
iven ess
ĠRechts vorschriften
Ġhel d
Ġarbeit en
i ans
o ung
Ġh old
ĠP ost
ĠW TO
Ġfor dern
um e
ĠL E
ĠRe gelung
Ġjed em
ĠMitgliedsta at
ĠMenschen rechts
Ġtransp aren
Ġbesch lossen
ĠGer man
ĠbegrÃ¼ÃŁ e
Ġanges prochen
ĠLebens mittel
wed en
Ġble iben
u ted
ste ad
Ġfa cil
Ġkein er
mit glie
pr inzip
Ġlevel s
Ġange m
Ġpri ority
Ġaff ect
wÃ¼r d
AD ER
a z
n ommen
u ff
ĠS inne
Ġl ight
Ġer ster
ĠL in
ges amt
ger ungen
Ġinc or
ĠKo h
ĠFl ug
ĠBest immungen
Ġtalk ing
Ġbal ance
Ġsuff er
a den
Ġp h
ĠF amil
ĠK raft
os la
est s
Ġpro fit
Ġde term
ug osla
gr iffen
ĠAb satz
ĠEin fÃ¼hrung
Ġind ic
Ġlie gen
gesch lossen
ĠGer ichts
ĠUS A
Ġtas k
Ġsit ting
Ġfore ign
ĠLE ADER
N T
d ict
i ere
Ġd at
te ll
im ension
Ġsa fe
los igkeit
Ġsay ing
pr il
Ġ4 0
ĠGro ÃŁ
Ġread ing
ĠInd ustrie
chan is
ĠermÃ¶ glichen
Ġinn ov
i kt
Ġs orgen
Ġin st
Ġo ld
Ġv ol
Ã¶ sen
Ġst aat
Ġex cept
we gen
ĠAn satz
Ġy oung
ĠAnge legenheiten
ĠRed e
Ġcomplete ly
Ġfoc us
p f
le gt
Ġc riminal
ol ution
ĠT ra
Ġhe ad
Ġno te
Ġknow ledge
ĠBÃ¼r gern
Ġverb unden
Ġbew uÃŁt
Ġhist or
Ġabsolute ly
w and
Ġb lo
le ben
ĠA pril
ĠP e
ĠN os
ĠN ationen
Ã¤n ger
uf ig
Ġob wohl
Ġpre par
Ġref uge
Ġspec if
ĠSp an
Ġimm edi
abe i
Ġconflic t
organ isation
w an
Ġc ru
ĠD abei
ne hm
ĠAn st
Ġpart y
Ġro ad
eth od
Ġsc ient
Ġhigh l
Ġwirtschaft liche
Ġrele vant
Ġcolleag ues
C P
ie ht
Ġun ver
ĠP olic
Ġme isten
ĠEnt last
Ġges prochen
au er
hand lung
Ġindust r
ĠAmend ments
Ġel se
imbab we
b t
i op
p re
Ġc ut
Ġto p
Ġbe vor
ĠVer sch
ĠIn strument
la ub
Ġmo ve
ĠRicht linien
ĠMein e
Ġass oc
ĠBem erk
ĠDok ument
uc lear
K P
e hen
h ung
o z
al u
ĠH altung
Ġge mÃ¤ÃŁ
ĠL es
ien en
Ġleg itim
ĠKon s
Ġsol idar
Ġjust ice
Ġref le
Ġir gend
ikan ischen
a it
Ġs an
ĠS Ã¼d
hr te
Ġst ability
end ing
ĠAr mut
th iop
Ġprov ision
Ġregard s
Ġinclud ed
Ġsuff icient
ĠhÃ¶ ch
ĠVerwalt ung
ĠSchw ier
Ġrac ism
A TO
Ġth ough
or r
ge hend
ĠI NT
ĠT at
ein d
Ġat temp
ist ic
ĠEr fahr
Ġra pid
ĠArbeit nehmer
Ġprodu c
Ġakzept ieren
Ġapplic ation
ĠKamp f
v ision
an ced
Ġm is
Ġh ard
Ġc ause
ĠS ummit
Ġre con
ĠD aten
ĠD ritt
ess ion
Ġco her
Ġsch em
our cen
Ġinter ess
Ġalle in
Ġevery thing
Ġbudget ary
Ġrepresent atives
zieh ung
ĠQu est
Ġpers Ã¶n
Ġhonour able
Ġverg essen
Ġtransparen cy
Ġha pp
ĠSch iff
sta aten
Ġpr Ã¼
Ġexp la
ĠKon t
wend et
Ã¤nder t
Ġconsider ed
Ġac cep
ĠLiberal isierung
zÃ¼ glich
Ġerinn ern
Ġfarm ers
g ungen
h em
k o
t ent
t ragen
is iert
ar enz
Ġun beding
ĠS outh
ĠB y
ĠD inge
Ġl i
Ġst Ã¤nd
end it
Ġab ove
Ġ1 6
th eless
igh ted
Ġconc l
Ġimp act
tern al
gel n
Ġgleich en
Ġfra ud
Ġrequire ments
Ġnam ely
Ġdat a
er c
Ġt ar
is ely
Ġf ig
Ġbe glÃ¼ck
ĠK rieg
Ã¶ ff
ĠG ed
um s
Ġver ab
Ġr ural
Ġapp lied
Ġdis trib
ĠDies es
Ġend lich
Ġappro ved
ĠSicherheit s
zeich net
Ġdank e
Ġav o
ĠhÃ¤t ten
ĠPat ten
Ġvict ims
ĠPolic y
O s
d ing
Ġt imes
ĠA CP
Ġl ist
ier s
Ġer folg
Ġab ge
Ġunter st
Ġapp ear
Ġspe zie
ĠeuropÃ¤ ischer
hand el
Ġref erence
ĠGen eral
ER RE
Ġversuch en
ĠVertra uen
drÃ¼ck lich
ĠDemoc rat
ĠbeglÃ¼ck wÃ¼n
ERRE G
i j
Ġein zu
ra chte
ra chen
Ġle ft
ok oll
Ġdurch aus
ĠSte lle
Ġredu ce
Ġvoll stÃ¤nd
Ġval ue
ĠProdu kt
ĠStruktur fonds
ĠTransp arenz
ĠDienst leist
Ġpoll ution
ĠOp fer
o in
un der
Ġs us
ĠS c
ut ter
sch t
ĠW issen
ĠF urther
her n
ĠN ATO
Ġle isten
ure d
Ġcomm unity
Ġob serv
ĠHand els
ĠDurch fÃ¼hrung
ĠProj ekte
ĠLeit linien
ĠINT ERREG
E N
ar s
Ã¼ gen
ut en
trÃ¤ cht
schlieÃŁ en
Ġconsider ation
Ġrespon se
Ġrece ived
ĠDiskrimin ierung
Ġiniti atives
Ġspecif ically
p art
er weise
Ġm ethod
le it
ĠA KP
ic les
ter day
ĠL ast
ĠIn de
la ufen
if el
ĠAn nahme
Ġ1 7
ition en
velop ment
Ġgest immt
ĠIntern ational
Ġble ibt
ĠSchluÃŁ fol
Ã¼h ungen
Ġcandid ate
m inister
s icherheit
Ġc entral
Ġver antwort
la uf
ĠAb sicht
Ã¤r m
Ġcont ent
reit en
Ġequ al
Ġcrit ic
Ġrev iew
ĠErgeb nisse
rech end
ĠZus atz
ĠAsp ekte
Ġbehand elt
d ienst
ĠM ay
ab ak
Ġr un
Ġr ene
Ġgeb racht
ĠGree ce
Ġbeh ind
Ġunbeding t
I P
b ru
e g
m et
s Ã¤tze
er ve
Ġb l
Ġp ension
Ġc alled
ĠI de
ut er
ind ustrie
ib e
ĠO f
Ġany thing
Ġdiscuss ions
Ġpract ical
Ġander er
ĠGeschÃ¤fts ordnung
O ffice
is is
le isten
Ġto ba
Ġein heit
ĠK r
ist ische
ĠEr folg
ĠGr ie
zie ht
ac cept
ĠAfr ika
Ġinvest ment
Ġzweit en
Ġ19 8
ĠgewÃ¤hr leisten
ĠVerpflicht ungen
ĠVors itz
ĠfÃ¶r dern
b ahn
it err
Ġo ught
Ġp urs
Ġun accept
ĠP aper
ĠW el
ĠW ider
ĠK enntnis
ĠVer gangen
stru ction
Ġcr isis
ĠFe bru
Ġcult ure
Ġconsequ ences
ĠKomprom iÃŁ
Ġtoba cco
Ġw eder
Ġin e
Ġf l
Ġun e
Ġv ere
ct ural
ze hn
Ġhe ard
Ġmo vement
tro ffen
ĠStru ctural
bour g
Ġmilit ary
ĠPart ner
Ġunemp loyment
ĠIntegr ation
ĠVÃ¶lk er
st re
ĠW hen
Ġl ok
ĠG ar
ĠÃ¼ber haupt
ĠBe teil
ĠmÃ¶ chten
Ġpropos e
ĠKon ferenz
ĠÃĦnder ungen
Ġtra ining
ĠGrund satz
Ġins gesamt
Ġrec ently
Ġover all
Ġwieder hol
Ġintegr ation
Ġvorliegen den
ĠFischere i
Ġdring end
Ġpot ential
iterr an
l ik
l ant
Ġt rotz
ĠP rÃ¤
ab el
ĠN ie
ens icht
pe kt
gr enz
ag ing
Ġincre ased
Ġauth ority
ĠAu gen
Ġplan s
Ġkonk rete
ĠZust immung
Ġprec isely
ĠWoch e
Ġverbess ern
Ġcirc um
igr ation
Ġeduc ation
ĠSchwier igkeiten
ĠVergangen heit
F ra
d urch
Ġc red
ĠK om
Ġge fordert
Ġge troffen
Ġver k
Ġle ben
qu ate
Ġinter vention
Ġte ll
Ġhin gewiesen
Ġtak es
spro zeÃŁ
ĠFran k
ĠArbeitspl Ã¤tze
l iz
ch ter
Ġin fl
Ġm ass
et ze
Ġpro ceed
ĠEnt wurf
Ġus ing
Ã¼n st
ĠBereich e
Ã¤m t
zus etzen
Ġsect ors
Ġwes entlichen
ĠFe hl
beding ungen
ĠNat Ã¼rlich
Ġmod el
Ġdang erous
Ġbit ten
hes ion
Ġconne ction
ĠLes ung
ĠprÃ¼ fen
ĠGrie chen
P ro
u ber
Ġb i
Ġf lexib
ĠE ast
ĠM Ã¤n
Ġg erecht
ĠK atastrop
Ġcon dem
uf act
Ġcomm ents
wo gen
Ġgesch affen
Ġimpro vement
ho ben
ĠBem Ã¼hungen
Ġschein t
geleg ten
b et
f ect
m ark
is ieren
Ġs y
Ġso und
Ġent schieden
Ġch ar
Ġzum indest
Ġwichtig sten
Ġauth or
Ġrisk s
Ġgesam te
Ġrefer red
ĠFortsch ritte
Ġfish ing
ĠKoordin ierung
Ġincor por
Ġcru cial
ĠFurther more
Ġunaccept able
u x
Ġo il
den ken
et s
ĠH ow
Ġman ufact
Ġcoun ter
teil t
ĠInter governmental
Ġform ul
Ġdemokrat ischen
Ġconclus ions
Ġmonitor ing
ĠKÃ¶n ig
tem ber
P E
h Ã¤n
ie f
Ġp at
Ġh uge
Ġdie jenigen
Ġk rit
Ġr ate
Ġvor sch
ue llen
Ġma x
ĠAuf merksam
Ġdam age
ken nen
Ġcr ime
Ġje weil
ĠberÃ¼cksicht igen
Ġcoordin ation
ĠBrit ish
ĠfÃ¼hr t
ĠSchokol ade
O M
Ġt im
at ten
ie t
te ile
Ġn utzen
Ġun er
ir es
Ġam ount
ick ing
Ġhin ter
ĠKolle ge
ffe cted
Ġselbst verstÃ¤ndlich
ĠNahrungs mittel
ĠAufmerksam keit
o od
t ik
Ġt ack
es te
Ġin spect
Ġm ess
Ã¤ ter
st ra
ĠE isen
ra ch
ze ugen
our n
Ġcomm ent
ĠGr enzen
fÃ¼hr en
Ġsub stant
Ġkon zentr
Ġrel ating
ĠThere fore
ĠHin sicht
Ġdire ction
ĠFran ce
Ġstruct ural
Ġcreat ing
ĠProt okoll
iterran ean
Fra ktion
n ern
r aten
Ġa round
Ġa ffected
ĠT abak
ĠF alle
hr en
Ġver d
Ġex port
Ġex tent
Ġr ule
uch t
Ġbec om
ĠDe velopment
ĠLand es
ĠWh ite
Ġdiscuss ed
Ġausge zeichne
Ġpow ers
Ġcult ural
Ġnor mal
Ġcreat ed
hab en
ĠWÃ¤hr ung
Ġexperien ce
f rei
Ġp en
ĠB arn
il ar
ĠVer teid
cht ung
Ġgen et
Ġcons ult
ri fft
Ġmo b
ĠÃĦnderungsan trÃ¤gen
Ġopport unities
Ġze igt
Ġfun ktion
orn ograph
ĠschlieÃŁ lich
Ġbil ater
Ġverst Ã¤r
2 00
Ġw oll
Ġs Ã¤mt
te en
Ġe ver
ĠP ol
ĠP PE
Ġg iving
ĠB ank
Ġdes pite
ĠIn iti
ĠN ational
Ġex act
Ġnach halt
ieren den
Ġjed es
Ġbesch rÃ¤n
wert ung
Ġdet ail
zuf Ã¼hren
Ġverhin dern
a ction
i or
Ġs inn
an ze
ĠT our
ĠK ommun
et ary
ĠR uss
Ġcon stit
ĠAn g
Ġsie ht
pt ion
Ġexp endit
teil ung
Ġele ctions
ĠFinanz ierung
Ġserious ly
miss ion
Ġocc as
Ġproduc ers
) .
f s
Ġth reat
Ġf al
ar ent
ro k
Ġv an
ll os
ĠW ert
Ġl ive
ĠEn vironment
Ġreg ret
Ġ2 4
are t
ĠUnter such
ĠFor derung
Ġdirect ives
ĠMon aten
Ġkonk reten
ĠFund s
ĠStra ÃŁ
ĠWer te
Ġliberal isation
ĠQual itÃ¤t
Ġpurp ose
t a
Ġc e
em b
ĠG ene
ĠVer Ã¤nder
op p
sp e
Ġcomm er
Ġout side
ri ft
Ã¼tz en
Ġfre ue
ĠFund amental
Ġvorgeschlagen en
Ġfinanz iellen
Ġerne ut
Ġintend ed
Ġyes terday
Ġsolidar ity
Ġexpendit ure
w h
z el
Ġb rit
Ġbe l
ĠM ore
Ġre ject
Ġso gen
ver gen
ach ten
ges undheit
au ern
lÃ¤ ÃŁ
stitution al
Ġele kt
Ġmor ning
ĠTransp ort
ĠKrit erien
z if
er es
us ion
ĠK ern
Ġl iving
Ġpro b
Ġst ated
Ġde ath
Ġj en
Ġall oc
ĠAus fÃ¼hr
Ġqu ot
olog ical
Ġbest Ã¤t
ĠHa upt
Ġconclus ion
ĠJu gend
ĠKÃ¶nig reich
w ise
on s
Ġp ort
Ġfor ms
Ġst aff
ĠBe am
anz en
Ġgen u
Ġmy self
ĠDe z
wir ken
ĠAs yl
ĠSte llen
Ġgood s
Ġgut en
Ġeing es
ĠgehÃ¶r en
Ġzie hen
pf lich
Ġrene w
p tember
Ġm et
st att
Ġzu stimmen
ĠL assen
Ġex tens
ous ly
Ġpos sibility
Ġspe e
lan gt
ĠSe ptember
ĠUns ere
ĠRegel n
Ġentsprechen den
ĠFÃ¤ llen
ĠGipf el
ĠKommissions mitglie
Ġdurchge fÃ¼hrt
ĠQuest ion
A L
n ungs
s o
Ġ Ã¤
te l
Ġc amp
ĠE ind
ig aret
Ġal most
ĠWe iÃŁb
ure au
rie ben
Ġeffect s
Ġpar agraph
ĠBet rug
sto ffe
Ġaccord ance
Ġreach ed
Ġmen sch
Ġdisast er
ĠPlen um
Ġsustain able
Ġheut igen
ĠEntlast ung
ensicht lich
w here
z Ã¶
Ġth us
Ġv ital
ĠT Ã¤tigkeit
ĠR ess
Ġso ur
and s
Ġer hÃ¶
Ġde v
ĠZ ivil
Ġsch l
Ġfe hl
Ġdeb t
Ġpl ann
Ġtot ally
Ġtry ing
ĠgegenwÃ¤rt ig
Ġchallen ge
ĠKonfl ikt
oph ob
n ungen
s eit
Ġw elt
Ġs ix
Ġb rief
Ġm aterial
Ġn uclear
Ġz entral
Ġcom ing
Ġcom bat
Ġent hÃ¤lt
Ġfa ce
Ġac ross
ĠFraktion en
ĠauÃŁ erdem
Ġpri orities
miss ions
Ġcl ose
Ġexc lus
iÃŁb rauch
Ġrestr ict
Ġtraff icking
ĠlÃ¤nd lichen
a f
a fr
h anden
w enden
ch s
it ation
Ġan wes
Ġun ge
ĠI I
Ġg ab
Ġver stehen
Ã¤n den
pe cted
Ġor d
ran k
Ġapp lies
ĠGe walt
ĠAuf gaben
Ġeinz ige
Ġmeas ure
Ġconf irm
ĠGebie te
Ġsupp orted
verkehr s
Ġlim ited
Ġben Ã¶t
Ġvern Ã¼nft
Ġche ck
Ġcircum stances
ĠFrank reich
ĠAusfÃ¼hr ungen
ĠWeiÃŁb uch
f eind
en ophob
Ġd ut
ig ungen
Ġre ag
ĠK ar
Ġda durch
ĠV on
ab kommen
Ġwe ak
ĠAn der
Ġgo es
Ġsp ok
bar keit
Ġresol utions
Ġsc ope
ĠHand el
Ġinvest ig
Ġagricult ure
ĠGesundheit s
Ġinstrument s
Ġbeit ragen
Ġdemon str
on nen
at ik
or gung
ĠA chtung
ĠM iÃŁ
ĠW ahr
il itÃ¤t
ĠVer mitt
gr uppen
Ġhe ar
esch rÃ¤n
Ġihr es
fahr ens
ĠGes amt
Ġconsider able
Ġho ffen
Ġbro ught
Ġaccep ted
i que
Ġ ung
in dern
Ġg ern
ĠB ildung
ul y
il ities
ot es
Ġge wor
Ġpro f
Ġas yl
la re
oun ts
ub lik
Ġste ts
cil iation
ĠTe chnolog
ĠMein er
pro du
Ġthank s
ĠZust Ã¤nd
ĠJust iz
Ġentwick eln
o ul
x is
Ġb illion
Ġe mer
ĠE l
ra hmen
id ay
ĠG ra
Ġver urteil
Ġne uer
fen ce
Ġfest stellen
ĠAll erdings
ĠBesch l
Ġaccess ion
ĠRegel ungen
Ġproper ly
Ġparliament ary
ĠBalk an
Ġret urn
ĠME P
Ġelekt ron
a ktor
Ġ x
Ġp ack
ent wick
Ġein iger
ĠD o
der ungen
Ġzu g
Ġal ong
Ġver pflich
Ġj ur
Ġex erc
Ġnoch mals
Ġfin ally
Ġ199 6
Ġeff iz
ĠDe ut
Ġlie be
Ġcur ren
ĠGebie ten
Ġcap ac
ĠParte ien
ĠPat ent
Ġcondem n
A N
F R
b el
g Ã¼lt
j ahr
p olit
w ill
un ktion
at isch
ĠP flicht
Ġg anze
ĠB udget
am ber
ct ive
ĠH armon
ĠTh ird
ĠVer wendung
Ġpr ice
wer k
ac io
ĠDa zu
Ġger ing
Ġdiscuss ing
zus ch
ĠSol idar
Ġadministr ative
Ġve h
ĠPal acio
Ġerwar ten
ĠMinder heiten
Ġrefuge es
Ġasyl um
b ringen
h nung
Ġs ent
Ġb ur
ar ily
ĠA ktiv
ul f
hr ist
ĠVer hÃ¤lt
Ġco hesion
wer te
Ġeff icient
ĠÃľber wach
acht ung
Ġfest gelegt
Ġsom it
Ġentsp rechend
Ġmin imum
Ġeing ere
Ġrecogn ise
Ġundert ak
Ġscient ific
ĠSchluÃŁfol gerungen
Ġa way
is p
un dert
Ġto ok
ĠA d
ĠS y
Ġer greifen
ik en
Ġdevelop ed
ateg or
zeug t
Ġnotwend igen
Ġann ual
Ġklein en
Ġsett ing
Ġwelt weit
G C
m a
s um
y ing
Ġ Ã¤ndern
is ter
Ġs elf
re hens
Ġh ome
Ġc ross
Ġun an
ĠP lan
ĠW ar
ĠG M
ĠN ations
Ġse par
ĠÃ¼ber w
ĠPro z
Ġdar stellt
Ġob tain
ress ion
Ġgr ant
Ġnat ural
Ġright ly
ĠMe x
ĠHer kunft
Ġestablish ing
Ġallow ed
Ġaddition al
ĠIhr er
Ġentsprechen de
Ġlab our
Europ ean
ĠKap ital
kontro lle
ĠAnst ren
d om
l ier
ĠE conomic
ĠI GC
ĠB ar
ĠW eit
Ġl ot
Ġdies be
Ġpro t
ungs an
lieÃŁ en
Ġprodu ce
ĠÃľber gang
Ġredu ction
att le
ĠProj ekt
Ġurg ent
Ġprob ably
Ġx enophob
Ġ ill
Ġt reffen
ie ll
Ġm iss
us ed
Ġein be
ic ations
Ġda ys
ĠN ow
ens ions
ĠEr ika
Ġen able
Ġsp ir
Ġpolic e
Ġwar um
Ġdirect ly
Ã¤mp fen
Ġreform s
Ġpres idency
Ġinde pendent
ĠBeschÃ¤ft igungs
Ġinstitution al
Ġverpflich tet
2 0
I n
f assung
k raft
in s
Ġt en
al es
Ġh Ã¤
Ġh err
ĠP rÃ¼
Ġk ulture
Ġdes ign
ĠN un
Ġj Ã¼n
for dern
ib ility
Ġsh own
Ġbes ten
cy c
ĠZeit raum
Ġeffect ively
ĠPolitik en
ĠmÃ¶glich st
Ġimplement ing
Ġbestehen den
ĠVerkehr s
ĠkÃ¼nft ig
ĠLin ie
Ġavo id
ĠEisen bahn
3 0
er ungen
Ġw r
ic ien
Ġg ere
Ġl og
tr ary
Ġex ternal
me er
ĠBer lin
tern ative
Ġwicht iger
ĠSe c
forder ung
Ġstat us
Ġ8 0
Ġspeak ers
Ġmed ium
ode ll
Ġcaus ed
Ġtour ism
Ġsan ctions
ĠInde ed
l Ã¼ck
z ul
z ub
Ġd r
un kten
it ors
Ġf ragen
Ġan zu
ĠD ruck
sch lossen
ĠC an
Ġst ra
Ġ1 00
Ġeff ekt
lÃ¤ gt
gel t
Ġstr ict
ĠGes prÃ¤
Ġganz en
Ġstand ard
Ġlang frist
Ġbess ere
Ġfun ction
ĠGesetz gebung
ĠInvest itionen
Ġfisher ies
Ġangem essen
o ol
o den
ĠM io
Ġge kommen
sp ar
ungs verfahren
ĠBe f
ĠSch l
ĠPrÃ¤sident en
rat ed
Ġho hen
Ġdef end
Ġobvious ly
ĠEntschlieÃŁungs antrag
ĠGerichts hof
ĠAnstren gungen
Ġwr ong
D A
b Ã¼r
i ance
k rÃ¤
Ġd ate
Ġs ort
at ch
Ġf lo
Ġn immt
Ġum gesetzt
be hÃ¶r
Ġdar stellen
ĠBer ichte
utz t
Ġrem ember
Ġsim ilar
aussch usses
Ġbal d
wes en
Ġtechnolog y
alle l
Ġbusiness es
ĠWieder auf
ĠWor ld
Ġhumanit arian
ĠDirect ive
ĠSolidar itÃ¤t
ĠjÃ¼n g
H O
s ystem
ch ange
ie tet
Ã¶ st
ĠN iel
qu is
Ġsu p
Ġunter nehmen
Ġbet onen
Ġbet rachte
Ġspe aking
ĠDe legation
itu de
Ġdevelop ments
Ġfirst ly
str Ã¶
Ġrem ark
ĠTreat ies
Ġcommun ities
Ã¤rk ung
Ġactiv ity
org nis
Ġpress ure
Ġli ability
ourn al
ĠÃ¤ hn
Ġgewor den
Ġcapac ity
k ung
m in
in den
Ġb od
Ġin tens
Ã¼ glich
am m
ze uge
se c
Ġexp lo
Ġoff ensichtlich
Ġrequ ires
ĠArbeits losigkeit
ĠFol ge
ĠJust ice
Ġethn ic
ĠVolks gesundheit
ĠmÃ¼ÃŁ te
ĠPrior itÃ¤ten
b s
d ra
re p
Ġin stead
ge mÃ¤ÃŁ
ĠA genda
ĠP ublic
sch reit
ĠT ier
Ġda gegen
Ġfor ces
Ġcon trary
ach tet
ĠVer trÃ¤ge
ĠÃ¼ber nehmen
ien ce
rit tens
Ġber u
reich end
ĠJahr h
Ġper fect
Ġfe ll
Ġhal f
Ġbez Ã¼glich
grund lage
Ġdifficult ies
ĠMill iar
ĠbeglÃ¼ckwÃ¼n schen
a ign
f rieden
o x
Ġbe m
ur y
Ġver folgen
Ġde ep
ess es
Ġne u
Ġj Ã¤hr
ĠVor bereit
ĠAb schluÃŁ
Ã¤r enz
ok raten
uss els
ied r
ire d
Ġgew esen
Ġens uring
Ġreal ity
Ġorgan isation
ĠHe ute
Ġcommit ments
Ġtreat ment
ĠermÃ¶ gl
Ġanalys is
Ġpa id
Ġmess age
ĠHarmon isierung
w el
Ġ ign
Ã¤ us
Ġbe kommen
ĠS orge
im ate
ĠR and
Ġl Ã¶sen
ĠVer halten
Ġvor handen
ist isch
Ġqu ant
ass ungen
Ġma g
Ġint ention
Ġfest gestellt
gest immt
Ġsicher lich
Ġcre ation
ĠBr ussels
ĠStra f
ĠZwe ifel
Ġadministr ation
Ġdiskut ieren
Ġofficial s
ĠfrÃ¼ her
ĠSan ktionen
ĠermÃ¶gl icht
p l
y se
it er
re c
ĠS ince
Ġz ul
ĠT err
ĠK u
ier ter
ĠTh ank
Ġer sch
Ġr ise
Ġvor her
ĠAus bildung
ger ung
Ġinc in
Ġpr im
Ġimp os
ĠSta at
ĠMittel n
Ġ6 0
ĠBr Ã¼ssel
Ġdocument s
mitt ag
ĠWoch en
ĠstÃ¤rk er
Ġexact ly
Ġcurren cy
Ġunan im
Ġbod ies
g ing
y ond
er zeug
ch nung
Ġs l
at ure
Ġb ill
Ġe her
ĠS ome
Ġg ran
ĠB Ã¶
sch n
Ġge Ã¤uÃŁ
ĠN ov
Ġsch le
Ġen orm
ĠAuf nahme
Ġkon tro
Ġinternational e
ĠHa ider
Ġadv ant
ĠDar Ã¼ber
Ġdire kt
ĠMed iterranean
ĠMar ch
Ġparticip ation
ĠSchul den
Ġnetwork s
Ġrepe at
Ġpartners hip
Ġcamp aign
h aus
m Ã¶glichkeit
it ives
re ck
Ġh our
ĠI re
ĠB u
ul ierung
Ġge leistet
ĠIn halt
Ġle icht
ĠSt ud
Ġsch ool
ud ge
ĠEin haltung
ĠMaÃŁ e
olog y
hÃ¶r en
Ġcolleag ue
ĠGriechen land
ĠEind ruck
Ġanwes end
er ungs
Ġd iv
Ġa de
Ġw ait
ur ance
Ġg rat
Ġk l
ind et
Ġ199 5
Ġdec lar
fall en
Ġuse ful
Ġur ge
Ġmor al
Ġpoin ted
ife llos
ek ten
Ġdemand s
Ġfamil y
ĠerfÃ¼ llen
Ġportugies ischen
ĠMÃ¤r z
ĠRess ourcen
ĠNiel son
b ed
b ank
g ere
p ret
Ġd om
Ġs ide
Ġv otes
ĠA ktionen
ĠM acht
Ġre d
Ġzu frieden
Ġle arn
Ġsh ip
ud ed
ĠEin be
Ã¶r en
Ġsp Ã¤ter
Ġges tern
sib ilities
ren z
ĠLand wir
Ġview s
Ġgesch ehen
Ġsm ok
Ġaccept able
ĠAustri an
ĠZwe ck
ĠSub sid
ĠBalk ans
Ġkonn te
Ġlangu age
ĠIre land
i led
s etzt
v is
it ial
Ġs um
ie ben
le isch
Ġbe yond
ĠW orte
Ġcon cept
Ġde alt
op ol
ĠZ w
ĠZ ur
ĠAus gaben
Ġprop ort
ĠEin sch
Ġacc ident
ĠAbgeordne ter
iar ity
Ġmil k
ĠAsp ekt
Ġground s
ĠIra q
ĠNov ember
j ust
o ught
t es
ent wurf
Ã¼ g
Ġbe in
Ġg re
ĠB an
ĠW es
ul s
ly ing
ĠL om
ust r
sp er
sp ekt
ĠEin satz
ĠEin zel
Ġgen annten
ri end
Ġop eration
Ġgemein schaftlichen
Ġpar ts
kon om
Ġhigh ly
Ġposit iv
gew icht
Ġlet ter
ĠauÃŁer ord
andid aten
Ġversuch t
Ġassess ment
ĠPra xis
Ġpurs u
ĠVerteid igung
R B
Ġd ise
Ġw orth
Ġs k
re ff
ich erung
Ġb ad
ar der
ut h
Ġal one
Ġde ad
Ġne ar
Ġwith dra
ĠSch lieÃŁ
au en
au ft
ĠCh amber
Ġ3 7
Ġemp f
Ġdra wn
eth eless
abil itÃ¤t
ĠMa i
Ġcommit ted
Ġperson al
Ġant i
ĠSol ana
Ġbegin ning
ĠerwÃ¤ hnt
Ġschwer wie
Ġear lier
Ġzahl reiche
ĠEmpfehl ung
Ġsafe gu
Ġassoc i
ĠIniti ativen
ĠEinbe ziehung
z ust
Ġin itial
Ġe t
Ġan erk
ĠS piel
ĠW ahlen
ĠK at
ĠR a
Ġge k
Ġde legation
ĠSt at
Ġcomp rehens
Ġexp lan
ĠOr t
ĠVorschlÃ¤ gen
abe lling
ĠÃ¼br ig
ĠNie der
u ern
it ious
Ġs end
Ġs age
Ġb ody
al er
Ġbe ar
us h
ĠR ules
Ġer k
ĠN ever
Ġex change
lie gt
Ġvor aus
Ġ2 3
ĠFor derungen
ĠUm fang
Ġar gument
ĠSp rache
Ġ200 2
mÃ¤ÃŁ ig
Ġdeal ing
Ġsimp le
spr Ã¼n
ĠGegen teil
ĠPortug al
Ġremain s
Ġlea ve
ĠfranzÃ¶s ischen
Ġindustr ial
ĠSÃ¼d afr
Ġfell ow
RB AN
b lemen
e hm
Ġth ought
Ġs ummit
ar ch
Ġn ah
Ġun fortunately
Ġbe ein
ĠI ran
et imes
Ġco de
ĠSch we
ran ge
Ã¶r t
ĠKolle gin
ĠHaus es
ĠAfr ican
Ġerforder lichen
Ġsuccess ful
Ġerne uer
Ġschwier ig
Ġspiel en
ĠVerÃ¤nder ungen
ĠMilliar den
ĠSubsid iar
Ġw id
Ġw onder
Ġw Ã¤ren
Ġm ut
Ġp rÃ¤
ent scheid
Ġn ame
Ã¤ her
Ã¤ ss
Ġand ers
ĠA lle
sch uld
ver standen
ĠVer letz
ĠRe formen
Ã¤n e
ĠÃ¼ber zeugt
ze igt
Ġconc entr
Ġkein es
Ġper spect
Ġsub mitted
Ġprov iding
isten ce
schie de
Ġhel fen
ĠMon t
Ġimpro ving
Ġ9 0
Ġlook ing
Ġderzeit igen
ĠUns er
Ġpost al
letz t
Ġsubsid iarity
ĠAktion sp
Ġkonzentr ieren
ĠAktiv itÃ¤ten
ĠBu iten
F E
e x
j Ã¤hr
o ted
in ced
Ġs itu
Ġe hr
Ġn iedr
Ġc le
Ġun mittel
Ġbe ginnen
Ġz unehmen
ĠM os
Ġg ives
ĠAb fall
Ġapp rec
Ġges etzt
auf en
Ġev ents
Ġact ual
ĠVerb indung
Ġviel mehr
ĠBed enken
str umente
Ġend gÃ¼lt
Ġtransp arent
Ġreason able
Ġmain ly
Ġwish es
Ġocc ur
Ġgar ant
ĠÃľberein kommen
ĠJanu ary
ĠBeteil igung
j e
v al
en ary
ur d
ĠS inn
ra k
ĠF ahr
ĠK inn
ĠG lobal
ĠU K
ĠU RBAN
Ġver ste
ĠL I
ann er
ĠSt ad
we ist
ĠBe weis
ese hen
Ġent gegen
Ġdi vers
ĠGr unde
Ġdis app
ĠGrund sÃ¤tze
Ġact ive
Ġneg ative
ĠBeit ritt
ĠÃ¶ff entliche
Ġpl enary
ĠPr iv
Ġrece ive
Ġclos ely
Ġgrund sÃ¤tz
com ing
ĠOrganisation en
Ġencour age
ĠDec ember
ĠKinn ock
5 0
v ere
z ed
Ġw an
ĠA gricult
ĠB l
ĠL ux
Ġde fence
op les
ĠN utzung
Ġres erv
Ġ2 8
Ġmehr ere
Ġrespon d
Ġaut om
Ġorgan ised
zeich nen
Ġregional en
ĠIhr en
ĠVerwalt ungs
prÃ¼ ft
ĠVerpflicht ung
Ġconv inced
ĠGesch ichte
ĠLeg al
Ġrefle ct
ĠErfahr ungen
a cy
m and
r ennung
t o
Ġb ar
Ġf ear
Ġf rei
Ã¤ st
Ã¤ fen
Ġfor get
Ġver m
ive au
ĠAn ges
ste ller
uch en
ord ing
Ġsa gt
Ġgen ug
Ġbes ondere
sam m
Ã¼tz t
ĠCh ar
Ġson st
leg ungen
ĠHin ter
ĠmÃ¶glich erweise
Ġur sprÃ¼n
wÃ¤ ss
Ġze hn
Ġviol ence
ĠerklÃ¤r t
Ġear ly
ĠHeraus forderungen
ĠHeraus forderung
Ġmer ely
ĠKoh Ã¤renz
Ġimmedi ately
ĠWissen schaft
Ġjeweil igen
Ġsubstant ial
Ġbem Ã¼
T he
c el
re ign
Ġf Ã¤
Ġe lement
as se
as bourg
ĠE tik
omm er
ĠF Ã¼hr
Ġl ater
Ġfor mer
Ġcon du
Ġer schein
ĠN ur
ĠSt o
ck now
ĠAn fang
ĠGr uppe
Ġcons ist
oll ar
fl uÃŁ
wor tet
gin n
Ġadd itives
itz en
Ġinvol ving
erk ennung
ĠSeit en
ĠRep ublik
Ġharmon isation
Ġchallen ges
Ġanim al
Ġeinges etzt
Q U
V O
e f
ch st
un ch
Ġf irm
Ġe c
Ġun able
Ġun ivers
ĠE reign
ĠE QU
Ġbe ige
ĠI st
Ġg esehen
ĠB ot
ĠD rittens
Ġcon stant
Ġdes cr
Ġde pend
ĠRe chn
Ġsch Ã¼tzen
Ġpolit isch
Ġjed e
Ġpre fer
Ġev alu
Ġsol utions
los en
ĠTe le
ĠMaÃŁ nahme
Ġway s
Ġentsp richt
Ġstrateg ic
Ġcontrib ute
Ġstep s
Ġstruct ures
Ġintrodu ced
ĠStabil itÃ¤t
Ġfig ures
Ġcommer cial
ĠDez ember
ĠMEP s
Ġveh icles
Ġbur den
Ġspir it
Ġwan ted
ĠEQU AL
) ,
k Ã¼nd
s k
Ġa ge
Ġa cknow
ĠA fter
ig ran
ĠS uch
et te
ĠH ause
ver se
Ġer griffen
Ġauf zu
ĠUn fortunately
Ġj ene
for d
ĠÃ¼ber ein
Ġaus fÃ¼hr
Ġhand eln
Ġgleich e
Ġbring t
01 0
vorsch lag
Ġaddress ed
ĠWettbewerbs fÃ¤higkeit
Ġmilit Ã¤r
ĠFr iday
ĠverfÃ¼ gen
ĠJanu ar
grenz ung
Ġeffiz ient
ĠNever theless
ĠLux em
E C
i ens
m Ã¶glich
m aking
r ic
in ational
Ġt yp
is c
Ġb ig
ll schaften
eit her
ol er
Ġk aum
ff iz
ff nung
Ġauf merksam
Ġne igh
op oul
ĠN ord
Ġvor legen
rÃ¤ ge
eren ces
Ġch ance
Ġspe ed
Ġsay s
ĠFin n
Ġrep la
Ġtechn ischen
Ġsom etimes
Ġtrans ition
Ġkommen den
ĠgrÃ¶ÃŁ ere
ĠRep ublic
Ġrad io
Ġbecom ing
udge ts
ĠLI FE
ĠAnges ichts
Ġneigh bour
k olog
un sch
Ġw ach
Ġin ten
Ġin fra
ĠF unktion
ĠC he
ĠL ud
ĠAn erkennung
Ġhe art
Ġent stehen
Ġen for
Ġunter nommen
ĠRat s
ĠRechts grundlage
ĠStr asbourg
Ġadop ting
ĠHa arder
Ġgesch lossen
aff t
Ġdefin ition
Ġabsol ut
Ġlea ders
CO S
ĠErklÃ¤r ungen
Ġqual ifiz
ĠKrit ik
ĠVoraus setzung
ĠerklÃ¤r en
Ġcoher ence
Ġsinn voll
ĠThird ly
Ġkontro ll
a ve
or re
Ġb r
Ġn ennen
Ġv ess
ĠS pe
Ġein verstanden
Ġg ain
Ġl ik
ĠV oll
ab sicht
Ġer weit
Ġse a
rÃ¤ gt
ĠBe handlung
Ġprov ides
Ġoff ice
gend es
Ġausge wogen
Ġcompet it
spro gramm
Ġstatt finden
ĠTur k
Ġmed ia
ĠFest legung
Ġwider sp
Ġbuild ing
Ġamb itious
Ġbeteil igt
ĠFamil ien
ĠGar ant
ĠPol ize
ĠMore over
Ġspee ch
ĠhÃ¤ ufig
ĠSchlieÃŁ lich
e c
e ben
o ber
w art
w iesen
Ġd ienen
in ter
an ten
Ġh ig
om b
ĠS h
ĠM indest
im ent
ĠF onds
urop a
Ġfor th
Ġj oin
ĠBe ginn
gr Ã¼nd
Ġra ise
Ġges etz
ĠDe fin
ĠUm st
Ġfinan cing
Ġgesch ieht
Ġatt ack
Ġredu cing
Ġadopt ion
ĠauÃŁer halb
schein lich
ĠStabil itÃ¤ts
Ġkonn ten
Ġbetroffen en
Ġblo ck
ĠPe ople
Ġhapp y
Ġmax imum
Ġdut y
Ġxenophob ia
S P
a ution
a pt
i ate
z lich
an en
an cen
Ġf allen
te i
Ġbe finden
ĠI mp
ĠS ach
Ġein setzen
ul ated
ber icht
ĠG VO
ĠC entral
Ġver urs
Ġst imme
ik ation
Ġpr ices
Ġsp ent
hand els
ĠMittel meer
Ġestablish ment
ĠHe alth
ĠGleich zeitig
Ġze igen
Ġappropri ations
Ġakzept iert
Ġmult inational
Ġvers ich
Ġincreasing ly
ĠAmer ican
ĠerfÃ¼ llt
yn am
ĠHÃ¶ he
Ġkeiner lei
Ġvere hrte
ĠÃľberwach ung
Ġbetrachte t
Ġhig her
B e
G en
e ks
f iz
f alt
s er
y pr
Ġt rag
Ġth ous
at ically
Ġm ill
Ġm anner
te te
Ġe m
Ġv ir
ĠM ark
im ately
ol id
Ġwe eks
Ġver folgt
Ġer lÃ¤
itte es
ĠJ un
ĠEr wÃ¤
ĠBer Ã¼cksicht
rÃ¤s ent
ĠMit arbeit
ish ed
Ġno ise
ĠCh ance
amp ere
Ġprodu ced
Ġrel ig
Ġar t
Ġask ing
fÃ¤ llen
ĠSp ain
ĠÃ¶ kolog
ĠVerein ten
ron t
ron ic
ify ing
Ġbef assen
Ġann oun
Ġcontain s
Ã¼t ze
Ġcover ed
Ġtraff ic
Ġeas y
Ġanim als
ĠVereinbar ung
emb ly
Gen eral
Ġb ietet
Ġh arm
ĠE ing
ĠE ven
ĠA cc
ĠB Ã¼
ĠD ann
der e
ĠF aktor
ot s
res pon
Ġge d
ak a
ann te
Ġr ig
ges etz
ure ly
ĠSch ritte
ĠBer eit
ang s
ĠGr uppen
Ġcomp lex
Ġdec ide
ha fte
vention en
Ġatt itude
Ġgef unden
Ġmin orities
ĠBest and
Ġverschieden e
ĠNe w
ĠhÃ¶ her
ĠMed ien
ĠgegenwÃ¤rt igen
Ġkomp liz
bÃ¼r ger
ĠauÃŁerord entlich
Ġcomprehens ive
Ġcompetit iveness
b or
m utzung
v a
un sten
Ġf la
ĠT ampere
ĠK ing
Ġver me
Ġex tra
ĠGr Ã¼
Ġpropos es
Ġinc ome
Ġfin de
Ġnational e
Ġgew Ã¤hl
Ġknow n
Ġletz te
Ġtrans fer
Ġricht ige
maÃŁ en
ĠKontro llen
ĠPerson al
Ġinform ed
ĠNor men
Ġenter pr
ĠRisik en
Ġstaat lichen
ĠSÃ¼dafr ika
Ġsitu ations
ĠRechn ungs
ĠLud ford
m on
Ġw it
ĠB ild
ol z
Ġzu dem
ĠL a
ĠZ imbabwe
iv al
Ġse chs
aus ch
Ġum welt
Ġaus schlieÃŁlich
Ġdo ct
ĠPro ced
Ã¼n den
lin ge
Ġrep ly
stimm ung
Ġgest alten
Ġkomm e
Ġfinanz ielle
Ġcompan y
Ġhervor ge
Ġportugies ische
Ġilleg al
Ġmanufact ur
ĠAng ol
ĠStraÃŁ burg
feind lichkeit
Ġgran ted
ĠBuiten weg
je cted
Ġinfra struct
ĠProced ure
a ktion
Ġf ulf
ĠB lick
ĠF reit
Ġl abelling
Ġcon struct
Ġaus zu
Ġaus reichend
ĠEn ts
Ġch arter
ĠCon sum
ĠAl though
ĠAl ban
richt ungen
such en
ĠAu ft
Ġlaw s
ĠdÃ¼r fte
Ġbed arf
ĠLÃ¶s ungen
ĠFrieden s
ai led
Ġcent ury
ĠPre is
gÃ¤n z
ĠTod ay
Ġbor ders
Ġattemp t
Ġpen alt
ĠsÃ¤mt liche
ĠZustÃ¤nd igkeit
icien cy
reff end
ĠGlobal isierung
ĠEtik ett
ĠTurk ish
ĠBerÃ¼cksicht igung
z one
or gt
Ġm ist
Ġe mb
Ã¤ den
Ã¤ um
Ġbe zieht
Ġz ut
Ġl ives
ĠG o
Ġge ograph
ĠIn st
Ġex cess
Ġmit t
ĠBe zug
ĠVor haben
se ktor
Ġ2 7
ĠGr enz
wer ber
Ã¤hr ung
Ġsub stances
ĠÃľber zeug
Ġzwe ifellos
Ġnun mehr
fra struktur
Ġdel iver
ĠgrÃ¶ÃŁ ten
ĠBes orgnis
Ġhappen ed
ĠFÃ¤ lle
Ġrecogn ised
Ġbedeut en
ĠDenn och
ĠFremden feindlichkeit
ĠBeam ten
Ġrenew able
b ild
v o
z ut
Ġan geb
Ã¤ cht
Ġbe absicht
ĠS weden
Ġein f
Ġein schlieÃŁlich
Ġg renz
ĠK indern
ĠK aka
iss ens
ein en
Ġer fahren
ĠRe vision
ĠRe chnung
ak ter
Ġvor ge
ĠJ une
ĠSch aden
ĠPro blemen
Ġreg ime
Ġ2 6
Ġinter v
Ġpe oples
ĠFor men
Ġthink ing
Ġappro val
Ġger ne
Ġinvol ve
Ġachie ving
spro gram
Ġcond ition
Ġeigen e
ĠProdu kte
ĠRed ner
ĠBevÃ¶lk erungs
ĠWÃ¤hr ungs
ĠRisik o
ugosla w
Ġconcl ude
ĠFehl er
Ġgenu ine
ĠAgricult ure
ĠAcc ording
2 1
A P
A T
M U
u elle
re aten
an de
Ġe hem
Ġan schlieÃŁen
ing t
ed eral
ĠM ir
ul ieren
Ġver wendet
kt ors
la us
schaft liche
lin es
ĠÃľber prÃ¼
olog ie
zip lin
Ġsens itive
Ġcall ing
Ġrelations hip
ĠLis te
Ġdiskut iert
Ġopt im
Ġemphas ise
ĠWo hl
ĠKont in
ĠDemocrat s
Ġsafegu ard
ĠKing dom
b ung
f Ã¤hr
Ġt Ã¤t
Ġt arge
Ġw ants
ro chen
ĠS w
ĠP unkten
Ġver teid
Ġwill ing
ĠCommission ers
Ġab stimmen
ĠBe griff
Ġ2 9
Ġam t
Ġbet rachten
Ġpropos ing
Ġconc rete
uropÃ¤ ischen
ac ter
ĠSp rachen
Ġele ments
ĠBet rie
ĠÃ¤uÃŁ ern
Ġkonk ret
Ġvorgesehen en
Ġentwick elt
Ġorigin al
Ġunterschied liche
Ġcontra dict
ĠmÃ¼ÃŁ ten
Ġelect ronic
ĠEmpfehl ungen
Ġcho ice
Ġexpla in
Ġunterst Ã¼tze
ĠDienstleist ungen
Ġwoll te
it et
ĠM c
ĠP h
ĠIn sel
ĠIn strumente
ĠZ entral
ens wert
Ġgo al
iz ed
Ġexp er
Ġrel ated
ĠÃ¶ sterreich
ĠProgram ms
zeich nung
Ġinclud es
Ġwes halb
Ġvorgeschlagen e
Ġimm igration
Ġintrodu ce
Ġrecommend ation
Ġstud y
ĠKatastrop he
lÃ¤ÃŁ lich
ĠVermitt lungs
Ġexerc ise
Ġenorm ous
ĠDefin ition
Ġverme iden
Ġehem al
b ody
k ret
n el
r upt
Ġt est
al ien
Ġf riend
Ġan nehmen
ge ber
ĠE v
ĠS en
ĠS onder
ĠP ap
Ġg esellschaft
sch Ã¤d
Ġwh om
Ġk lare
ĠG est
Ġfor mal
um p
Ġver an
ĠN AF
ament ar
Ġr asch
ĠAn p
Ġab zu
ĠUnion s
Ġcom peten
ĠEin fluÃŁ
ieren de
wer ten
Ġtechn ische
Ġ. ..
Ã¤rk ten
Ġlim its
Ġopp osed
ĠViel en
hÃ¶ hung
Ġexc l
Ġqual ified
Ġbehand eln
Ġrecommend ations
ĠItal y
ĠWor ten
ĠEC HO
ĠPrior itÃ¤t
Ġcontinu ing
Ġlangu ages
Ġbeha up
ĠzustÃ¤nd igen
ĠGerman y
chanis men
wan derung
ĠpersÃ¶n lich
ĠstÃ¤nd ig
Ġwiederhol en
ĠBarn ier
ĠKommissionsmitglie d
Ġeingere icht
ĠÃ¼brig ens
ĠJun i
ĠFreit ag
e es
w ing
Ġth reaten
is ziplin
re ib
ar es
ĠA k
ĠA ud
ĠG el
ĠVer stÃ¤nd
ĠVer gleich
Ġse le
Ġse he
ak te
ĠCommission s
Ġch air
sta g
Ġspe zif
ĠMen sch
Ġsol cher
ĠLe ist
Ġgr Ã¼nd
Ġequ ality
Ġander es
Ġstatement s
Ġtas ks
Ġparliament s
ĠUr s
)) .
ĠTod es
ĠzusÃ¤tz liche
Ġappe al
ĠbeschÃ¤ft igen
Ġchar acter
Ġreag ieren
ĠDeut sch
Ġign or
c alled
l en
Ġa fr
Ġm and
ar i
Ġc ame
ur ally
ĠM or
Ġre cyc
sch et
ĠF lexib
Ġl Ã¤nger
Ġal ternative
Ġpro of
Ġer r
ĠVer l
Ġmit tel
ĠAn al
ĠAn spruch
ste lle
Ġab ility
Ġaus ges
Ġaus drÃ¼cklich
Ġ2 2
Ġinter in
ĠEin ige
ĠCh ancen
Ġdra m
ĠHa ft
ĠY et
Ġredu ced
Ġcontrib utions
Ġcall s
Ġander em
ĠGrÃ¼n de
ĠHo hen
unter nehmen
ĠunabhÃ¤ng ig
ĠEng agement
ĠBemerk ungen
ĠGed anken
Ġinfl uen
Ġzug unsten
Ġperfect ly
Ġhour s
Ġade quate
samm lung
ĠerlÃ¤ ut
schet schen
i for
w uÃŁ
an ces
Ã¼ ter
ĠM oz
Ġein sch
im at
Ġre den
ĠT r
ĠK Ã¼
Ġso fort
Ġer folgen
Ġst ock
Ġde g
ĠSt Ã¤rkung
Ġab geschlossen
ĠAus s
ĠVor gehen
Ġcomp ens
Ġpolit ischer
Ġimp ression
Ġother wise
Ġsp ace
ĠLe ider
Ġdenn och
tro l
Ġele cted
Ġide as
Ġsupp lement
Ġguarante es
Ġperson s
Ġpri or
ĠDi enste
Ġcl ass
Ġstruct ure
CO D
Ġshow s
Ġbenefit s
Ġsubsid ies
Ġjud icial
Ġoblig ations
chanis ms
Ġspezie ll
Ġausgezeichne ten
Ġpack age
Ġsup erv
strÃ¶ m
mÃ¶glichkeit en
f Ã¤lt
u ct
v iel
v olle
en te
en ze
Ġb ank
ĠM oment
sch w
Ġl isten
Ġl ines
ĠZ yp
ĠN G
Ġco co
Ġme chanisms
Ġaus sprechen
ĠBe wertung
ĠVor red
Ã¶r dert
ĠÃĦ r
Ġhin zu
Ġmo der
Ġar m
Ġho he
Ġput ting
Ġimpro ved
sequ ently
Ġbrauch t
Ġair port
Ġterr itor
Ġfall s
organisation en
Ġschem e
ĠLandwir te
Ġschwerwie gen
ffiz ien
Ġinten ds
Ġcoco a
b r
Ġ ult
Ġa ffairs
on es
un t
Ġh or
ĠD imension
ĠW unsch
Ã¼r k
ĠR oth
ĠN utzen
Ġco ast
Ġco oper
Ġent it
Ġfa cing
Ġus w
ĠEin richtung
ĠMitglied s
ĠKon sequ
Ġev idence
Ġsub mit
Ġkon stru
Ġ3 00
Ġrec ord
Ġgew isse
Ġeinz us
Ġbegr enz
Ġ19 7
ĠGleich gewicht
Ġaufge fordert
ĠItal ien
Ġhist ory
Ġwahr scheinlich
ĠSpan ien
ĠvollstÃ¤nd ig
Ġbrit ischen
Ġsogen annten
ĠVerhÃ¤lt nis
ĠWeit er
ĠVorbereit ung
ĠPriv at
f eld
s ized
Ġd imension
Ġp ub
Ġp aper
Ġh op
Ġv ig
ĠS ystems
ĠM alt
ĠT SE
Ġon es
Ġge be
ĠVer zÃ¶
Ġne ues
ĠZ ahlen
ĠSt imme
Ġvor zulegen
ĠAn teil
iel t
ted ly
ĠSch wer
gr uppe
ue ll
ĠEin w
Ġsupport ing
Ġ3 1
Ġrespon sibilities
Ġrem ov
Ġher zlich
Ġlo st
gele itet
Ġprom oting
Ġdel ighted
Ġpl ant
Ġcrit ical
ĠMinister s
ĠerwÃ¤ hn
ĠErzeug nisse
Ġgener ally
Ġrein for
ĠWill en
ugosla v
Ġcritic ism
ypr us
Ġfulf il
Ġgrenz Ã¼ber
ĠZyp ern
P T
c raft
i ot
i able
i form
v an
y a
Ġ u
Ġt w
Ġt Ã¼rk
Ġb ureau
le iten
Ġn either
ĠE thiop
ot ion
ĠC yprus
ĠUn abhÃ¤ng
Ġj etz
qu alitÃ¤t
ib et
ungs ver
Ġab end
ĠSch weden
be kÃ¤mpfung
ĠEr hÃ¶hung
Ġimp lic
Ġpre vention
ob in
ĠWh y
Ġappro ve
ĠMe eres
ĠUmwelt schutz
ĠUmwelt fragen
Ġcar s
ĠY ugoslav
gre if
Ġparl amentar
Ġintrodu ction
ĠForsch ungs
Ġcare fully
Ġumfassen de
Ġhighl ight
ĠSchiff e
Ġvorsch lagen
ta aten
ĠBeschl Ã¼sse
ĠgeÃ¤uÃŁ ert
ĠKat ifor
ĠMoz amb
ĠKatifor is
D E
u erung
Ġa chten
Ġa ktiv
on a
es tens
Ġf r
ar a
Ġh ol
ĠS a
ĠM eth
ĠM old
ol on
ĠD an
ĠD im
ĠW icht
Ġl ay
os en
Ġcon ference
op en
ungs be
tz en
Ġinter pret
Ġad apt
Ġcomm ittees
Ġla id
ĠVorschlag s
ĠAl ters
Ġatt ach
Ġextre me
lex ible
Ġglau ben
Ġadv oc
zw ischen
Ġtechnolog ies
Ġdemokrat ische
CO M
Ġstrong ly
Ġcontra ct
ĠErzeug er
ĠRom an
Ġfacil it
ĠWider spruch
Ġflexib ility
Ġtack le
frei heit
ĠWar um
ĠPrÃ¼ fung
bor der
ffizien z
Ġd on
Ġbe trÃ¤cht
Ġbe ef
Ã¶ der
Ġda uer
ĠC hrist
Ġauf zunehmen
Ġst immt
ĠL auf
ĠVer fahrens
ĠIn frastruktur
ate ver
rÃ¤ ft
Ġsch lÃ¤gt
Ġam er
Ġen j
Ġcomp la
Ġbet ont
ass end
ĠReg ulation
he ad
Ġpre m
Ġout come
lÃ¤ tzen
Ġper man
Ġinterest ing
ĠMon ate
ĠMon etary
Ġrepresent s
sequ ent
Ġbesonder en
ĠÃ¶ff entlich
Ġel imin
Ġair craft
Ġoper ations
ĠgewÃ¤hr leistet
Ġopp osition
ai ro
ĠAss embly
ĠIr land
Ġdest ro
Ġerziel t
Ġinst ance
Ġschem es
Ġsus pend
Ġpat ent
ĠÃľbergang s
Ġadvant age
Ġperspect ive
zed on
Ġwit ness
g ibt
l icht
n immt
o und
in o
Ġt ut
is te
Ġbe ziehen
ĠT rotz
Ġau ft
Ġer kennen
ate ful
Ġvor bereit
ĠAn liegen
ĠAn forderungen
Ġent schlossen
ru h
Ġ199 4
Ġweiter er
richt en
Ġwen igen
io de
Ġinvol ves
tend lich
ĠFl ugh
Ġcompet itive
licher weise
ĠÃĸ l
Ġexpress ion
ĠzurÃ¼ck ge
Ġeing er
ĠFisch ler
ĠKontro ll
Ġander erseits
Ġintegr ated
Ġglobal isation
ĠLiberal en
Ġprec aution
zuf Ã¼gen
Ã¤hl en
Ġdisp la
ĠMil ch
ĠGree k
Ġderart ige
Ġcla im
ĠBemerk ung
Ġimpos sible
ĠRechnungs hof
Ġpub lish
K OM
m m
Ġt emp
it ing
al tet
ro ht
Ġto ld
om s
ll af
il st
ĠK re
ĠEurop ol
Ġge Ã¤ndert
Ġge zeigt
Ġst abil
ĠVer f
Ġse ien
Ġsu c
ĠAn griff
hal te
Ġres pekt
ges ted
ĠEn d
Ġman aged
Ġen or
reich ung
ĠUnter schiede
fr ont
ĠSe llaf
Ġinternational er
ha ften
Ġange ht
reit ung
Ġposit ions
ĠArbeits zeit
ĠgrÃ¶ÃŁ te
ĠSozial dem
Ġaim s
Ġben ach
ĠSub ject
Ġhappen ing
Ġteil weise
Ġunterschied lichen
ĠRegional politik
Ġerfolg reich
ĠPartner schaft
Ġconsult ation
Ġquot as
ĠTechnolog ien
ĠGM Os
Ġeinbe zogen
ĠprÃ¤ z
igran ts
ĠÃľberprÃ¼ fung
S taaten
j ekt
Ġt ro
Ġt reten
it ory
Ġh Ã¤lt
Ġc al
Ã¼ ben
st uff
ĠE very
ic ip
Ġre jected
Ã¶ hn
ĠR u
Ġcon vention
Ġer geben
ĠÃ¼ber tragen
ist an
ĠJ ed
Ġgen ere
fÃ¼hr ten
fl anzen
Ġins urance
gel assen
Ġknow s
Ġoff iz
Ġar range
Ġadd ed
Ã¤l ter
Ġfre ien
ĠHin weis
Ġser ve
ĠOr d
Ġposit iven
ĠBet rifft
Ġrepresent ative
ĠMan y
ĠDar um
Ġbal anced
ĠStruktur en
Ġstart ing
ziel le
Ġnon etheless
Ġbo und
Ġdang er
Ġsur pr
ĠSelbst verstÃ¤ndlich
Europ e
ĠKonfl ik
ĠWirk lichkeit
ĠIra k
Ġplann ing
eschrÃ¤n kt
ĠfÃ¤ llt
Ġforth coming
ĠConsum er
ĠÃľberzeug ung
ĠMozamb ique
ĠSellaf ield
E U
I T
h re
Ġ čĊ
re ben
re gel
Ġb ase
Ġb ieten
Ġf Ã¼
Ġf lexible
ge iz
ĠS ysteme
Ġg ave
ĠK rÃ¤
Ġk Ã¼rz
ĠH och
Ġge langen
Ġso eben
os es
ver sch
ĠIn s
sp olit
Ġex em
ens us
Ġsu chen
Ġvor be
ĠAn laÃŁ
err ing
Ġat tend
ang ing
ĠMitglie dern
Ġeff iciency
Ġ3 5
Ġwel com
Ġfra ge
Ġklar en
Ġmin ority
ĠgrÃ¶ÃŁ eren
Ġterr itory
ĠVoraus setzungen
ĠHÃ¶ chst
ĠRom a
Ġdistrib ution
ĠFebru ar
ĠFebru ary
Ġune ing
ĠGrÃ¼ nen
ĠAud itors
ĠDeutsch land
0 4
N S
S V
l Ã¤nd
u z
Ġm inister
Ġm Ã¼nd
Ġf rag
Ġun c
Ġbe ide
us es
ĠM ob
Ġre ch
Ġl ate
ĠV iele
os al
ĠL at
Ġne ben
la u
ind ing
Ġmit einander
ĠKommission sprÃ¤sident
ĠEr n
ĠPres se
nah m
Ġfin ance
Ġwar ten
lÃ¤ ss
Ġnational er
Ġ3 2
Ġdeb ates
ĠÃľber legungen
Ġgew alt
Ġass ure
ĠCon trol
richt linie
Ġser ies
Ġget ting
gemein schaft
Ġ9 5
Ġstehen den
Ġoper ators
Ġdet ailed
Ġclos er
riminal itÃ¤t
Ġlink ed
Ġgra du
ĠBas is
Ġverl oren
vergen ce
ĠMos amb
ĠNAF O
Ġdeg ree
n Ã¼
p unkte
y er
y ear
en falls
or f
an ischen
Ġf lag
ro h
Ġe missions
Ġan gebracht
st at
ĠI C
ĠS imbabwe
Ġre act
Ġre action
ĠT ibet
ĠF er
Ġzu folge
ĠL ann
iv ity
Ġle gen
ĠAn fragen
ste ht
Ġhe av
Ġcomp ly
Ġcons ensus
sam keit
ĠAuf bau
ĠSe e
Ġwel ch
ĠEntwicklung spolitik
Ġdra st
Ġwes entliche
Ġgef Ã¶rdert
ĠMa zedon
Ġsens ible
schied et
Ġdefin ed
ĠIhre m
heb ung
Ġconflic ts
Ġcaus es
Ġbil den
ĠInformations gesellschaft
ĠSektor en
ĠFlÃ¼cht linge
Ġappear s
Ġtim et
rok rat
Ġflo or
Ġdivers ity
Ġvir t
Ġsuc ceed
ĠLann oy
c a
s ysteme
Ġa cht
es ten
Ġs etzt
Ġp un
Ġp ornograph
ig ne
ĠM o
ĠK lar
ĠC or
ab or
Ġcon struction
Ġer folgt
tr itt
sp rÃ¼
Ġco ll
Ġab gele
ĠWe ge
ĠBer at
se h
ast richt
Ã¶r der
Ġpr ison
sib ly
Ġdec is
ĠTe chn
Ġgr ateful
Ġnat urally
Ġla unch
Ġgel ungen
Ġsign ed
Ġregional e
Ġerforder t
ĠMa astricht
Ġeinge gangen
Ġinform ieren
ĠViel leicht
ĠGemeinsam e
Ġvorliegen de
ĠArbeitsp lÃ¤tzen
ĠMin utes
Ġcomb ating
Ġexam ine
tell ten
Ġverab schiedet
Ġmethod s
Ġverantwort lich
ĠKr isen
Ġfal sch
behÃ¶r de
Ġinfluen ce
Ġbureau c
ĠLannoy e
I I
c ent
c ement
l ose
r enn
v i
v ent
z we
z ure
Ġd re
un ruh
Ġc ust
Ġbe ings
ĠS ign
Ġein ig
Ġcon vergence
Ġver weisen
Ġer fre
ĠRe alitÃ¤t
Ġvor ange
Ġvor genommen
Ġaus ger
ĠJ etzt
ĠEr wart
ĠAr gument
Ġfa iled
Ġnach drÃ¼cklich
Ġ199 3
Ġdisc ip
Ġar r
Ġ4 8
Ġur ban
Ġseit ens
Ġtax ation
ĠBr enn
Ġclos ed
Ġcontain ed
ĠFortsch ritt
Ġparticip ate
Ġbetreffen den
ĠTra de
nungs gemÃ¤ÃŁ
Ġord nungsgemÃ¤ÃŁ
Ġincin eration
schn itt
Ġcondu ct
ĠAngol a
Ġconstruct ive
Ġausges prochen
ĠgrenzÃ¼ber schreit
f leisch
Ġt on
it ime
at ively
Ġin ade
Ġn ight
Ġn Ã¶t
Ġun be
ra p
em it
ĠB ur
ĠF rom
ber e
ĠK rank
ĠG u
Ġver standen
and al
ĠIn n
Ġr as
ug nisse
ĠBe fÃ¼r
gr enzen
Ġthere by
Ġman age
Ġapp oint
ĠÃĦ thiop
lÃ¤ ge
wir kt
Ġfact or
ha gen
sel ben
fÃ¼ hl
Ġcontin ent
Ġnotwend ige
Ġseit en
Ġbess eren
di enste
Ġguarante ed
Ġcontrol s
Ġumf ang
Ġeinge fÃ¼hrt
sto ff
Ġpost pon
Ġindividual s
Ġrail way
ĠlÃ¤nd liche
sÃ¤tz en
ĠFremden verkehr
ĠSerb ia
ĠRes olution
ĠDritt lÃ¤ndern
Ġtar get
Ġce il
Ġsepar ate
Ġnah e
ĠSchwe iz
ĠMalt a
Ġenj oy
ĠMosamb ik
c ommun
f u
er ten
Ġs la
Ġs org
at ible
or um
Ġun less
ĠE lement
ĠE ffizienz
ĠD on
ĠW Ã¼r
ĠW affen
ul ations
ĠR ent
Ġl ies
Ġfor dert
Ġcon ciliation
ach s
Ġdes ire
qu al
Ġco up
Ġr ass
Ġvor zu
Ġab gestimmt
Ġcomp ar
Ġcomp uls
Ġcons erv
Ġexp ens
Ġconsider s
Ġeinz igen
act ory
Ġmon opol
Ġ200 6
spro z
Ġinvest ments
Ġfol gendes
ĠBes onder
ĠNe u
Ġhervor heben
ĠZus Ã¤tz
Ġmean ing
ĠFrei heiten
Ġnie der
Ġsug gested
ĠFest stellung
Ġdisast ers
Ġoblig ation
ĠGre en
Ġelse where
Ġsy mp
ĠerhÃ¶ hen
Ġdise ase
ĠVerletz ung
Ġcle an
Ġprecaution ary
% .
er nen
er maÃŁen
it able
at tet
ĠA kt
Ġz eit
Ġg rie
Ġfor ced
ĠC omp
ĠVer k
Ġwer t
ib iot
ĠVor be
Ġdar aus
Ġwor se
Ġcomp l
Ġdurch zufÃ¼hren
igkeit s
Ġgegen seit
bar er
isten z
ĠMein es
enden ce
ĠInter oper
Ġletz t
Ġhigh est
reit et
vers orgung
Ġallow ing
Ġbek Ã¤mpfen
Ġbek rÃ¤ft
Ġeinzel staat
Ġfight ing
Ġvers ion
ĠkÃ¼nft igen
ĠVors orge
ĠGre ens
Ġdemon st
Ġstar ted
Ġlow er
ĠVereinbar ungen
ĠLebensmittel sicherheit
ĠKons ult
ĠWel che
Ġsour ces
Ġexclus ion
Ġelektron ischen
Ġdesign ed
ĠBan anen
A b
h y
l ings
Ġ ut
Ġa f
at o
ĠM and
ĠB ird
ĠW ales
Ġzu gr
id d
Ġda hin
ab les
Ġso vere
Ġst or
Ġst ip
ĠL i
ĠL ank
ĠVer st
ĠVer such
Ġj em
ĠRe chten
ib ed
Ġvor gelegten
ĠAn gaben
Ġsich ern
ĠÃ¼ber all
scha u
Ġaus gehen
ert rag
Ġfa ced
ĠEin igung
Ã¼n de
Ã¶r per
Ġpolit ic
ose v
Ġwork ed
Ġjust ified
Ġfact ors
wor fen
Ġins ist
ĠSe attle
act ive
ĠDa fÃ¼r
Ġsc ale
Ġcitiz en
ĠVerbraucher politik
ĠOrgan is
ĠQu oten
ĠTran s
wed er
stehen den
Ġgrow ing
ĠEnerg ien
ĠViel falt
Ġbo ard
Ġpass ed
ĠMil osev
Ġzahl reichen
Ġentire ly
Ġprakt isch
ĠPra kt
ĠbeschrÃ¤n ken
ĠBudget ary
ĠjÃ¼ng sten
Ġgrat ulieren
Ġsmok ing
ĠMont i
ĠBot schaft
opoul os
Ġvess els
Ġdoct ors
Ġgrie ch
Ġzugr unde
Ġsovere ign
b eschÃ¤ft
i pp
k ungen
r ne
en kt
on om
is ted
at ischen
re chten
Ġh Ã¶ren
Ġun ion
ĠS oll
ĠS ri
Ġz erst
Ġein geb
ic ted
im al
am er
ĠT un
ĠT schetschen
Ġzu k
Ġk ennen
Ġpro spect
Ġer Ã¶r
ĠUn gleich
ĠUn ivers
ĠVer lauf
ĠN R
ak is
Ġnach dem
Ġste lle
Ġ199 2
chn ya
ote chnolog
Ġsupport s
mittel t
Ġeven ing
Ġletz tendlich
ĠWirtschaft spolitik
ĠZiel setzungen
ĠAbstimm ungen
Ġtr uly
Ġ200 3
Ġwissen schaftlichen
Ġur gency
ĠOn ly
ĠSozial schutz
komm t
Ġinstitution ellen
ĠnÃ¤ch ste
ifiz ierung
Ġerinn ert
Ġprotect ing
Ġernst haft
ĠRatsprÃ¤sident schaft
stell ungen
Ġgrundlegen de
ĠFamil ie
ĠBy rne
Ġoccas ions
ĠHinter grund
ĠChe chnya
Ġenterpr ises
ĠÃĦr z
nÃ¼ p
Ġcompuls ory
- ,
A R
b esch
l it
m ar
t on
u ens
Ġ 0
Ġa ver
it rak
Ġs ession
re che
Ġb ir
Ġis ol
ĠP act
ut in
Ġau ff
Ġl oss
ĠH ung
ĠH ul
Ġver Ã¤nder
Ġver stÃ¤nd
Ġse ven
Ġex ists
Ġall zu
Ġr ange
ĠBe ob
ĠAus nahme
ĠSch re
ĠEr arbeitung
Ġen h
ap an
ĠDe fiz
str ategie
Ġac quis
ĠHer zen
Ġmeet ings
Ġdef ine
Ġnie mals
Ġverbess ert
Ġdraw ing
ĠbeschÃ¤ft igt
Ġerheb lich
Ġseek ing
Ġspezie llen
ĠIde e
Ġbilater al
Ġoccas ion
wh at
Ġehr geiz
Ġafr ikanischen
ĠEthiop ia
Ġjetz igen
ĠDim itrak
stuff s
Ġarrange ments
ĠMazedon ien
commun ications
ĠBird al
ĠMilosev ic
ĠDimitrak opoulos
b rit
b ased
c ision
f angen
h ib
z ieren
Ġd ign
Ġs w
at ur
te ten
ĠM odell
ic o
eit igung
Ã¶ p
Ġwh atever
ĠR ind
Ġfor est
Ġso le
ĠZ eich
ik ations
tr ieben
ĠRe port
ĠRe aktion
ĠÃ¼ber nommen
ĠBe k
ahr en
ĠAus grenzung
heit s
ĠAb fÃ¤lle
ced on
fÃ¼hr ungs
Ġsome what
Ġgew iss
Ġamend ed
Ġwel cher
Ġrequ ested
pro gramm
Ġwieder um
ĠZiel en
Ġrapporteur s
ĠArbeits markt
ĠHe imat
Ġ7 0
ĠMa cedon
Ġpract ices
gre ement
Ġspeak er
Ġpriv aten
Ġopp os
Ġtechnolog ical
Ġnie mand
Ġviol ations
ĠDiskuss ionen
Ġterr or
ĠGemeinschafts in
ĠÃľberein stimmung
ĠWirk ung
Ġemploy ees
ĠSpan ish
Ġbrief ly
ĠbenÃ¶t igen
entwick lung
polit ischen
Ġdeclar ation
Ġanerk annt
ĠUmst Ã¤nden
ĠNG Os
Ġtimet able
ĠMo dern
beschÃ¤ft igung
C NS
b all
c ast
f eit
m il
n es
p akt
w al
Ġd ynam
Ġh ar
Ġh und
Ġn ations
Ġc rop
Ã¤ s
Ġbe unruh
ĠA greement
ĠS wed
ic ate
Ġg ing
Ġre iter
am a
ĠT obin
Ġden ken
Ġge prÃ¼ft
Ġde leg
Ġab st
ĠJ e
ĠO ber
Ġinc ident
Ġgen annt
Ġimp osed
ink en
ĠUnter schied
cept ion
amen te
kl ang
ĠAt lant
Ġeinge halten
recht lichen
Ġoper ate
fÃ¤h ig
Ġbef aÃŁt
ĠItal ian
Ġlab el
Ġgee igne
ĠWachstum s
Ġimmedi ate
stra fe
ĠRuss ia
ĠGene hm
Ġspok en
Ġkulture llen
Ġproport ion
Ġtyp es
Ġthous ands
ĠÃĦthiop ien
Ġzuk Ã¼nft
m ien
n a
is ierten
Ġw on
Ġw rit
re ifen
Ġf ront
te chn
Ġp assen
Ġc igaret
as h
ĠE G
ig end
ut ing
Ġre gel
ĠD Ã¤n
ĠD ring
sch ung
hr ten
Ã¶ konom
ĠR o
ĠG anz
Ġwe alth
and a
Ġst Ã¤r
ĠVer sammlung
Ġmit teilen
ĠAn zahl
Ġme ant
Ġaus reichen
ĠBe grÃ¼nd
Ġreg ular
Ġen de
Ġgen Ã¼
Ġacc omp
Ġper mit
ĠLe ute
ild et
Ġho ffentlich
Ġresol ve
Ġbring ing
Ġprom otion
ĠgrÃ¶ÃŁ er
Ġsupp ly
Ġumf assend
Ġread y
Ġallgemein e
ĠEx per
Ġocc up
ĠBinnenmarkt es
Ġappe ll
ĠwÃ¼n schen
ĠGroÃŁ brit
Ġmass ive
ĠEast ern
Ġincorpor ated
Ġfunktion iert
Ġbel ong
Ġalloc ated
ĠbestÃ¤t igt
ĠBetrug s
Ġverurteil t
Ġdiesbe zÃ¼glich
ĠMitarbeit er
ĠVerstÃ¤nd nis
ĠAnal yse
Ġentit led
Ġkonstru kt
Ġabgele hnt
ĠTschetschen ien
ĠGroÃŁbrit ann
D ie
a vour
n ational
o on
s ystems
z usammen
Ġd ig
Ġd ritten
in ner
Ġs low
at ers
or ient
Ġb inding
Ġin te
Ġf le
Ġan statt
Ġto ol
ĠE igen
ĠS orgen
em ark
im a
sch lag
ĠT er
il ater
ĠK riminalitÃ¤t
Ġfor dere
res ented
Ġver ring
ver Ã¤n
ĠZ igaret
ak et
Ġor al
ĠJ ournal
ĠJ apan
Ġdar unter
Ġ2 010
Ġam ounts
Ġpolit ics
Ġcons olid
Ġsp richt
Ġsp rach
Ġexp ert
Ġdiff erences
ĠZeit plan
icher ungs
Ġfest zulegen
Ġfest gelegten
itz er
ĠTeil en
ĠFre edom
Ġrequire ment
Ġvoll kommen
Ġplan ts
Ġlead ing
Ġprec ise
weg s
Ġkle ine
ĠFr ist
ĠverfÃ¼ gt
Ġpoor est
ĠAgrar politik
Ġbor der
Ġtradition al
Ġsuffer ing
Ġlegitim ate
ĠZusatz stoffe
ĠRuss ian
ĠGene va
Ġremark s
Ġet c
ommer ce
Ġversich ern
Ġtarge ts
Ġdign ity
V ertrag
d ent
f aÃŁt
k re
l ated
m ing
p rÃ¤sident
u k
Ġ Ã¤rm
ch sel
Ġth or
is emit
or ate
ĠE benso
ĠP o
ĠT agen
ĠW omen
lich ung
Ġzu gelassen
ĠK y
Ġwh ilst
ĠR uÃŁ
Ġl en
ĠG laub
ort hern
Ġpro ve
ĠL ab
ĠZ iff
ts ein
sp unkt
00 4
iel ds
up ts
Ġsie ben
ĠmÃ¶ glichen
Ġob sta
Ġiss u
Ġconsider ations
Ġgreat est
Ġweiter es
ĠProblem s
Ã¶ÃŁ e
stand ing
Ġir re
Ġsupp osed
Ġrecht lichen
Ġbestimm ter
ĠbegrÃ¼ÃŁ t
Ġrev ision
ĠStra ÃŁen
Ġopen ing
ĠHo ffnung
Ġamong st
ĠME DA
Ġstud ies
Ġextend ed
Ġgrundlegen den
Ġerziel en
Ġtele vision
Ġtele communications
Ġexcept ion
ko sten
ĠLast ly
Ġlok alen
ĠChar akter
Ġannoun ced
ĠtÃ¤t ig
Ġhor iz
Ġpornograph y
ĠNR O
Ġaver age
ĠDÃ¤n emark
Ġthor ough
Ġobsta c
B er
p ay
s ieht
t in
v ors
w ide
Ġd an
Ġa part
te hen
le un
Ġp ill
Ġp ensions
Ġan gest
Ġun iform
ĠE ig
ĠA kte
ĠS av
Ġl ob
Ġk orre
ĠH Ã¤l
Ġdies el
Ġer le
Ġj un
Ġres pected
uf e
ĠSch reiben
ĠO ffice
Ġsein es
Ġen vis
Ġbet reffend
ĠGe ber
Ġspe zielle
he im
Ġsp ending
Ġany one
Ġact s
Ġass ume
Ġ5 00
Ġprote cted
ĠMittel punkt
Ġwirk lichen
fÃ¤ ll
Ġzwe ck
ĠNach bar
ĠNach druck
Ġange kÃ¼nd
Ġexamp les
Ġsicher stellen
ĠFre iz
ĠOrgan e
Ġperson ally
Ġimm igrants
zw ungen
Ġchange d
ĠGegen stand
Ġrele ase
Ġrecogn ition
Ġlink s
Ġpot ent
Ġsex ual
Ġvis it
ĠSerb ien
ĠDen mark
Ġspiel t
Ġko h
Ġinnov ation
Ġirgend ein
Ġcoher ent
Ġtar iff
Ġmob il
Ġschl imm
spar tei
ĠSubsidiar itÃ¤t
Ġmanufactur ers
Ġimplic ations
ĠOrd nung
Ġdecis ive
Ġdemonst rated
ĠModern isierung
ĠHÃ¤l fte
D S
a ust
b od
c ommerce
e b
un er
Ġw om
le in
ge hens
ĠB und
el te
Ġre tain
ol k
Ġzu letzt
Ġal ten
Ġver lei
Ġer arbeitet
ĠVer ring
ungs bereich
ĠÃ¼ber zeugen
ĠEin klang
Ġdis ag
Ġacc ounts
Ġdiff erence
ĠGes etze
Ġwel chen
pro gram
Ġ4 2
Ġverb ind
Ġreal ise
lemen te
Ġpres ence
Ġgeb ill
Ġcap able
sto ffen
Ġunderstand ing
urteil ung
ĠSocial ists
Ġve get
Ġfolgen de
Ġverein bar
Ġhighl ighted
Ġrecon struction
Ġcred ibility
Ġimprovement s
Ġfehl t
Ġundertak ings
Ġherr scht
ĠSec urity
Ġexplo itation
ĠStabilitÃ¤ts pakt
ĠFlexib ilitÃ¤t
Ġperman ent
Ġletzt lich
ĠSwed ish
ĠDring lichkeit
2 5
S A
d et
m os
n t
in ts
it el
al d
Ġf u
le y
Ã¤ umen
ig erung
ĠS he
ut or
ĠB en
ĠB os
il le
ĠK ind
Ã¼r f
ĠH igh
Ġver langt
Ã¤n gt
Ġex istence
Ġr uss
ĠThe ato
ĠSt unden
Ġsh ared
Ġme chan
ĠBe isp
ĠAus be
ĠAus arbeitung
Ġdi pl
lin ed
Ġleg ally
ĠKon zept
Ġmehr eren
Ġsol ve
geb ie
Ġdam als
Ġ3 8
Ġdeb ating
rei ft
Ġwichtig es
Ġinvol vement
wirtschaft ung
Ġgel Ã¶st
ĠBes eitigung
ĠProdu ktion
ikan en
Ġnever theless
Ġfamil ies
ĠPrinzip ien
Ġclar ify
ĠBelg ium
ĠMÃ¤r kte
ĠKoh Ã¤s
Ġcounter feit
Ġinspect ion
ĠTour ismus
vergen z
Ġextens ive
ĠAnder erseits
ĠBÃ¶ sch
Ġconcentr ate
ĠAktionsp lan
Ġunmittel bar
ĠSto ffe
Ġunivers al
Ġhervorge hoben
ĠYugoslav ia
ĠInn ov
ĠInteroper abilitÃ¤t
ĠVorsorge prinzip
idd le
ĠZigaret ten
ĠBeisp iele
Ġdipl om
V P
Ġt rÃ¤gt
Ġs ides
at her
Ġb la
Ġm ach
Ġun f
Ġun re
ĠS Ã¤
ĠS wo
ĠM ann
ra gt
ĠB udgets
ĠK andidaten
um ed
Ġer Ã¶ff
ĠN ether
ĠRe al
Ġle iden
if teen
ck ung
ĠAn lagen
ĠEuropean s
ĠJ a
ĠJ oint
ĠAus maÃŁ
ĠWir d
ĠVor gehens
Ġgen utzt
ĠKon vergenz
Ġsol ches
Ġviel er
Ġgew issen
Ġbest immt
Ġwichtig ste
Ġappro x
such t
Ã¤lt igen
ĠHer steller
Ġopin ions
Ġfollow ed
ĠWettbewerb spolitik
Ġsec ure
01 6
Ġsimp l
wirk ung
Ġcolle ctive
ĠMarkt es
Ġoffen bar
ĠEntwicklungs lÃ¤nder
Ġbu ilt
Ġopp ose
bereich e
Ġmult i
Ġmar gin
ĠOb wohl
IP C
ĠUntersuch ung
Ġextens ion
Ġemer gency
Ġjur is
ĠNieder lan
Ġexper ts
Ġcompeten ce
open hagen
ĠFer ber
rap ie
ĠZeich en
bod a
ĠSwo boda
ĠNether lands
b o
l iament
m acht
s et
w ind
Ġd iss
Ġw ettbewerb
Ġf ift
Ġp hen
ent y
Ġto ler
st ance
ĠS ter
ĠM Ã¼
ĠM art
Ġein gebracht
ĠP flanzen
ĠT ai
ĠW issens
ĠR ule
Ġk am
ĠH IPC
Ġim ag
Ġver Ã¶ff
ver letz
Ġit alien
her r
ug t
ĠSch Ã¤den
Ġad just
ud em
ish ing
Ġpos sibly
Ġweit gehend
Ġ199 0
lÃ¤ ufig
ĠEntwick lungen
Ġpla ced
Ġnat Ã¼r
ĠHin dern
Ġwen ige
ĠBerichterstatter s
Ġstand s
Ġsign al
Ġgeb oten
Ġbed auer
ĠOn ce
ĠBes uch
Ġricht en
ĠGleich stellung
Ġcl imate
Ġglobal en
ktiv itÃ¤t
Ġinform iert
mb ol
Ġschwier igen
Ġethn ischen
ĠfranzÃ¶s ische
wÃ¼rd igkeit
stre am
Ġproceed ings
200 6
ĠTour ism
statt ung
Ġsour ce
ĠjÃ¤hr lich
ĠZw ischen
ĠEinsch rÃ¤n
Ġbein hal
ĠursprÃ¼n glichen
Ġbeige tragen
Ã¤um t
ĠVorred ner
ĠEinw ander
lau ben
vi our
ĠErwart ungen
Ġsorg fÃ¤lt
ĠZusÃ¤tz lichkeit
Ġhoriz ont
Ġphen omen
I DS
f ers
m eld
p erson
s ession
un ion
Ġw aters
re gelung
le hnung
Ġp ath
ĠE ben
ing u
Ġis land
ĠM iÃŁbrauch
Ġein geleitet
ĠP a
icht linie
ĠT iere
ĠW aren
ĠF ore
ĠK ategor
ĠR el
ĠC lear
ĠH ere
Ġpro sper
Ġpro hib
ĠZ udem
ĠN etze
end um
ak ten
Ġr ich
Ġvor rang
ĠAn merk
Ġab use
ĠBe achtung
ĠJ ugoslaw
ĠEr k
ĠAr men
ĠMit entscheid
Ġnach zu
Ã¼hr t
ĠmuÃŁ ten
hl t
lo ck
Ġwar m
Ġhin zufÃ¼gen
Ġmo ving
ign et
ĠVerb ot
Ġeconom ies
hand lungen
ĠgroÃŁ es
Ġrem ote
loy ed
Ġmon etary
ĠFl or
Ġsicher zustellen
ĠHand eln
Ġequ ip
Ġcor respon
Ġdraft ing
Ġdisp osal
Ġteil en
ĠAmer ica
Ġfamil iar
ĠDiskrimin ierungen
ĠTag ung
Ġinnov ative
ĠKatastrop hen
Ġjen er
Ġdemonstr ate
ĠWiederauf bau
ĠStad t
Ġconsist ent
Ġec ological
ĠVoll beschÃ¤ftigung
ĠPolize i
ĠBestand teil
wuÃŁ tsein
Ġbenach teil
Ġcal c
Ġinade quate
bere cht
ĠMacedon ia
ĠFreiz Ã¼g
ĠVerring erung
V er
e conomic
p ornograph
t ion
y m
in strument
or al
ro s
Ġe y
Ã¤ h
Ġto uch
ĠI dent
ĠA g
ĠA IDS
ĠM ug
ut s
ĠB il
ĠD isziplin
ot ential
ĠTh en
Ġver tra
Ġver langen
Ġr ational
ĠSt ability
ĠSt Ã¤d
ĠAn y
ĠEr haltung
ick s
Ġcomp lic
Ġsp read
Ġwar n
ĠVerb reitung
Ġoff ers
Ġconsider ably
Ġincl usion
Ġatt ra
ĠAll i
Ġgest r
Ġconsum ption
Ġdifficult y
Ġderzeit ige
zÃ¼ ge
aren ess
Ġmind estens
ix ed
Ġstress ed
Ġhumanit Ã¤ren
Ġmar ine
Ġbre ak
go ing
Ġbeha viour
Ġsatisf actory
Ġhead ing
oz i
leit ung
Ġeinheit lichen
Ġverd ient
ĠbestÃ¤t igen
Ġmensch lichen
Ġundertak en
Ġdiesbe zÃ¼
ĠJahrh under
ĠJahrh undert
Ġcode cision
ĠEreign isse
Ġinfrastruct ure
Ġmitt l
Ġsupplement ary
Ġaf tern
ĠPrakt iken
Ġende avour
ĠAusbe utung
Ġbeinhal tet
ĠFore ign
D as
g round
Ġ Ã¤lter
Ġt re
ie gen
ich ert
Ġin zwischen
Ġp urely
Ġz ahlen
ic ans
Ġl auf
Ġge zogen
ier end
Ġcon ven
Ġpro sec
ĠZ oll
ind ungen
end t
Ġab ziel
Ġum zusetzen
Ġsch Ã¤d
be handlung
ĠVor teile
ĠO ther
Ġinter ested
Ġinter pre
Ġqu orum
ĠBericht en
ĠEin wanderung
Ġpre ced
Ġte ile
bar go
Ġsub stance
ĠCh in
Ġrep resented
Ġunder m
ĠSta uner
ĠRechts staat
Ġla utet
Ġeffect iveness
Ġtr end
ium s
ĠUnternehmen s
Ġaw areness
Ġaim ed
ĠVerbess erungen
Ġprep are
Ġjud gement
Ġwirksam e
Ġdep art
Ġemphas is
ĠBas que
Ġrepe ated
Ġland wirtschaft
ĠzustÃ¤nd ig
Ġassoc iation
Ġsufficient ly
Ġfig ure
Ġconstit ute
Ġprof ess
Ġbeein trÃ¤cht
Ġverste he
ĠMark et
Ġfla x
ĠAnp assung
ĠGel der
Ġwelch em
ĠWÃ¼r de
ĠLi ikanen
ĠHul ten
ĠÃ¤rm sten
Ġlen gt
ĠFreizÃ¼g igkeit
P ar
d ire
h uber
p endence
s c
t ung
t Ã¤us
en ing
Ġs inc
an f
Ġf ern
Ġn ation
Ġun ne
Ġv ia
ĠA re
ĠS k
Ġein erseits
ĠD ub
der ly
ĠR ural
isch em
ĠG et
ĠG lÃ¼ck
ĠG Ã¼ter
ot ten
Ġwe ap
Ġver t
Ġver we
Ġer hÃ¤lt
Ġer lassen
ach er
ĠIn stead
Ġex ec
ĠAn n
ĠAn other
aus o
ĠSch uld
ĠPro f
ĠAb lehnung
Ã¤r kte
Ġch em
Ġcont act
Ġint entions
Ġmehr fach
Ġnational s
ĠVerb rennung
Ġletz ter
Ġgla ub
Ġfollow s
stan de
Ġdel iber
Ġfinanz iert
Ġumf aÃŁt
Ġaddition ality
Ġpay ments
Ġoper ational
ĠPl atz
ĠGegen satz
Ġintrodu cing
Ġdef ic
Ġexce ed
Ġaff ord
Ġident ity
ĠBrit ain
ĠzusÃ¤tz lichen
ĠPer haps
Ġmaterial s
Ġgrant ing
ĠBar cel
Ġprot est
ĠSec ret
ĠWes tern
Ġargument s
Ġlik ely
Ġpenalt y
ĠWohl stand
Ġmand ate
Ġfacilit ate
Ġpolitic ians
Ġauff or
ĠGenehm igung
Ġdig ital
ĠRuÃŁ land
ĠClear ly
Ġaftern oon
Ġunne cess
ĠDub lin
ĠBarcel ona
L D
k ur
m lich
m Ã¤rkte
p s
ch el
Ġa head
Ġw ide
re b
Ġn Ã¼tz
Ġn Ã¤her
Ġan zunehmen
Ġun l
ĠE le
ĠM ac
em m
Ġg one
den kt
Ġl ose
Ġge halten
ff ung
and els
Ġst ake
Ġdes erv
ĠZ ul
ik o
Ġse ction
Ġvor an
ord nungen
Ġsch afft
ĠO sten
Ġent standen
Ġch ann
ĠmuÃŁ te
Ġinc ent
Ġsp reche
fe il
lÃ¤ uft
Ġfe eding
Ġtran se
Ġrel ates
Ġref ers
Ġref erring
ĠMein ungs
Ġro om
Ġro und
Ġcour age
fin anz
Ġresol ved
Ġnum erous
hil os
Ġtr uth
Ġel derly
Ġbene f
Ġkurz em
Ġgegeben enfalls
Ġtreat ed
wach stum
ĠSocial ist
ĠVoraus schau
ĠKl ima
Ġgelten den
ĠAnt worten
Ġcho ose
Ġhold ing
Ġprepar ing
ĠMÃ¤n ner
ĠNahrungsmittel hilfe
Ġdetail s
ĠZivil gesellschaft
Ġniedr ig
ĠbemÃ¼ ht
Ġwach sen
vo llen
ĠUrs achen
Ġterritor ial
Ġgenere ll
ĠLank a
ĠÃĦrz te
ĠSchre yer
ĠRind fleisch
ĠBegrÃ¼nd ung
upts Ã¤ch
a ktionen
n ach
o ij
p o
s h
en der
Ġd ritte
Ġd opp
at om
an as
Ġh il
ge ht
om in
ĠE P
ĠS om
Ġz er
ĠP lo
ĠB olk
ĠD ut
ul ich
ĠV ice
Ġwe ist
Ġver gleich
ĠSt reit
Ġvor hin
ĠParl amente
00 1
Ġsch rift
ĠAus nahmen
ĠO z
ĠAr ten
ĠAb kommens
gra d
ĠGe fahren
lin ary
Ġber aten
yste men
Ġsp end
ag ne
ĠArbeit en
Ġsol d
Ġfact s
Ġ3 4
Ġrel ativ
Ġpolitical ly
ĠBed Ã¼rf
Ġfre qu
ĠKo operation
ĠGeb Ã¤
ĠIm m
Ġtr ust
Ġhelp ing
ĠGen eration
hol d
Ġsubject s
ĠEntwicklungs lÃ¤ndern
Ġapplic ant
Ġeindeut ige
leist ungen
ĠBehÃ¶r de
Ġopt ion
Ġstar ke
Ġumfassen den
ĠVolk spartei
ĠIr ish
Ġdistrib uted
ĠKr ise
ĠKom peten
ĠbeschrÃ¤n kt
Ġquot a
so ever
Ġmensch liche
In itiative
krÃ¤ fte
Ġerschein t
ĠerlÃ¤ut ern
Ġsymp ath
ĠGroÃŁbritann ien
ĠMug abe
ĠPlo oij
ĠBolk este
2 4
w ers
y ed
Ġt ief
it ologie
Ġin f
Ġh ence
Ġto wn
ĠE ur
ĠS ow
ĠM aterial
Ġein stimm
ĠP rÃ¤s
Ġre lie
ĠW est
Ġha uptsÃ¤ch
op f
ust ry
ĠN etz
lie ben
Ġvor stellen
aus ende
Ġaus einander
Ġaus gesetzt
Ġinter oper
Ã¼s s
Ġpart ly
Ġimp ose
ap ital
rat ic
ĠZusammen halt
hand elt
Ġprocess es
ĠPolitik er
ĠProblem atik
Ġcompet ent
Ã¤ng st
Ġset s
Ġgut es
Ġgel ingt
ĠauÃŁ en
Ġtax es
Ġgovern ance
raum s
komm un
Ġfreedom s
Ġdoub le
ĠVertre tern
Ġapply ing
Ġdist ort
Ġverw iesen
Ġmaintain ing
Ġeas ily
Ġban anas
fert igt
Ġbeant worten
Ġfail ure
Ġwesentlich er
Ġcorrect ly
Ġerheb liche
ĠPer spekt
Ġinteress iert
Ġeinheit liche
ĠKom itologie
hÃ¤n gen
ĠMex ico
Ġsl ight
zust immen
Ġerneuer baren
Ġapprec iate
Ġconstant ly
Ġacknow led
ĠEtikett ierung
Ġbeabsicht igt
Ġrecyc ling
Ġauft reten
Ġpublish ed
zure ich
ĠLab our
ĠSav ary
ĠBolkeste in
0 8
A C
b els
e ten
g le
h ner
k atastrop
m achen
r um
z io
Ġth ir
or ry
Ġb erecht
Ġf il
Ġn ine
Ġun mÃ¶glich
Ġbe mer
Ġbe wegen
Ġre icht
sch l
ter t
ul ner
Ġl ar
isch ung
ĠV itor
ab ling
ĠL angen
ĠZ e
sp iel
qu es
uf Ã¼hren
ĠEuropÃ¤ er
ĠO ffen
se kret
Ġent weder
ĠPresident s
Ġqu ote
Ã¤t igkeiten
Ã¼ck en
Ġwhat soever
lÃ¤ chen
ĠGrund sÃ¤tzen
geb iet
Ġrel atively
ĠFin land
ient s
fÃ¤ llig
trag ung
Ġsc r
ĠHa ving
ĠFinanz ierungs
Ã¤tz en
bal d
gleich heit
Ġcommun ications
Ġschw ed
Ġstatt f
Ġcor rupt
Ġans wers
Ġpeace ful
leist ung
Ġmar itime
Ġcontinu ed
ĠSteuer zahl
ĠFlÃ¼cht lings
Ġsatisf ied
Ġstaat liche
ĠTra dition
Ġunver zÃ¼glich
Ġhapp ens
ĠGeneral dire
ĠverstÃ¤r kt
ĠverstÃ¤r ken
ĠKommun ikation
Ġplann ed
ĠWahr heit
zub auen
Ġstra f
ĠTerr or
Ġmill ions
Ġrig or
ĠTodes strafe
olon ial
Ġcoll abor
ĠnÃ¶t ig
Ġconserv ation
Ġoppos ite
ĠGlaub wÃ¼rdigkeit
Ġjuris dict
Par liament
Z B
c ause
g ers
i Ã¶
k rit
o fern
v it
it ative
Ġf ats
Ġe chte
Ġh om
Ġc a
Ġc ategor
Ġv ulner
om et
ir y
ut r
ĠD ingen
ĠW Ã¤hrend
hr endt
Ġl angen
ĠV allel
ĠG ese
ĠC O
ĠH ab
res ident
Ġal arm
de ckt
ĠTh ose
Ġver z
ver tre
Ġer teilen
kt ure
ĠL ang
Ġne un
ĠN iveau
Ġj ournal
ak zept
Ġex pected
qu ality
ĠAn trÃ¤ge
aus gaben
Ġab hÃ¤ng
Ġaus geschlossen
Ġor ient
ers und
ĠBe cause
uch ner
ĠEr nen
ĠVor lage
ou verÃ¤n
Ġch anging
Ġgo als
Ġins ofern
ĠGemein schaften
hÃ¶r igen
get ragen
ĠgroÃŁ em
Ġover come
ĠGes icht
ĠBed arf
Ġconsider ing
Ġcour t
ĠKo uchner
Ġger ichtet
ss on
ĠEntscheid ungs
ĠIntern al
Ġval u
Ġricht igen
Ġtax pay
Ġhervor ragen
reg ionen
Ġentscheiden den
Ġinn ere
Ġversch Ã¤r
Ġbekannt lich
Ġsur v
Ġrac ist
Ġgee hrte
Ġstop p
Ġpurp oses
ĠBelg ien
ĠbefÃ¼r worten
Ġunterb rochen
wÃ¼rd ig
ĠhÃ¶ch st
Ġexpla ined
Ġverab schieden
Ġgenet ically
Ġrestrict ions
Ġconfirm ed
Ġmiss ion
ĠSchl Ã¼ssel
ĠStat us
Ġmut ual
Be hrendt
Ġexcess ive
ĠÃ¶sterreich ischen
Ġehemal igen
Ġairport s
br uch
ĠLauf e
Ġtemp or
ĠkÃ¼rz lich
Ġheav y
ĠBur ma
Ġabst ain
itzer land
Ġdan ach
Ġbla ck
Ġwettbewerb s
hilos oph
Ġinteroper ability
ĠVallel ersund
ĠGese llschaften
C orm
d ien
f unden
n or
x ts
y r
Ġs al
at ische
an cial
Ġf ederal
Ġun zureich
ĠE ffe
ĠE lemente
ĠS ouverÃ¤n
ĠB ureau
ĠD ro
ĠD ollar
ĠF ree
il en
Ġda ily
Ġl atter
ĠV an
Ġk il
ot o
ĠC ar
Ġal te
Ġcon stitutional
ĠL Ã¤rm
iv ation
sp rachen
Ġab ol
Ġsch lagen
gr enze
ĠBer uf
Ġwor ry
ĠEin richtungen
Ġno ted
Ġnew s
Ġper form
sche fs
Ġ3 6
hÃ¶r t
Ġcour ts
itz t
Ġfinan ced
ĠDa v
ĠMe chanismen
Ġange wand
okrat ischen
Ġpresent ation
Ġreal istic
ĠProgram men
ail s
fra gt
Ġtr ial
Ġgla d
Ġke pt
ĠHaushalts kontrolle
01 5
Ġir reg
Ġeinzel ne
Ġback ground
Ġadv is
Ġtalk s
ĠInd ustry
Ġpriv at
Ġzusammen arbeiten
Ġant worten
Ġmot ions
Ġentscheiden de
ĠgegenwÃ¤rt ige
Ġplay ed
ĠschlieÃŁ en
ĠkÃ¼nft ige
Ġexpect ations
Ġoblig ator
ĠAss ozi
ĠwÃ¼n sch
Ġstrengthen ing
Ġfacil ities
Ġdeterm ine
Ġausgezeichne te
ĠUntersuch ungen
will igen
ĠfrÃ¼her en
Ġdom in
Ġgre en
Ġassoci ated
Ġdescr ibed
Ġevalu ation
Ġharm ful
ĠSw itzerland
Ġverteid igen
ĠSen kung
Ġexcl uded
Ġcompens ation
ĠKrÃ¤ fte
Ġaccomp an
mos ph
ĠAlli anz
ĠSecret ary
ĠMac Corm
ĠEur atom
ĠPrÃ¤s id
ĠVallelersund i
ĠMacCorm ick
d orf
h me
r ate
v erein
z enten
Ġt Ã¤
Ġw ritten
Ġs ter
Ġh Ã¤ngt
Ġv ision
Ġbe zeichnet
ig u
ĠS ier
ĠM ut
em ann
em ost
ĠD r
ĠF isher
ĠF utter
ĠR enten
Ġl at
Ġfor emost
Ġer leben
Ġer gibt
ĠL ien
Ã¤n en
ĠÃ¼ber lassen
Ġsch ritt
ĠAus richtung
ĠVor teil
ĠVor rang
ĠAb Ã¤nder
igh ten
Ġdurch fÃ¼hren
ru it
Ġgen auso
ĠUm wel
ĠVerb rechen
Ġbas ically
Ġhand s
ĠWh ile
ĠMe er
Ġpar allel
Ġcontin ues
Ġfind ing
Ġwirtschaft lich
ĠDebat ten
Ġequ ally
Ġpay ment
ĠRed uz
ikan ische
ĠgewÃ¤hr t
Ġrequest s
Ġobl ige
Ġteil nehmen
Ġident ified
ĠAuÃŁen politik
weil en
Ġfolgen den
ĠBeitritts k
Ġdeterm ined
Ġhistor ic
Ġprepar ation
Ġindustr ies
ĠErfahr ung
Ġunterst reichen
Ġsus p
Ġwoll ten
Ġnachhalt igen
Ġjen en
Ġwait ing
ĠgrundsÃ¤tz lich
ĠTele kommun
Ġneighbour ing
ĠAuft rag
ĠKonsequ enzen
ĠUnabhÃ¤ng igkeit
ĠSign al
ĠDon ner
Ġcoup le
ĠOrganis men
vors itz
Ġverlei hen
Ġprosper ity
Ġequip ment
Ġunnecess ary
ĠSier ra
ĠLien emann
. ,
M ittel
e fe
k amp
w ahl
er kennen
Ġt rifft
it Ã¤r
Ġs ize
an gt
Ġm iÃŁ
Ġf low
Ġf ifteen
Ġh emp
Ġh yp
Ġc op
ge g
ĠE ZB
ing er
ir k
ĠS um
ĠB aring
ĠB oden
ĠD ary
Ġzu ges
ĠK an
ĠK urz
ĠK orr
Ġl Ã¤
Ġge tr
Ġver Ã¤ndert
ver t
est ic
Ġer leicht
Ġer gÃ¤nz
Ġauf nehmen
Ġst re
Ġst im
ill s
her stellung
Ġwer te
Ã¤n glich
ens en
Ġr ates
ĠAn wend
ah ara
00 6
scha ffung
Ġhe ik
Ġbes eit
Ġsp Ã¤t
Ġint oler
wo hner
Ġsol ange
Ġdeb att
Ġ4 5
ĠWh ere
ĠMon at
ĠY es
ĠFre is
Ġwirtschaft licher
ĠzurÃ¼ck zu
01 1
ĠBes te
vorsch lÃ¤ge
Ġunderst ood
Ġessential ly
Ġbef indet
ĠEntwicklungs hilfe
Ġpass iert
ĠAls o
Ġcare ful
Ġbedeut sam
Ġeas ier
ĠLeg isl
Ġverhin dert
Ġaffect s
Ġindic ated
ĠMÃ¤n nern
ĠGra efe
Ġverurteil en
ĠMex iko
ĠGesprÃ¤ che
Ġaccident s
Ġkeines wegs
wÃ¤ss er
ĠLuxem bourg
ĠFunktion ieren
Ġinterv ene
ĠKÃ¼ sten
Ġunc ertain
nahm ere
zusammen arbeit
Ġinte lle
Ġissu ed
Ġveget able
ĠBos n
ĠTai wan
ĠverÃ¶ff ent
Ġirreg ular
ĠFisher ies
H A
d es
p et
it ology
Ġs ad
Ġb reit
Ġo zone
Ġf ried
Ġe ight
Ġan z
Ġv olle
ur t
ur ning
Ġg ot
Ġre chts
ĠD uring
ul ate
ĠK rie
ĠG ang
ĠG elt
ĠH Ã¤fen
Ġge zwungen
Ġim men
ĠTh urs
Ġpro stitution
Ġer wiesen
Ġde ter
end et
sp art
Ġvor zunehmen
Ġvor liegt
ĠAn k
ah en
ĠÃ¼ber sch
ĠÃ¼ber prÃ¼
Ġaus gest
Ġaus wirken
ĠO st
ĠmÃ¶ gliche
se bene
ran che
ĠEin stellung
Ġgen ie
Ġspe ct
ĠMen ge
Ġev ident
Ġfe ed
Ġact ing
Ġjust ify
wor te
Ġfre ie
itiz ens
ĠHa fen
Ġtrans national
ĠStand ards
Ġlang sam
Ġrecht liche
Ġdefin it
miss ionen
bau en
Ġfeel ing
Ġshort com
ĠEmp loyment
Ġprevent ing
Ġcent re
ĠLuft verkehrs
Ġoft mals
Ġencour aging
ĠPosition en
Ġverl ieren
Ã¤nger ung
nehm ern
ĠhÃ¶ch ste
Ġconcl uded
ĠSc ot
ungsan lagen
Ġill ustr
Ġprim ary
Ġschle cht
Ġnear ly
ĠBereit stellung
Ġmist ake
ĠPh ase
ĠZentral bank
Ġthreaten ed
Ġsovereign ty
Ġwon ach
ĠstÃ¤r ken
gebie te
ĠReduz ierung
ĠDonner stag
ĠBaring dorf
ĠThurs day
Ġshortcom ings
I N
S t
a der
l or
m ann
r ise
s ider
v entions
er y
Ġw ann
it re
Ġs el
Ġs ach
Ġs Ã¼d
or se
re geln
ro t
ro v
Ġe chten
Ġan sprechen
ge geben
as c
ĠS Ã¼
Ġz iel
ĠB ow
Ġre ichen
ĠD et
ĠD aÃŁ
ĠF ar
ĠF rÃ¼
ĠR ese
Ġk orr
Ġfor g
Ġge leis
ĠIn kraft
ĠBe werber
Ġdo ll
ĠAus einander
ĠAus nahmere
ĠO hne
Ġcoun t
ub a
ass ungs
Ġfin e
Ġbes orgt
Ġsp Ã¼r
ĠÃĦ uÃŁ
Ġbereit gestellt
ĠLe one
fol gung
ĠAl t
Ġyour self
klÃ¤r ung
ĠAll iance
Ġbed au
Ġinde pendence
ĠMan gel
Ġbew Ã¤ltigen
ĠKinder pornograph
Ã¤hl t
Ġple ase
Ġschne ller
ipf el
Ġversch le
ĠerwÃ¤ hnen
Ġrestr icted
Ġverw enden
Ġbre ach
Ġgra v
kontro ll
ĠunabhÃ¤ng igen
Ġakt uellen
ĠFlÃ¼cht ling
Ġsuffer ed
ĠProdukt ions
ĠVorsitz enden
hÃ¤n gt
Ġnachhalt ige
Ġport s
Ġspok e
Ġinvestig ation
ĠDo es
ĠProz ent
ĠHerkunft s
Ġzul assen
Ġunanim ously
ĠBl ok
ĠFaktor en
ĠKaka ob
ĠAk in
ĠChancen gleichheit
Ġsuperv ision
Ġvorbereit et
versch mutzung
fu hr
ĠEig ent
ĠBund es
verletz ungen
ĠIdent itÃ¤t
ĠVitor ino
ĠKinderpornograph ie
A O
P resident
h Ã¼t
m odell
w s
ch mal
an trÃ¤ge
Ġf ields
Ġp ie
Ġp ict
Ã¼ ge
Ã¼ mm
ĠE missions
ĠE LD
im or
ĠB ahn
ĠF ood
Ġl ists
Ġk Ã¤mpfen
res pect
de p
and on
Ġer ad
ĠL ie
ĠVer urs
ess ene
ĠPar itÃ¤t
ck x
aus end
Ġab andon
ien e
ĠAus gang
ĠSch ne
Ġcom itology
Ġent steht
Ġdi ox
Ġbut ter
ĠParliament s
Ġste uer
Ġinc omp
ress ourcen
Ġper cent
Ġprov ed
Ġkon sequent
Ġgew iÃŁ
Ġamend ing
Ġar men
pro blem
Ġger aten
io x
ĠHer stellung
Ġest im
antwort ung
zeich en
ĠEntschlieÃŁ ungen
ĠAll gemein
ĠBet racht
lichkeit en
stand ards
Ġstrateg ischen
sto ÃŁ
ikan er
ennt nisse
Ġkurz frist
Ġapplic ations
Ġapplic able
ĠhÃ¶ here
Ġviol ation
Ġmod ified
ator en
Ġfarm ing
Ġrail ways
ĠQual itÃ¤ts
Ġbeant wortet
Ġcla ims
Ġcarry ing
Ġheut ige
Ġph ys
ĠWel th
ĠerhÃ¶ ht
ĠWahr ung
Ġfunction ing
ĠBef ugnisse
Ġberu ht
Ġberu hen
ĠRand lage
auft rag
Ġgarant ieren
Ġbar r
ĠGarant ie
ĠVerl Ã¤ngerung
ĠAuss age
Ġult imately
ĠtÃ¼rk ischen
Ġamer ikanischen
Ber icht
ĠSter ckx
Ġphenomen on
ĠJugoslaw ien
Ġdeserv es
Ġtranse uropÃ¤ischen
ĠDut ch
ĠOz on
ĠhauptsÃ¤ch lich
sekret Ã¤r
Ġjurisdict ion
Ġvulner able
ĠRese arch
ĠELD R
C hrist
E S
R e
U E
b ring
d ac
i rect
l Ã¶s
p ir
s y
Ġd ro
Ġd ict
at al
Ġb ann
Ġan stre
Ġc ard
Ġc ore
Ġz ivil
ul i
ĠK lein
Ġl iber
ĠG D
Ġso uth
Ġver tre
Ġver lassen
ĠL adies
ĠUn der
ĠN orth
ak es
ann ehm
Ġr u
Ġsh ift
Ġme at
ges tellten
ad vant
rÃ¤ umen
ĠJ eder
tz eit
Ġent ry
ran ken
ou b
Ġapp ar
Ġdis advant
Ġcomp ared
Ġbet reiben
ĠGe ist
ger ufen
Ġzum al
lic it
Ġhin weg
Ġind irect
Ġprodu cing
Ġar ms
rei ber
Ġend orse
Ġlie ber
Ã¤tz ung
Ġbesch leun
ĠFre ude
Ã¼b t
ĠGer icht
Ġdeal s
Ġbed roht
Ã¼nd et
ĠBest immung
Ġval id
Ġabs urd
ĠSozial politik
ĠNe ben
ĠEUR O
Ġel ig
Ġlarge ly
ĠPl Ã¤ne
Ġoffen en
ĠProj ekten
ĠFÃ¤ h
Ġenter ed
ĠstÃ¤rk ere
Ġconv entions
ĠLuft verkehr
Ġzie mlich
ĠDok umente
ĠVolk es
Ġdelay s
Ġbeteil igen
Ġdeterm ination
Ġvol unt
Ġrapid ly
ĠInternational en
Ġuner lÃ¤ÃŁlich
Ġcheck s
Ġprot ocol
Ġzul Ã¤ss
haus halt
Ġship s
Ġexplan ation
ĠFinn land
Ġrepla ce
zut ragen
sprogram me
ĠBevÃ¶lkerungs gruppen
ĠKontin ent
Ġchair man
Ġcooper ate
Ġparlamentar ischen
Ġsuspend ed
ĠFlugh Ã¤fen
Ġeinzelstaat lichen
Ġsole ly
Ġprofess ional
Ġvalu able
ĠBeitrittsk andidaten
D er
E G
F L
d ring
f un
f are
g n
in ely
is ierungs
Ġin akzept
Ġm al
al ter
Ġf assen
Ġder og
ĠS Ã¶r
ĠP HA
Ġg Ã¼nst
gen cies
ĠK ann
Ġk r
ĠG ors
ĠH anf
Ġso weit
os ing
op ard
Ġj ungen
ĠPar is
Ġvor mittag
art ige
Ġsch reck
ĠSch m
ĠAb hÃ¤ng
Ġad mit
ick en
ast ung
Ġob jekt
lo ok
Ġte xts
ag ung
fahr t
Ġtra vel
weit ung
ĠSta ates
ateg ory
hin derung
Ġwieder auf
ĠHa ug
Ġrespect s
Ġnumber s
ĠSicherheit spolitik
gese llschaften
Ġnecess arily
ĠRegierung schefs
ĠSituation en
Ġsens ib
Ġstru kture
Ġpay s
Ġsmall er
Ġant icip
Ġtreat ies
Ġcent res
ĠgefÃ¤hr lich
ĠCo sta
Ġelect ric
Ã¼rz ung
Ġbeg onnen
ĠwÃ¼n sche
ĠBelg ian
Ġko sten
Ġbrit ische
Ġsogen annte
Ġgenu inely
ĠII I
ĠTerr itor
ĠStud ien
bed arf
Ġkeines falls
jÃ¤hr igen
ĠbemÃ¼ hen
Ġgesellschaft lichen
ĠVerzÃ¶ gerung
Ġrech tzeit
Ġjem and
ĠBek annt
ĠgenÃ¼ gend
ĠKy oto
ĠZiff er
Ġmittl eren
Ġfern er
Ġscr utin
ĠSouverÃ¤n itÃ¤t
Ġoblige d
ĠKorr upt
ĠBlok land
hÃ¼t ung
oub tedly
ĠSÃ¶r ensen
ĠPHA RE
ĠGors el
R ichtlinie
l ang
Ġt rop
Ġt ests
is ierte
Ġb omb
Ġm atch
Ġf elt
te uer
Ġn orth
ĠE m
ur en
ĠB i
ĠB uch
ĠD auer
ĠT rag
Ġzu gleich
ĠK enn
Ġk n
ĠC itizens
ĠH olz
Ġge langt
Ġne hme
ck er
ah me
Ġab sen
ĠÃ¼ber aus
ze p
me id
ist ics
Ġsch lage
ĠAus weitung
ĠPro te
ĠAb schaffung
Ġob ser
ank e
Ġma ÃŁ
Ġimp er
wer tet
Ġwork s
Ġimportant ly
Ġ3 9
Ġdeb ated
itz ung
bei hilfen
Ġsicher gestellt
Ġdank bar
ĠSchutz es
ĠAm ts
ĠGer ade
Ġav iation
ĠzurÃ¼ck zufÃ¼hren
Ġnegoti ating
Ġregul atory
Ġje opard
Ġlead s
Ġbestehen de
ĠForm ulierung
ĠSub ventionen
Ġsit es
Ġjud ge
ĠgefÃ¤hr det
Ġundert ake
ĠEC B
ĠCo operation
Ġban ana
Ġangem essene
Ġverbunden en
Ġtop ical
oin ted
behÃ¶r den
Ġwid men
Ġfirm ly
Ġacknow ledge
Ġverurs acht
Ġtw enty
ĠKrank heit
Ab kommen
Ġkoh Ã¤r
Ġcounterfeit ing
Ġeinstimm ig
0 7
E F
l imin
z ent
Ġd rÃ¤n
Ġa fra
is tr
Ġw ent
ro ed
Ġh ouse
Ġn one
Ġan bel
Ġun annehm
ĠE D
ÃŁ e
ĠS u
Ġz one
Ġz Ã¼g
ic ed
ĠB ill
ĠT aten
ĠT age
ĠW ass
ĠW Ã¤hl
ĠF assung
Ġzu vor
ct ing
ĠK Ã¼r
Ġl ag
ĠG al
Ġfor ese
ĠC res
Ġge he
Ġver teilt
ver walt
ach ing
ĠUn regel
ĠVer trÃ¤gen
ĠVer fassung
la red
ate ll
ay s
ĠAn lage
Ġab schlieÃŁend
ahr t
ĠJ uli
ĠSch ott
ĠSch roed
ĠEr reichung
ĠEr itre
ĠVor stellung
all ing
ud es
Ġch arge
Ġcomp on
Ġpolit isches
Ġpre limin
Ġsp ite
ag n
Ġexp licit
Ġind ire
Ġdec lared
Ġfe hlen
Ġkon stitution
ĠTe ile
Ġbest immen
Ġar res
Ġpla ces
Ġunder lying
ĠRechts rahmen
isl ang
Ġ5 3
Ġwirk liche
ĠZu ge
ĠEuro dac
ĠDes wegen
Ġneg ativen
ĠBeit rÃ¤ge
Ġbesch lieÃŁen
ĠTeil nahme
ĠFrauen handel
Ġkomm er
Ġmin utes
Ġgovern ing
ĠgewÃ¤hr en
ĠÃ¤uÃŁerst er
Ġmembers hip
Ġrestr uct
ĠOb ject
ĠPal est
Ġeng ag
ĠMinder heit
ĠRes pekt
Ġmodern isation
Ġurg ently
Ġko ordin
nehm bar
ĠKrieg s
Ġlok aler
iet ies
Ġzentral e
ĠbenÃ¶t igt
ĠvernÃ¼nft ig
Ġeffekt iv
Ġlangfrist ig
Ġprim arily
Ġdom estic
Ġpursu ant
ĠRa uchen
ĠFahr zeuge
ĠLuxem burg
Ġwidersp ie
ĠPap ier
Ġhop es
ĠKonsult ation
Ġcrop s
ĠJournal isten
Ġruss ischen
Ġweap ons
Ġauffor dern
ĠabhÃ¤ng ig
ĠScot land
Ġafra id
Ġanbel angt
ĠUnregel mÃ¤ÃŁ
ĠSchroed ter
Ġprelimin ary
2 3
A l
A fr
L Ã¤ndern
a fen
b uch
k und
n iveau
p rechen
Ġ [
er ing
Ġd Ã¤n
in ary
Ġt ie
Ġt ried
it ten
Ġs il
an ische
Ġin halt
Ġp rÃ¤sent
Ġbe hin
Ġbe aring
ĠA id
Ġund oubtedly
ĠM ost
ĠD ire
ĠK MU
ĠH ome
Ġge arbeitet
ver folg
Ġer hoben
Ġer fordern
la ut
tr y
Ġle id
qu ote
Ġvor gehen
scha ffen
Ġum setzen
ĠEr schein
all strÃ¶m
Ġreg ister
Ġent h
Ġent s
cht ungen
Ã¤r kt
anz ig
Ġcomp atible
mp t
ieren der
Ġra ce
ag ue
ugh ter
Ġacc ur
ĠAuf grund
Ġkon s
ateg ien
schie ben
Ġspec ies
Ġbez ahlen
Ġget ragen
ĠBet rag
Ġgest atten
ĠHand lungs
Ġprom ises
Ġbed anken
ĠHil fs
Ġdefin iert
Ġorganis ms
ĠZust and
rech ter
ĠEnerg y
ĠAsp ekten
ĠViel zahl
erecht igkeit
zahl t
itÃ¤ts prinzip
ĠVertra uens
spruch s
Ġsur round
ĠÃĸsterreich s
ĠGew Ã¤hr
gÃ¤n glich
Ġmaintain ed
Ġextend ing
ĠMal m
Ġrest or
Ġclar ification
ĠFern er
Ġunterb reiten
Ġprofit ieren
ĠVersch mutzung
Ġrefle cted
ĠDienstleist ungs
Ġobserv ations
Ġrun ning
Ġwiederhol t
Ġbecom es
Ġvorhanden en
ĠAktionsp l
ĠmilitÃ¤r ischen
Ġbehaup ten
Ġinterin stitutional
ĠHaft ung
Ġgebe ten
ĠDan ish
sprÃ¼ che
ĠRent ner
sproz esses
Ġcompl iance
Ġobstac les
Ġerle bt
ĠGet re
ĠAnn Ã¤her
ĠPrÃ¤sid ium
Ġschritt weise
Ġelectric ity
Ġabsen ce
ĠKÃ¼r ze
ĠCres po
K on
b art
c ro
j ud
r ates
ch mark
on i
Ġs orry
an e
Ġe co
le vel
Ġp ol
Ġun k
Ġun n
ĠE MU
Ġbe ob
ir a
ir ms
ĠP SE
ĠB rok
Ġre ass
ĠD ien
ĠF Ã¶rder
Ġl aufen
ĠV ize
ĠG UE
Ġwe ight
est y
Ġer teilt
ach ter
ĠVer wirk
Ġnot ice
ik as
ĠN och
ĠN utz
Ġdem ograph
ne x
Ġsh ame
ad s
ĠJ uly
ĠSch en
Ġdi ent
Ġunter zeichnet
Ġprop ert
Ã¼n ften
Ġste ll
Ġges undheit
rat ing
Ġdec entral
ĠMenschen handel
Ġtra ce
fl anz
ite ten
Ġstr ik
Ġac qu
Ġ5 6
ĠNach frage
ĠDes pite
ĠFinanz iellen
ĠFinanz kontrolle
ĠGebie ts
Ġtrans l
Ġprom ised
Ġgel ingen
Ġsec ret
Ġsecond ly
ĠDurch setzung
Ġdire kte
Ġje gliche
ĠUns icherheit
ĠEntwicklungs zusammenarbeit
Ġdemand ing
ĠEx port
Ġrecog nis
ĠBinnenmarkt s
ĠVertra ges
Ġident ify
Ġenthalten en
Ġkeep ing
.. .
ĠWo hn
Ġrad ical
Ġclar ity
Ġbeant ragt
Ġcla use
Ġtop ic
Ġtrotz dem
zusch lieÃŁen
ĠGM O
ĠProz esses
Ġwithdra w
ĠUnser er
ĠausfÃ¼hr lich
ĠBereit schaft
Ġerr or
Ġexem ption
Ġuneing eschrÃ¤nkt
ĠBefÃ¼r chtungen
bo ard
ĠDisziplin ar
Ġcomplic ated
ĠJahrhunder ts
Ġdefic it
ĠGebÃ¤ ude
ĠÃ¼berprÃ¼ fen
ĠVerurs acher
ĠWelth andels
ĠAbhÃ¤ng igkeit
ĠVize prÃ¤sident
% ,
K enn
N G
R OM
e ll
f ted
o ÃŁen
u ert
in i
Ġw est
re ds
an cing
al ition
Ġf am
Ġun ab
ir able
ĠM iddle
ol ig
ĠT ank
ĠW og
id o
ab ot
ab schied
Ġim age
Ġcon stitution
Ġver tritt
and el
Ġdes erve
ĠVer abschied
ĠN on
Ġle iten
Ġmit ge
Ġr Ã¼ck
ĠFra gest
etz ten
ĠPro stitution
be ziehen
ĠEr laÃŁ
Ġent fern
Ġwor st
ĠParlament ar
Ġunter scheiden
ĠMit wirkung
Ġnach mittag
Ġzw angs
ĠReg ard
ĠComm on
ĠLe ft
trÃ¤ ger
Ġ3 3
ĠSe ktors
Ġrel ate
ĠFin ancial
Ġregard ed
Ġeinz ig
ĠSte uern
fÃ¤ llt
Ġenvironment ally
Ġgemeinsam es
zus ehen
ĠFl achs
ĠY or
dem okraten
ho le
gew Ã¶hn
ĠGen fer
Ġrecht fert
Ġzweit er
Ġadv ance
Ġfinanz ieren
Ġoper ating
Ġentscheiden d
ĠWith out
ĠRep resent
Ġversch w
ĠLandwirtschaft s
Ġsag ten
Ġunterschied lich
ĠGipf elt
ĠMin uten
Ġerwar tet
geleg te
ĠfrÃ¼ h
ĠEng lish
Ġaffect ing
Ġvol ume
ĠKons ens
Pro gramm
Ġincorpor ate
Ġgenet isch
ĠTechnolog ie
Ġcondemn ed
Ġkulture lle
ĠSchulden er
Ġbeein fl
Ġkontroll iert
ĠGarant ien
ĠWÃ¤hrungs union
Ġeinzus etzen
Ġbegrenz t
ĠerwÃ¤hn ten
Ġdiscip linary
Ġton nes
Ġgebill igt
Ġimag ine
ĠverÃ¶ffent licht
ĠKakaob utter
Ġvolunt ary
Ġrechtzeit ig
ĠAnnÃ¤her ung
ĠVerwirk lichung
ĠWog au
ĠVerabschied ung
4 0
M E
T A
f lag
l iste
m utz
m essen
w asser
Ã ľ
Ġd ed
Ġt ank
Ġs ending
ie ller
an lagen
ge funden
Ã¼ rokrat
st Ã¤tigkeit
ĠP ass
Ġg l
Ġg eschÃ¤
Ġre ich
ĠR est
Ġden jenigen
ĠG erechtigkeit
Ġso fern
Ġver sp
Ġver letzt
Ġer weisen
Ġer arbeiten
Ġle is
Ġle gt
Ġhab it
Ġres ist
Ġres umed
Ġaus z
ist ischer
ĠJ on
ĠEr gÃ¤nz
ĠO ff
ĠO ver
ĠO pp
Ġch ain
Ã¼n fte
Ġdurch zusetzen
Ġma cro
Ġra cial
Ġsp here
wo hn
Ġact ively
unkt ions
Ġeconom ically
hand eln
ĠGes am
Ġsee ing
ĠCon sequently
ĠInter vention
Ġsozial er
Ġsc re
Ġconf usion
Ġgesch Ã¼tzt
gest altung
ĠBei hilfe
ĠAll ow
Ġallow s
mÃ¤ÃŁ igen
Ġbed auern
Ġzweit ens
Ġadv ice
ĠDar auf
ĠPr ime
reg ional
Ġant ibiot
Ġkind s
ĠUN O
Ġdemokrat isch
ĠVerhand lungs
Ġentwick elten
wach sen
ĠtatsÃ¤ch lichen
Ġdist in
Ġopt ions
ĠGesch le
Ġhim self
ĠEntschlieÃŁungs antrÃ¤ge
Ġrest ore
Ġexam ination
Ġdest ru
ĠVers icherungs
ĠMenschenrechts verletzungen
Ġfacil ity
Ġprofit s
Ġabge geben
ĠBeteil igten
Ġinfl ation
Ġmob ile
wh ile
Ġreag iert
ĠAnder sson
ĠCan ad
Ġincin er
ĠRa uch
ĠSubsidiar itÃ¤tsprinzip
ĠendgÃ¼lt igen
Ġerschein en
Ġtrag ic
ĠMc Kenn
Ġinterin stitution
ĠMeth ode
Ġinterpret ation
ĠEvery one
Ġwelcom ed
Ġminister s
ĠMob ilitÃ¤t
renn ungsanlagen
Ġvorange gangenen
ĠBrenn er
Ġmechan ism
ĠInnov ation
Ġunre al
ĠsorgfÃ¤lt ig
Ġconven ience
Ġsympath y
Ġcorrupt ion
Ġworry ing
Ġintelle ct
E L
L Ã¤nder
W U
Y ROM
f assen
g a
g ut
h le
h ear
j ido
k rieg
n ischen
o ben
u ung
w ahlen
z iert
Ã ĸ
en ig
er te
it glie
Ġs en
or et
Ġan wenden
ge wogen
Ġbe weisen
ĠM ich
Ġg lÃ¼ck
icht ung
ĠD ad
ĠF uÃŁ
Ġzu gestimmt
ĠG iven
um Ã¤n
Ġso bald
ff ect
Ġver ank
ĠL o
ĠL ike
ĠIn fl
ĠZ un
ĠN ein
ĠN acht
Ġj o
Ġle bens
Ġvor n
ĠAn hÃ¶r
ste chnolog
Ġsh ares
ĠBe w
ĠAus wahl
ĠSch icks
ĠO ste
Ġman chmal
Ġhe aring
th e
ip her
ĠGe werk
Ġgen ehm
Ġper pet
Ġsub sequently
geb aut
trÃ¤ gt
Ġgew Ã¼n
Ġgew innen
Ġref us
Ġoff ices
Ġwel ches
Ġwel fare
Ġfest zustellen
Ġaut onom
Ġfo ot
Ġange hÃ¶ren
Ġconf ident
Ġprocess ing
Ġpresent ing
ĠVerbrauch ern
ĠHaushalts jahr
Ġregional er
Ġstrateg ies
Ġrecht lich
ĠDi am
Ġexist iert
Ġshort ly
bereich en
ĠWirtschafts wachstum
Ġmult ilater
Ġsure ly
ĠUr teil
Ġsignific ance
ĠstÃ¤rk sten
ĠInvest itions
ĠPre ise
ĠKÃ¶n nen
ĠRatsprÃ¤sident en
Ġderart igen
ĠAut om
Ġpa ar
ĠFern sehen
ĠbefÃ¼r worte
Ġexcept ions
Ġeinzu beziehen
ĠAugen blick
bet rie
Ġschool s
Ġdisapp ear
ĠFinn ish
Ġtransition al
ĠÃ¶kolog ischen
Ġvig il
ĠSa al
Ġdon ors
ĠKonflik te
Ġgradu ally
Ġpun ish
ĠKlar heit
Ġerfre ut
Ġausger ichtet
Ġcompar ison
ĠSoll te
tin u
Ġfu el
ĠNiederlan den
Ġbedau ere
ĠSchne ll
ĠBekannt lich
ĠMalm strÃ¶m
ĠSchen gen
Ġpropert y
Ġrechtfert igen
ĠMcKenn a
M itglie
a ill
f Ã¤ng
h et
ch arta
Ġw enden
Ġthe oret
re cken
an st
Ġin sp
Ġm iÃŁbrauch
Ġn ament
st ab
Ġv ast
as en
as tet
ĠE VP
ĠE jido
ĠS ind
ĠP en
ĠB la
ĠB itte
Ġre ve
sch uÃŁ
ĠT emp
ĠF Ã¼nf
Ġzu kommen
hr t
ĠV ier
ĠC ould
res h
ĠU C
os p
Ġver deut
ver trag
ft ig
ĠL og
ĠL ond
Ġdes wegen
ĠVer teilung
ess ions
ĠSt ahl
Ġab gesch
Ġsch ed
ĠAb bau
Ġpart ner
ĠEin heit
ĠEin kommen
Ġcomp lement
mer z
Ġcons c
he er
Ġkein em
Ġtra d
trÃ¤ glich
zeit raum
Ġeinz ufÃ¼hren
ĠRechts p
Ġ4 1
Ġdra fted
ĠBÃ¼rger innen
ĠSp ann
Ġele ction
Ġdeut schen
ĠVerbraucher schutz
Ġide olog
Ġword ing
Ġstatt gefunden
Ġbew iesen
reg ierungs
Ġstren ge
Ġpers u
ĠGemeinschafts recht
Ġprevious ly
Ġerinn ere
Ġpoll uter
Ġcoordin ated
ĠfÃ¼nf zehn
best and
ĠStaats an
ĠNicht regierungs
Ġexam ined
Ġph ase
Ġobserv ation
ĠAbsicht en
Ġformul iert
Ġbel g
Ġexclus ively
Ġherr schen
Ġstrict ly
Ġdeep ly
ĠKu hne
Ġexplan atory
Ġwid ely
Ġkontroll ieren
SP AR
Ġart icle
Ġkompliz iert
Ġstock s
Ġremov ed
ĠVerf asser
Ġflag s
ĠIC AO
Ġgriech ischen
ĠFreedom s
ĠangekÃ¼nd igt
ĠKohÃ¤s ion
ĠHindern isse
stream ing
sc ale
ĠOffen heit
ĠSteuerzahl er
nor men
ĠSÃ¼ den
sy ch
Ġelig ible
Ġwiederauf genommen
ĠUnregelmÃ¤ÃŁ igkeiten
ĠFragest unde
Ġsen ior
ĠDad urch
a ger
a ire
d ok
g h
g ie
p aÃŁt
r ik
Ġ essen
Ġd ur
ie den
Ġb ildet
Ġm ur
Ġm id
ar ies
ro Ã¶konom
Ġe mission
Ġp sych
Ġc ities
Ã¼ ckt
Ã¤ he
ra in
ĠP rop
ĠB us
ĠB rief
ĠD uff
ĠW WU
ĠF ischer
ct ober
ĠG ut
Ġwe g
de z
de ten
ver handlungen
ĠL einen
Ġas ide
ĠVer n
ĠVer t
ĠIn so
Ġex ter
Ġsu per
Ġvor sieht
Ġab gesehen
Ġres ident
ĠO ctober
Ġinter nen
Ġad j
Ġdurch schnitt
Ġgen der
Ġno on
ap ers
Ġges ichert
Ġweit aus
Ġexp and
ĠMenschen rechten
ov a
ĠAussch Ã¼sse
Ġar g
Ġagre es
Ġeinz ur
Ġho st
Ġ4 00
kon vention
Ġable hnen
Ġohne hin
Ġachie vement
ĠAbstimm ungs
ĠMon ten
Ġthank ing
Ġbegr Ã¼ndet
mÃ¤ÃŁ ige
ĠMa aten
Ġcre ates
ĠBesch rÃ¤n
Ġ15 2
Ġerst ens
Ġorganis ierten
rech ung
Ġpost s
ĠBel der
Ġbu y
Ġdoub ts
Ġterr ible
ĠAmsterdam er
ĠWieder herstellung
vious ly
Ġhumanit Ã¤re
ĠÃľberein kommens
Ġbre ite
Ġsex uellen
ĠPlen ars
ĠFern seh
struktur en
Ġattemp ts
Ġpurs ue
Ġine vit
Ġbi otechnolog
Ġsy mbol
ief st
ĠAng st
Ġzug ute
Ġanzu wenden
Ġflo od
Ġassoci ations
ĠerwÃ¤hn te
Ġeinger Ã¤umt
ĠVerk auf
Ġprospect s
ĠAnmerk ungen
Ġsinc er
feil er
Ġcollabor ation
Ġcategor ies
Ġtempor ary
Ġangewand t
ĠDr ittel
Ġlat est
Ġhyp oc
Ġkorr ig
ĠInkraft treten
ĠGetre ide
NG L
Ġzwangs lÃ¤ufig
ĠAutom ob
ĠInso fern
) ;
) ]
A G
P Ãĸ
R eg
b u
g igen
s es
z er
in ens
it es
it age
Ġs elten
ie g
re lated
Ġin qu
Ġin con
Ġe ast
ĠS icherung
ĠM ot
Ġein treten
ut ive
ĠB oth
ol ge
ĠT onnen
ĠT AC
ĠW erk
den k
ber g
ĠR ad
ere i
ĠG reat
ĠG uter
Ġge denkt
Ġver zeichnen
ĠL ob
op s
tr an
Ã¤n ge
sp h
Ġr ul
ĠSt raft
ck e
ĠAn gleich
enn ess
ĠEr inner
Ġdar gelegt
ĠO SPAR
Ġman che
Ġent tÃ¤us
Ġunter sch
Ġsa v
iz in
Ġmore over
Ġsp anischen
Ġwar ning
Ġup d
ĠKon vention
Ġind ication
Ġrec o
iti ere
Ġass ets
Ġbelie ves
Ġ4 6
Ġher gestellt
Ġange wendet
Ġsc ience
ĠDem okraten
ĠAu ge
stand s
Ġstehen de
Ġsoc ieties
Ġlook s
Ġaw ait
ĠAnsicht en
Ġresour ce
Ġcr ises
Ġcr imes
miss ible
ĠMinister rat
Ġstren g
Ġrefer endum
weis ung
ĠWort meld
Ġbegin nt
Ġple as
Ġcontain ing
Ġjeden falls
Ġpower ful
Ġschwier ige
Ġfair ly
ĠRaum s
Ġundert aking
ĠGipf els
best immungen
Ġamb ition
Ġeng age
Ġstark en
ĠArbeitspl atz
Ġfisher men
Ġhard ly
ĠLast en
IP O
Ġchar ges
ĠTabak erzeug
Ġcommer ce
Ġspee ches
Ġparagraph s
Ġeingere ichten
Ġgere gelt
zul Ã¤nglich
Ġlangfrist ige
ĠÃ¤hn lich
Ġintens iv
ĠStud ie
Ġoccur red
Ã¤st inens
Ġenfor ce
Ġqualifiz ierte
ĠhÃ¶her en
Ġzut iefst
Ġgeograph ical
Ġeinf ache
Ġfriend s
ĠGest atten
ĠLeist ungen
ĠIns besondere
spolit ischen
ĠCor rie
Ġcust om
ĠBesonder s
Ġforest ry
ĠGemeinschaftsin itiative
Ġreiter ate
ĠAkte ure
Ġunf air
ĠChin ese
ĠRechtsstaat lichkeit
chel on
Ġfeeding stuffs
Ġschrift lich
Ġrelie f
ĠBow e
Ġpie ce
Ġpict ure
respect ive
ĠRepresent ative
Ġintellect ual
ĠZun ahme
het or
ĠLond on
ĠNichtregierungs organisationen
ĠMonten eg
f tet
m ord
m ium
s ituation
z ard
Ġ X
Ġin folge
Ġo ben
Ġp an
Ġp ush
Ġan spruchs
Ã¼ ste
Ġder er
ĠE hre
Ġbe urteil
ĠA ction
Ġz itiere
em in
Ġre geln
ĠT enden
ter ung
ul ating
ĠK urs
Ġal co
Ġpro ud
Ġer setzt
Ġst able
kt ober
Ġde pr
ĠZ war
ĠRe v
ĠRe icht
Ġr en
Ġvor anz
Ġvor nehmen
we gung
Ġab geben
ĠO ktober
ĠEnt schÃ¤d
Ã¶r ung
ru ppe
ĠReg ime
ĠArbeit nehmern
Ġhin gegen
ĠUnter nehmer
arbeit s
Ġtra ged
ren e
ĠAuf sicht
Ġbereit et
Ġfe wer
ĠZusammen setzung
now n
ĠZeit en
Ġref use
Ġstr ug
Ġgemein schaftliche
Ġfest legen
inc in
Ġla ut
Ġ4 4
Ġher itage
les en
gehen de
ĠÃ¶ konom
klÃ¤r t
Ġ6 1
Ġwissen schaftliche
rÃ¼ ckt
Ġgest altet
Ġgest Ã¤rkt
Ġrat ifiz
Ġklar stellen
Ġcontro vers
ĠBes itz
ĠDar in
ĠZus ch
org ungs
zuf olge
ĠSitz ungen
Ġlack ing
Ġeig entlichen
ĠGesetz es
ĠGeschÃ¤fts verkehr
Ġevent ually
Ġevent uell
ĠGew icht
ott i
ĠOb viously
Ġvict im
ĠverfÃ¼ g
ĠKap az
Ġbroad cast
ko hol
ĠbeglÃ¼ckwÃ¼n sche
Ġobserv ed
Ġlok ale
Ġinspect ions
Ġexport s
Ġfunktion ieren
ĠStraÃŁ e
Ġunanim ity
ĠBÃ¶ ge
ĠVerteidigung spolitik
Ġdead line
ĠFÃ¼hr ung
ĠSach verstÃ¤nd
Ġem bargo
ĠgewÃ¤hl t
ĠBild ungs
Ġmoder nen
Ġarm ed
ĠMeth oden
ĠAlters versorgung
ĠbekrÃ¤ft igt
Ġut most
Ġhund reds
Ġbeunruh igt
Ġgeeigne te
Ġwrit ing
ĠExper ten
Ġkorre kt
aust ausch
ĠVorgehens weise
Ġlauf enden
finanz ierung
ĠBedÃ¼rf nisse
krit erien
Ġdebatt ieren
Ġdeter ior
Ġdefinit ely
Ġbarr iers
Ġappar ently
ĠKorrupt ion
Ġrestruct uring
ĠObject ive
ĠGewÃ¤hr leistung
ĠOpp osition
I S
a pe
h ow
j ekte
m od
m Ã¤cht
m Ã¤h
p ap
z err
Ġd rop
un ction
at lant
re ter
Ġb orn
Ġb islang
Ġan gesehen
ĠE chelon
ll es
ĠI SA
ig ern
ĠS ein
ĠP otential
Ġg ap
ĠT Ã¤tigkeiten
ĠW Ã¤l
ĠF YROM
il isierung
ĠK unden
id akis
Ġl enken
Ġfor ts
ĠH atz
iss es
Ġer mut
kt ions
ĠVer ordnungen
ĠN ahen
ĠRe f
Ġco vers
Ġwill kommen
ĠAn re
rÃ¤ gen
ĠBe wuÃŁtsein
Ġsch uld
gr Ã¶ÃŁ
ĠEr richtung
Ġent rep
ĠEin stimm
Ġcomm end
Ġconc ent
Ġbes itzen
Ġcont am
Ġte am
Ġsp lit
wer fen
Ġdec lare
Ġop enness
ĠGrund lagen
ĠAuf ent
ĠAuf hebung
Ġper mitted
Ġsome one
Ġwhere as
Ġho her
Ġfre uen
Ġwieder hole
Ġsystem atisch
Ġsc ore
ĠVerein igte
Ġ7 00
Ġgef aÃŁt
Ġlook ed
Ġcontrib uted
Ġverschieden er
Ġrev olution
Ġtalk ed
Ġperson nel
ĠAust ausch
Ġdire cted
Ġpriv ile
Ġaufge worfen
ĠEx istenz
Ġakzept abel
ĠVerhand lung
ĠschlieÃŁ e
serv ativen
ĠFischere ip
Ġguarantee ing
ĠUr spr
ĠgefÃ¤hr lichen
ĠgefÃ¤hr liche
Ġbisher igen
Ġwirksam en
ĠTats achen
Ġsett lement
ĠWirk samkeit
Ã¼rz t
Ġdurchge fÃ¼hrten
Ġrad ik
fre und
Ġakt ive
Ġbevor stehenden
ĠDritt staaten
Ġcred it
ĠMÃ¤n gel
Ġvorsch lÃ¤gt
Ġpen al
Ġmob ility
Ġunge fÃ¤hr
ĠGesamt heit
ĠZustÃ¤nd igkeiten
ungsan trÃ¤ge
ĠPrÃ¼ f
schlossen heit
jÃ¤hr ige
Ġreserv ations
Ġautom atisch
Ġreflect s
oler anz
Ġmultinational s
Ġrelig ious
ival ent
laus el
ĠEv ans
Ġspezif ischen
ĠgrÃ¼nd lich
ĠVerl ust
Ġschwerwiegen de
Ġenor men
ĠKonflik ten
Ġprison ers
Ġlaunch ed
Ġbureauc ratic
Ġceil ings
Ġnieder lÃ¤nd
Ġstor ms
ĠAtlant ic
ĠTer min
Ġverring ern
Ġdiesel ben
ĠEinschrÃ¤n kung
ĠRel ig
Ġlengt h
Ġchem ical
auftrag ten
ĠSchott land
ĠEritre a
Ġentfern t
ĠRegard ing
ĠGipfelt reffen
Ãľ ber
ĠHatz idakis
Ġentrep rene
b il
l ife
r as
w are
Ġd rug
Ġw a
Ġs enken
re ibt
Ġm Ã¼sse
Ġf ert
te ien
Ġan halten
us sen
ĠM ult
ĠP ak
ĠP ensions
ĠB N
ĠB ab
ĠT ro
ĠT isch
ĠW Ã¼n
ĠW arn
ĠW andel
ĠF ach
ve y
Ġzu erst
ĠK n
ĠK airo
Ġk ur
Ġfor ests
ot al
end es
end ung
Ġr ies
ĠÃ¼ber prÃ¼ft
ĠÃ¼ber mittelt
ĠWe chsel
ad es
ist ent
ĠPro sec
ĠEr d
ĠEr fordern
ĠVor feld
ĠAr g
Ġinter ven
Ġfa ith
Ġbei zutragen
Ġch osen
Ġdis par
Ġdis reg
Ġsa uber
Ġob liegt
pt ions
he ber
Ġwenn gleich
Ġbes itzt
stit ute
ĠFor st
ĠDer zeit
Ġsub s
Ġdam aging
lle d
ific ations
Ġregard less
str ichen
act ions
Ġlie fern
ĠHin weise
ĠHin sichtlich
Ġverb oten
Ġbez ogen
Ġcitizens hip
Ġtr ib
Ġgest attet
Ġrat ified
Ġ8 5
Ġexpress ly
Ġ% ,
Ġrepresent ation
Ġwhole hear
ĠAt om
ĠVerantwort lichen
ichte ten
Ġnegoti ate
Ġpay ing
Ġless ons
ccess ion
Ġremain ing
ĠEx ternal
ĠWer den
ĠHo he
Ġentscheiden der
chan ismus
ĠRÃ¼ck kehr
Ġshow ing
Ġenerg ies
02 7
Ġangenommen en
ĠText es
ĠFr isten
Ġconv ict
best Ã¤nde
ĠBas ken
pid em
Ġbeg Ã¼nst
Ġprakt ische
ĠDialog s
Ġcomb ined
Ġverein bart
Ġunterb reitet
Ġvol lem
ĠvollstÃ¤nd ige
Ġauthor ised
Ġjeweil s
Ġalloc ation
ĠJugend lichen
Ġefficient ly
ĠWissenschaft ler
ĠGo eb
ari at
ĠChrist ian
Ġdispla ced
ĠSozialdem okratischen
Ġceil ing
Ġsla ughter
Ġcigaret tes
ĠBetrugs bekÃ¤mpfung
Ġapprox imately
Ġfift h
Ġschwed ischen
Ġstattf indet
Ġtaxpay ers
Ġprivat isation
ĠlÃ¤ uft
Ġerleicht ern
spart ner
ĠFlÃ¼chtling en
Ġscrutin y
ĠPalest in
Ġsurround ing
Ġtrace ability
ĠSchicks al
Ġinevit ably
ĠGuter res
ĠGoeb bels
I K
O X
a ure
a ccession
d isc
i as
i ated
n etz
o ff
Ġd ump
Ġw ind
Ġw Ã¤hlen
it ze
Ġs urf
re gen
re formen
Ġf roh
Ġf resh
ro c
ge gangen
ge fÃ¼hrt
st rÃ¤
om peten
Ġbe ibe
ĠA pp
ĠS urely
ĠS ME
Ġz Ã¤hlen
Ġein nehmen
ĠP ek
ut hern
ĠB au
el k
ĠD el
ĠT on
ĠF our
ĠF unktions
ĠK ranken
et ter
et ition
ĠR ub
ĠR asse
ĠC airo
um b
iss ion
Ġso uthern
Ġver wir
Ġpro c
Ġer sta
Ġst olz
pp ed
sp ort
Ġle hnt
Ġall mÃ¤h
ĠWe ll
Ġaus Ã¼ben
ĠSch wÃ¤
ĠEr st
ĠEr mitt
ĠO ri
ĠAb s
ĠEnt schlossenheit
Ġus ual
Ġste igen
ĠKon zentr
Ġnew sp
ĠRat ifizierung
ĠUm gang
ĠArt icles
ĠAussch Ã¼ssen
Ġstr onger
Ġgemein schaft
Ġwhere by
Ġrem ove
Ġsee ks
Ġcertain ty
Ġ4 3
Ġfre mden
schie bung
ĠAl ternative
ĠDa von
Ġzwe if
Ġsc andal
scheid et
Ġausge geben
ĠÃĸ k
Ġtrans actions
Ġ8 00
Ġbetr ieben
Ġ7 5
ĠHaushalts linie
gleich en
Ġbed aure
Ġir respective
Ġide al
ĠGen uÃŁ
hol en
Ġbro ader
Ġregul ated
Ġdire kten
ĠIhr es
fÃ¤h igen
rech er
Ġvo ice
Ġopen ed
Ġperiod s
Ġnor m
ĠUN M
Ġdet aill
Ġrele v
Ġlea der
ĠHo ff
Ġmak roÃ¶konom
Ġharmon ised
Ġdist ingu
ĠAmer icans
ĠSchul en
Ġbeit rÃ¤gt
ĠGew Ã¤hrung
best immung
Ġmer it
ĠAut os
Ġtradition ellen
ĠPost dienste
uff icient
ĠFlug zeuge
Ġinst all
Ġcut s
ĠhÃ¶ch sten
ĠpersÃ¶n lichen
leit et
ĠIde en
Ġbi omet
ĠverstÃ¤r kte
Ġconstit utes
ĠKÃ¶nigreich s
ĠvernÃ¼nft ige
jahr es
ĠPflicht en
ĠPlan ung
Ġobtain ed
zub ringen
wesen heit
Ġdiv ided
Ġred und
sper iode
Ġdead lines
Ġpenalt ies
ĠKaka o
ĠWicht igkeit
Ġwelcom es
ĠmÃ¼nd lichen
ĠLat in
ĠgrenzÃ¼berschreit enden
Ġdynam ic
Ġkonstrukt iven
ĠEle kt
Ġrigor ous
ĠDro gen
Ġbeseit igen
lÃ¶s ung
Ġobser vers
ĠWelthandels organisation
gewogen heit
Ġsincer ely
ĠMonteneg ro
ĠFischereip olitik
Ġkur ze
ĠProsec utor
ĠOri ent
4 6
5 5
T C
a cc
b it
m iÃŁbrauch
p one
t schaften
z ig
er er
ch tern
Ġa gencies
an cies
Ġb udgets
Ġin hab
Ġf ate
Ġf ixed
ro hung
Ġc ol
ge fÃ¼hl
Ġun fortun
Ã¤ be
Ġbe wirken
ll s
ĠM us
ĠM assen
ĠP f
ĠP os
ic kt
ĠB auern
ĠT ausende
ĠF as
ĠF akten
Ġk Ã¼mm
ĠH al
Ġwir ken
ĠEurop ar
ier huber
Ġver pflicht
Ġver mitteln
tr ie
ĠRe fer
ĠSt immen
ĠSt unde
ne ten
ck heer
ĠAn geb
Ġy outh
ĠÃ¼ber mitteln
Ġres erve
art h
Ġaus drÃ¼ck
ĠBe wirtschaftung
me chanismen
ĠAus gleich
our ismus
ĠSch ierhuber
Ġinter im
Ġqu arter
Ġunter suchen
ĠEin kommens
Ġcomp osition
Ġcan ce
Ġweit em
ag anda
Ã¤hr ungs
fÃ¼hr te
Ġmo ved
Ġhier bei
Ġsol id
ĠSe hr
gel Ã¶st
ĠCon ciliation
ĠStr ategien
piel t
gesch wind
ĠRahmen bedingungen
ĠGeb rauch
Ġgemeinsam er
Ġsc en
ĠSp rach
Ã¤lt igung
ĠMon day
Ġneg ativ
Ġsect ions
Ã¼b ung
ho od
Ġerforder liche
Ġeing eschrÃ¤nkt
ierte l
Ġkonk reter
ĠDurch fÃ¼hrungs
Ġregul ate
Ġerst es
mÃ¶ gen
ĠErgeb nissen
Ġpost pone
Ġoffen ces
Ġsuccess fully
Ġinn eren
Ġcaus ing
ĠPre m
gÃ¤n zen
ĠAuÃŁen handel
Ġelect oral
ĠAnt isemit
Ġemploy ed
Ġtele ph
Ġkomp lex
Ġscient ists
ĠGeneral sekretÃ¤r
Ġcred ible
Pro gram
frei heiten
Ġgenet ic
Ġdut ies
Ġweak ness
ĠSy ri
ĠÃ¼berw achen
Ġlog ical
Ġdeclar ations
Ġproport ional
Ġautom atically
wÃ¤ss ern
Ġdepend s
ĠRats vorsitz
Ġerweit ert
Ġmultinational en
ĠErwÃ¤ gung
gesetz gebung
ĠBetrie bs
ĠVermittlungs verfahren
ĠEv alu
ĠUnions bÃ¼rger
Ġschwerwiegen den
ĠVerzÃ¶ gerungen
Ġstabil isation
Ġrespekt ieren
ĠfÃ¼ hlen
Ġnahe zu
ĠVerst Ã¤rkung
ĠUnivers al
Ġsw ift
Ġregel mÃ¤ÃŁig
Ġexpert ise
kre is
Ġjun ior
Ġmargin al
ĠnatÃ¼r lichen
ĠEben en
ĠbeeintrÃ¤cht igt
Ġgeleis tete
Ġanstre ben
ĠKenn zeichnung
Ġunannehm bar
verwalt ung
Ġunn Ã¶t
ĠYor k
ĠJon ckheer
Ġtrad itions
bu ild
ĠArg umente
Ġdisreg ard
Ġunfortun ate
1 1
A n
P l
j ing
k Ã¶rper
m ack
n dez
p ut
z a
z le
Ġ Ã¶rt
Ġt ritt
Ġw od
Ġs ale
at ures
Ġb attle
Ġb Ã¼rokrat
Ġo ber
ro at
Ġp hilosoph
Ġh ous
Ġn orthern
Ġc ere
ge kommen
ĠA ug
ĠS met
ĠM erk
ĠD iox
sch er
ĠT ime
ĠW ille
Ġzu gÃ¤nglich
ĠK opf
Ã¶ d
ĠR umÃ¤n
Ġl ic
Ġl ift
ab geordne
Ġwe isen
Ġge prÃ¤
de bat
Ġver f
Ġst ay
Ġst ance
ill ing
la den
ĠRe ad
ak en
Ġr ufen
Ġsu itable
ck s
ah nen
ungs maÃŁnahmen
ad ox
ĠBe g
ien te
ĠAus gewogenheit
ĠGr Ã¼nd
ĠkÃ¶n ne
Ġdurch setzen
ĠCouncil s
Ġges p
ĠArbeit geber
erv en
Ġdec ade
auf gaben
chn et
Ġbereit en
Ġrec all
Ġref erences
isten cy
Ġeinz iges
Ġmarket ing
Ġro ute
kehr t
Ġsc rapie
Ġown ers
Ġbring s
Ġrespect ive
zus agen
ĠÃĸ ffnung
ĠBei jing
Ġgut er
Ġ% .
Ġpres erv
Ġmin im
Ġfurther more
Ġstrateg ische
Ġdeut liche
ĠBeschÃ¤ft igten
Ġnegoti ation
ĠAuff or
Ġkurz en
weg ungen
Ġbo ost
Ġerste llt
ĠRÃ¼ck verfolg
ĠDienst stellen
per iode
Ġdisk rimin
Ġcivil ian
Ġfound ed
ĠOp fern
ĠEnergie trÃ¤ger
ĠKap itel
Ġbeant ragen
ĠEng land
Ġunemp loyed
ĠMenschenrechts konvention
Ġroad s
Ġ198 9
Ġvere hrten
Ġgerecht fertigt
Ġeinbe ziehen
Ġdr ink
Ġstra ight
ĠÃ¤hn liche
Ġkl Ã¤ren
Ġsum mer
Ġbein halten
Ġgarant iert
ĠBeweis last
Ġqualifiz ierter
ĠBÃ¼ rokrat
Ġdeliver ed
Ġeinf achen
Ġveran laÃŁ
ĠMold ova
ĠMand at
Ġappell iere
Ġdisag ree
ĠKind es
Ġitalien ischen
Ġhil f
ĠPerspekt ive
ĠwÃ¼nsch enswert
Ġaccompan ied
ĠFutter mittel
Ġirregular ities
Ġspect rum
Ġdoll ar
ĠGD P
Ġinakzept abel
ĠSchm id
Ġkonstitution elle
ĠParlamentar ier
ĠAnhÃ¶r ung
ĠAutomob il
zard ous
ĠBN FL
Ġwholehear tedly
Ġbeibe halten
ĠPrem ier
Ġwod urch
ĠAug ust
ĠRÃ¼ckverfolg barkeit
3 5
4 8
g ert
k ommission
l ern
o hlen
p la
r t
r ust
r ison
w ass
x te
en ne
Ġt ang
Ġw age
Ġw atch
Ġb ott
Ġm ere
Ġf esten
ar z
ro ugh
Ġp flanz
ge halt
Ġun ions
Ġder iv
Ġbe zeichnen
ĠI ts
ĠS lo
ĠS icher
Ġz un
ĠM od
Ġein fÃ¼hren
ĠP olit
im p
omm od
ĠT a
ĠT reffen
ĠT ests
ĠW allstrÃ¶m
ul ted
Ġzu stande
hr ter
Ġl esen
ere quis
ĠG on
Ġge p
Ġver sto
Ġer setzen
Ġer gÃ¤nzen
Ġst ring
ĠL Ã¤r
ĠVer hÃ¼tung
ĠVer schiebung
ow er
ow enig
Ġle hnen
ĠAn schluÃŁ
00 7
00 9
Ġab uses
ĠMr d
ĠFra hm
Ġum gehen
ĠJ Ã¶r
be ziehungen
be werber
ĠVor wand
Ġman ip
ĠAb fÃ¤llen
th ly
ud ing
ĠMit verb
Ġapp arent
Ġdis m
Ġsa w
ub ringen
ĠGe fÃ¼hl
Ġpr erequis
Ġpre jud
sicht ig
ri ot
teil s
ĠeuropÃ¤ isches
Ġdec re
lÃ¤ uf
Ġtra ding
Ġper ipher
Ġfe ature
Ġkon tinu
ĠGemein den
gel ungen
rei ze
ater ie
Ġass ent
Ġfar ms
ĠKo oper
kehr en
ĠGemeinschaft spolitik
ĠGemeinschaft sebene
ĠAl tern
ĠNach dem
Ġange wiesen
Ġausge hend
Ġworld wide
ĠFre qu
Ġ8 1
Ġke en
Ġaccept ing
Ġaccept ance
Ġvoll er
01 2
Ġ15 0
Ġresult ing
Ġdefin ing
recht liche
zÃ¼ g
verstÃ¤nd nis
reg ion
ĠAuff assungen
ĠDemokrat ischen
ĠDemokrat isierung
ĠWer ten
Ġlea ving
ĠVertre tung
Ġaddress ing
Ġplay ing
ĠNor den
ĠZahl ungen
Ġmonitor ed
ĠWor k
ĠMil itÃ¤r
Ġwahr en
Ġitem s
ĠfÃ¶r der
Ġbuild ings
Ġencour aged
oss ier
Ġsignificant ly
ĠLeg itim
ĠbefÃ¼r wortet
ĠNatur a
Ġsatisf action
Ġexcept ional
ĠRede beit
Ġhistor ical
Ġrefuge e
ĠKont akt
ĠVorsitz ende
Ġverk nÃ¼p
Ġbi olog
Ġtim ber
ĠKommun ikations
ĠVermitt lung
Ġmiss ing
ĠGesprÃ¤ ch
Ġcampaign s
Ġsk ills
Ġwithdra wn
ĠSuch e
ĠmilitÃ¤r ische
ĠFriday s
Ġerweit ern
ĠInst anz
Ġangeb lich
Ġtest ing
Ġbehaup tet
Ġvig or
ĠWicht ig
ungsbe f
Ġadvoc ate
Ġcontract s
Ġdestro yed
ĠSozialdem okraten
Ġoffiz iell
Ġuneing eschrÃ¤n
ĠBerat ungen
Ġmonopol y
ĠverstÃ¤nd lich
Ġgewiss er
Vertrag s
Ġpill ar
Ġenvis aged
Ġbedauer lich
ĠEinwander er
ĠKategor ie
ĠBil anz
Ġunderm ine
Ġexceed ed
ĠImm un
Ġunzureich end
verein bar
Ġgenie ÃŁen
Ġpercent age
ĠWÃ¤hl er
ĠSchuldener laÃŁ
betrie be
ĠSpann ungen
ĠAngleich ung
ĠErinner ung
Ġsav ings
Ġreco very
ĠEinstimm igkeit
ĠAntisemit ismus
ĠJÃ¶r g
Ġkontinu ier
d den
f on
i enste
y c
en k
en ue
Ġa p
Ġa gency
is ms
Ġw ild
Ġs ake
Ġo l
Ġm igration
al a
Ġf it
ar ten
ro us
le bung
Ġp ain
Ġh es
Ġbe denken
ur r
ig ert
ÃŁ t
ĠS ten
ĠS erv
ĠP ie
ĠB rie
el ung
ĠD ort
ĠT otal
ĠW IPO
ĠF lag
ĠF leisch
ĠF PÃĸ
il ot
ĠK e
Ġau d
ĠV e
Ġfor tz
ĠC F
ĠH ence
Ġge ist
Ġge plan
Ġge fragt
Ġal t
Ġcon j
Ġcon ce
Ġver he
ver fahrens
Ġst ammen
ĠRe c
if iable
igen ce
Ġsh ock
uch e
ĠSch iene
ĠPro v
be zogen
ĠVor gÃ¤n
Ġdar legen
ĠO TC
se ktors
ige m
Ġad mitted
Ġad vert
Ġen gl
Ġus ers
Ġnach voll
Ġch ap
ĠGr enze
ĠGr Ã¶ÃŁe
Ġzw Ã¶l
Ġimp rison
Ġra ising
Ġbec ame
ri um
Ġacc used
Ġacc ommod
ĠGrund freiheiten
Ġfe as
ĠSo fort
schlieÃŁ t
ĠSe a
ĠÃľber tragung
Ġmark ed
Ġar ise
weit e
ĠRechts ausschuÃŁ
ĠCon serv
fÃ¼ llung
gesch rieben
Ġput s
zus prechen
Ġausge fÃ¼hrt
Ġ200 5
Ġ6 00
ĠHand lungen
Ġpres ident
Ġprom oted
ĠAm t
Ġinvest ors
ĠgrÃ¶ÃŁ ter
ĠGen au
Ġequ ivalent
ĠSozial isten
ĠGleich behandlung
ĠLebens qualitÃ¤t
Ġimm unity
ĠSol ange
ĠVerwalt ungen
rÃ¼ck en
Ġpop ulations
fehl en
ĠschlieÃŁ t
Ġwenig sten
Ġsubsid y
ĠUr heber
Ġklein er
ĠgefÃ¤hr den
ode x
ĠInvest ment
ĠKl amt
Ġconsequ ence
ĠAuÃŁen minister
Ġemploy ers
Ġprakt ischen
Ġbor ne
ĠunabhÃ¤ng ige
Ġstrengthen ed
ĠIsrael i
ĠpersÃ¶n liche
Ġaccep ts
ĠstÃ¤nd igen
ĠGriechen lands
ĠVerÃ¤nder ung
Ġelektron ische
polit ische
ĠGesprÃ¤ chen
ĠGerichtshof s
ĠRand zio
Ġadvant ages
ĠBan otti
ĠMont ag
Ġdisapp oint
Ġausgewogen e
ĠErwÃ¤ gungen
ĠGest altung
ĠMensch heit
Ġreinfor ce
ĠRoman o
Ġrespekt iert
Ġbureauc racy
ĠgrenzÃ¼berschreit ende
Ġappoint ments
Ġmonopol ies
ĠDefiz ite
mil ch
Ġvorrang ig
ĠFlor enz
Ġey e
ĠProf ess
Ġdeliber ate
Ġzer o
vertre ter
ĠBeste uerung
Ġuncertain ty
ĠDet ail
Ġforese e
Ġunab ding
ĠNon etheless
Ġleis tet
ĠErgÃ¤nz ung
ĠFuÃŁ ball
incin eration
Ġforts etzen
ĠSME s
ĠRub rik
ĠUNM IK
ĠHoff nungen
Pl ath
kÃ¶rper schaften
zle z
ĠBÃ¼rokrat ie
ĠGon zlez
ĠKooper ations
4 4
M ed
b re
b indung
m ed
m ischung
p read
r ies
is y
Ġw iden
Ġw ides
it ar
Ġs we
re bt
Ġb iÃŁ
Ġin fr
Ġm other
Ġh y
Ġan erkennen
Ġc ow
Ġbe weist
ĠA part
ĠM ess
Ġein seit
icht bar
ĠB is
ĠF ollow
et ten
Ġwh ite
Ġl ernen
ĠC ulture
ĠC openhagen
Ġon going
Ġge legt
Ġge klÃ¤rt
Ġso ught
os te
ver ordnung
ver teilung
ĠIn ner
Ġde le
Ġde pendent
la gt
ĠN orthern
ĠRe cyc
ann ual
Ġsu gar
Ġsu dden
ĠAn hang
00 5
sen z
Ġum gehend
Ġaus lÃ¤nd
ĠBe zeichnung
enn ium
be k
be vÃ¶lk
ĠO l
ĠBer ger
ĠAr me
ĠmÃ¶ gen
Ġinter ne
ĠParlament en
Ġunter liegen
Ġunter strichen
Ġus ually
ĠGe fÃ¤ng
sta ats
Ġpr ime
Ġpr inzip
Ġber Ã¼hrt
Ġra ises
ĠComm un
rat s
Ġout set
ĠJahr zehn
ĠKon text
Ġwo fÃ¼r
Ġhier zu
Ġjust ification
ĠVerb rech
Ġdisc over
Ġrel iable
weit en
Ã¤l schung
ĠRechts sicherheit
hin der
pro zeÃŁ
Ġ4 7
Ġevery body
Ġspec ified
Ġhope fully
hil f
ĠHer an
Ġatt ain
Ġproced ural
ĠFre und
ĠStand punkte
ĠHe ads
Ġbed Ã¼r
ĠzurÃ¼ck kommen
Ġbesonder er
ichte te
Ġnegoti ated
ĠLebens mitteln
ĠQu ite
Ġglobal e
Ġvi able
Ġcomple ted
Ġrele ased
Ġbo ok
Ġcongratul ations
Ġeig entliche
ĠMitte laus
Ġqual it
Ġhon est
hab t
Ġparticip ating
Ġbeit ritts
Ġwirksam er
ĠKultur en
ĠKÃ¶n n
Ġernst hafte
Ġresul ted
Ġemphas ised
ĠKommissions vorschlag
Ġgener ations
ĠfÃ¼hr te
Ġgee ignet
aut aire
Ġumfassen der
Ġschein en
ĠzusÃ¤tz lich
ĠJu den
Ġbeteil igten
pre ise
Ġinteress ant
ĠstÃ¤nd ige
ĠGed anke
Ġbl ind
Ġfl ights
Ġgetroffen en
Ġkonzentr iert
ĠProtokoll s
Ġverd ienen
Ġbilater alen
Ġregret t
AL E
ĠÃ¼berw inden
Ġlangfrist igen
Ġempf ohlen
ĠendgÃ¼lt ige
Ġextra ordin
Ġamt ierenden
Ġcontradict ion
ĠMor o
Ġattach ed
ĠRoman ia
Ã¶der al
ĠmÃ¼nd liche
Ġpostpon ement
Ġexpens e
Ġdahin gehend
Ġstip ulated
ĠerÃ¶r tern
ĠerÃ¶r tert
ĠHeimat land
ĠzukÃ¼nft igen
Ġwarm ly
ĠnÃ¼tz lich
Ġincent ives
ĠGeneration en
ĠKompeten z
Ġslight ly
Ġjournal ists
ĠErnen nung
ĠÃĦuÃŁ erungen
ĠParitÃ¤t ischen
dring lich
chmark ing
ĠGebiets kÃ¶rperschaften
Ġmur der
Ġarg ue
ĠveranlaÃŁ t
Ġversto ÃŁen
Ġwides pread
6 0
8 0
d o
k urs
m ach
n elle
r iment
s man
Ġt end
Ġt urning
it a
at iver
or ten
re ie
Ġm un
Ġm essen
Ġf ahren
Ġp lÃ¤
Ġun it
Ã¼ hm
st ad
Ġder jenigen
Ġder selben
om es
ĠE CO
ĠE missionen
Ġbe low
Ġbe trÃ¤gt
ĠI T
ĠS pecial
ĠM OX
ra ge
ic ated
Ġg ather
ol met
ĠD iff
sch ul
ĠT V
ul ative
Ġzu weilen
ĠK Ã¶l
ĠK openhagen
Ġk olle
ĠC olog
ab in
ly ss
ein amer
Ġal tern
Ġcon fin
Ġver zÃ¶
and t
Ġer faÃŁt
ĠL etz
Ġdes per
ĠVer d
ĠIn halts
ĠZ uf
ust er
ĠN uclear
ib ly
Ġvor getragen
ĠAn reize
ah lung
ĠÃ¼ber fl
ges te
ers Ã¶n
ĠJ ack
ĠAus sicht
ĠAus bau
eren z
Ġinter regional
ĠMit rov
ĠEin er
Ġch ines
gra de
Ġcan cel
Ġste el
mer ken
Ġzw anzig
Ġber uf
Ġges pielt
Ġout standing
ĠMitgliedsta ates
geb ieten
Ġkon front
ĠSe ix
Ġref used
Ġro ll
ĠSte igerung
Ġprogram ming
ĠCon stitutional
fÃ¼ gt
Ġlegisl ativen
bens owenig
gehen den
Ġsc ar
ĠZiel setzung
Ġprev ented
ĠBet roffen
Ġexpress ing
ĠWelt bank
Ġredu zieren
Ġprom ise
Ġwes tern
Ġinvest ieren
Ġfol glich
Ġhelp ed
ĠAt t
Ġhealth y
Ġdefin ieren
Ġadv anced
ĠAnd re
wÃ¤r ts
ĠEx p
Ġben utzt
Ġant isemit
Ġdet riment
ĠFrei handels
ĠSub st
Ġcongratul ating
Ġpers ec
02 1
ĠFrieden sprozeÃŁ
Ġwenig stens
ĠGesetz geb
ĠtatsÃ¤ch liche
Ġharmon ise
mb el
Ġbeit reten
Ġfour th
Ġexperien ced
Ġstrengt h
ĠAss oc
Ġverst Ã¤rkten
ĠEntschlieÃŁungs entwurf
Ġbeg un
Ġsuggest ion
Ġturn ed
ĠzustÃ¤nd ige
Ġeinzu gehen
ĠvollstÃ¤nd igen
ĠSchluÃŁfol gerung
dienst leistungen
ĠPrÃ¤ senz
ĠNie mand
spe ed
ĠAsyl bewerber
produ ktion
Ġgering er
zul assen
Ġintens ive
ĠjÃ¤hr lichen
ĠVerhalten s
ĠKu ck
ĠEinzel heiten
Ġdise ases
ush k
ĠVerletz ungen
Ġzunehmen d
Ġverm ieden
ĠFÃ¼hr ungs
Ġgesetz lichen
Ġinfrastruct ures
Ġverteid igt
ĠÃ¶sterreich ische
ĠVermittlungs ausschuÃŁ
ĠerlÃ¤ut ert
ĠKonsequ enz
ĠSchwer punkt
ĠMold au
Ġelimin ate
Ġenor me
ĠHoch geschwind
Ġgradu al
Ġarr ived
Ġdeleg ates
Ġpassen gers
Ġcigaret te
Ġausreichen de
Ġangest reb
program me
Ġhorizont al
ĠMitentscheid ung
ĠStÃ¤d te
ĠdiesbezÃ¼ glichen
ĠÃ¤lter en
Ġrepeated ly
ĠZul assung
ĠEP P
Ġtown s
ĠFreis etzung
Ġanz up
Ġforg otten
ĠProte ction
ĠdrÃ¤n gen
ĠED F
Ġbeob achten
abot age
Ġbeeinfl ussen
Ġdestru ction
ĠInfl ation
Ġalco hol
ĠPak istan
Ġfremden feind
ĠHal b
ĠMerk mal
ĠPremier minister
ĠImmun itÃ¤t
Med iterranean
ĠbiÃŁ chen
ĠKÃ¶l n
ĠColog ne
ĠSeix as
b em
b aus
f lÃ¤chen
h ard
i ques
l ore
o e
o ured
r ufen
u pp
u led
on ing
Ġth res
un ately
it arian
Ġs itzen
Ġm ater
Ġf isc
Ġf ruit
ar g
ro lle
le ute
Ġp al
Ġh osp
Ġc ert
Ġun m
Ã¤ uf
Ġbe geg
Ġbe endet
ll ari
ĠA f
ĠA ir
ĠA lyss
ĠS ake
ĠS pr
ĠS ommer
ĠS ahara
ĠM Ã¤rkten
ĠP oms
ĠB on
ĠB ul
el led
ĠW ur
ĠK irk
Ġl if
ĠV ision
Ġk ennt
Ġden oun
ĠC uba
ver antwortung
ver zerr
and rak
Ġer laub
Ġer lauben
ĠL icht
ĠL inken
ĠVer urteilung
her steller
ĠN az
ĠN Ã¤he
Ġse ll
ib re
Ġr und
ĠAn bet
ĠÃ¼ber legen
ĠÃ¼ber denken
ĠÃ¼ber ras
ĠWe il
ad ays
rÃ¤ um
ĠBe im
ĠBe vor
ĠBe ziehung
ze g
ist ical
ĠJ o
Ġsch enken
ĠSch ad
ĠEr fÃ¼llung
ĠVor der
ĠVor bild
Ġhe im
ĠEin leitung
Ġbet one
Ġob s
Ġdurch gesetzt
Ġgen erous
mer kt
Ġcons istency
Ġpre text
Ã¼ck e
reich enden
Ġihr erseits
Ġwo zu
ĠFor um
Ġtra in
Ã¤nder ungen
lan der
ĠGrund prinzip
xt ourismus
Ġfact o
ĠRicht er
Ġprov ider
Ġins ufficient
Ġdeb ts
ĠAs ia
wie weit
Ġar gu
Ġrep orted
ĠBed rohung
isk rimin
Ġgreat ly
Ġbelie f
Ġweiter entwick
Ġ5 2
Ġ5 4
Ġ5 5
ĠWh o
Ġger inge
Ġgu il
Ġgleich ermaÃŁen
Ġverb le
Ġrespect ing
ĠProgram mp
ĠBet reiber
ĠArbeits weise
ĠArbeits losen
Ġpres erve
man agement
Ġgeb unden
Ġkomm un
ĠdÃ¼r ften
Ġdel icate
Ġcommun autaire
ep ing
ĠProdu zenten
Ġerst mals
Ġexist ieren
Ġje glich
Ġaufge treten
Ġmed ical
Ġmot iv
ĠauÃŁer gewÃ¶hn
Ġlea ves
Ã¤d t
ĠRÃ¼ck Ã¼ber
ĠRÃ¼ck gang
Ġcover ing
app ropri
ĠCo x
ĠMin en
Ġgener ated
Ġderart iger
ĠAut o
Ġsuggest s
Ġsuggest ions
Ġilleg alen
Ġverl Ã¤ng
Ġcho ices
ĠNatur katastrop
Ġoffer ed
Ġprepar ations
ij k
Ġune qu
Ġkrit ischen
Ġinspect ors
ĠKommissionsmitglie der
Ġdev ast
Ġschl icht
ĠKonflikt s
ĠEl end
Ġquant ity
Ġdiv ision
ĠEinsch Ã¤tzung
Ġgek enn
ĠendgÃ¼lt ig
opoul ou
Ġattack s
ĠgewÃ¤hl ten
Ġmanufactur er
Ġemb ark
Ġspezif ische
ĠPrivat isierung
Ġparlamentar ische
Ġdon or
Ġtro ub
Ġgegenseit igen
ĠDafÃ¼r halten
Ġzerst Ã¶rt
ĠTun is
ĠBeob achter
Ġenh ance
Ġhund red
Ġmeant ime
Ġlob by
Ġdisag re
ĠerÃ¶ff net
Ġtre mend
Ġlandwirtschaft lichen
Ġberecht igt
Ġabstain ed
ĠEffe ktivitÃ¤t
Ġster ben
ĠAusnahmere gelung
Ġphys ical
ĠFÃ¤h igkeit
fun k
ĠBi otechnolog
Ġaccur ate
Ġkons ult
ĠAktionspl Ã¤ne
ĠDisziplinar verfahren
Ġinterinstitution ellen
Ġsched uled
ĠTAC IS
Ġcontrovers ial
ĠWÃ¤l der
Ãľber ein
Ġdispar ities
Ġsubs cr
ĠBasken land
Ġsurf ace
ĠPek ing
elk orn
ĠRumÃ¤n ien
ĠAuffor derung
Ġhilf reich
ĠLÃ¤r mbel
ĠFollow ing
ĠMittelaus stattung
ĠKuck elkorn
Ġfisc al
llari ou
ĠAlyss andrak
ĠSake llariou
ĠKirk h
ĠAnbet racht
ĠAlyssandrak is
C art
b as
d auer
k ap
k ultur
m eth
p oint
s inn
u um
w a
Ġ +
er ium
Ġt wel
on ym
is ory
re aching
ion age
Ġm g
ar ning
Ġh ung
Ġan sehen
Ġun ique
ĠI M
ed s
ir ing
ĠS ens
Ġein halten
ĠP aket
ic ts
ĠB ere
ĠB ranche
Ġre ception
ĠD ritten
sch Ã¤den
ĠK ur
ĠK red
Ã¶ ffentlich
ĠR und
Ġl iter
ĠG ol
Ġfor um
ĠC AP
ĠH ar
ĠH ekt
Ġge treten
Ġal ter
Ġso zusagen
Ġcon stra
Ġver Ã¤ndern
Ġver schieben
ver lÃ¤ss
Ġauf bauen
ĠVer hinderung
Ġde z
tr ans
ĠRe ise
Ġle arning
ens werte
qu ately
Ġco ex
Ġr hetor
ĠThe ir
Ġvor zusch
Ġvor gelegte
Ġab sch
Ġres ort
Ġaus sehen
Ġat mosph
ĠBe fore
our se
Ġcom pe
be auftragten
ĠO pt
Ġen abling
Ġunter sucht
oun ting
Ġnach denken
ass oni
Ġgro wn
oc ation
ĠReg ulierung
Ġcons ulted
Ġber ichten
ĠEs sen
Ġbes agt
Ġhin ein
Ġdec ades
Ġnational ity
Ġsub sequent
ĠZusammen halts
ine a
Ġproblem atisch
Ġbest and
Ġar ran
Ġar ising
ĠgroÃŁ zÃ¼g
ĠBed ienste
Ġsocial ly
sel be
Ġfest halten
Ġher ange
stimm t
ĠKommiss are
Ġverb ieten
ĠHa up
ĠThem as
ĠBerichterstatter n
ĠFinanz mittel
Ġstand ing
ĠAll es
ĠBet rÃ¼
ĠArbeits bedingungen
ĠHaushalts ausschuÃŁ
Ġmin ute
Ġschw ere
Ġfavour able
ĠInformation stechnolog
Ġapproach es
Ġrev ised
ĠProdu kten
Ġfinanz iell
Ġbew aff
fach ung
Ġeinge hend
ĠInd ustr
ĠTur mes
Ġorganis ieren
Ġdemocrat ically
ĠFol glich
Ġmot or
Ġrece iving
ĠUS D
ĠZwe i
Ġreach ing
Ġexc use
02 5
ĠBeschÃ¤ftigung spolitik
ĠFr assoni
Ġwahr nehmen
ĠSchul milch
Ġcoordin ate
Ġbedeut ende
Ġfran k
ĠProt ocol
Ġsett le
ĠNahrungs mitteln
ĠAnt ibiot
Ġlange m
Ġilleg ale
ĠBeschluÃŁ fÃ¤higkeit
Ġerheb lichen
Ġseek ers
Ġaccording ly
wÃ¼rd igen
ĠFlug zeug
Ġindic ate
Ġprepar atory
Ġlegitim acy
Ġrecon sider
Ġauthor isation
Ġkrit isch
Ġmax im
Ġnachhalt ig
Ġce ase
Ġzentral en
amm t
Ġunanim ous
Ġbill igen
Ġdiv ide
Ġred is
Ġapprec iation
Ġeffizient er
Ġradio active
Ġenfor cement
ĠUmst Ã¤nde
ynam ik
Ġthous and
Ġkompliz ierten
ĠEnts orgung
Ġemb ra
ĠGrenz werte
Ġwilling ness
ĠBetrie be
ĠMc Cart
ĠAuss agen
Ġprior it
Ġbank s
ĠMitglieds lÃ¤nder
Ġhol ds
ĠInfrastruktur en
Ġgewalt ige
Ġumfang reiche
Ġexpens ive
ĠVorbe halte
Ġeingeb rachten
Ġenh anced
ĠRo h
Ġoccup ied
Ġappell ieren
Ġfle et
ĠReal isierung
ĠMÃ¼ ll
ĠStÃ¤d ten
Ġgestr igen
ĠdiesbezÃ¼ gliche
Ġlar ger
ĠAssozi ierungs
Ġgetr enn
ĠergÃ¤nz t
Ġvertre te
meid ung
ĠzÃ¼g ig
Ġkommer zie
Ġenth us
flag gen
ĠBew Ã¤ltigung
Mitglie d
Ġbiotechnolog y
Ġpleas ure
ĠEntschÃ¤d igung
Ġstrug gle
ĠWarn hin
Ġinhab it
Ġconj unction
ĠRecyc ling
bevÃ¶lk erung
Ġbeitritts willigen
Ġmun icip
ĠÃ¼berfl Ã¼ss
ĠJack son
ĠMitrov ica
ĠHochgeschwind igkeits
Ġhosp ital
ĠVorder grund
Ġguil ty
ĠKirkh ope
E D
E r
L einen
a est
a ue
b l
d in
e ast
f Ã¶rderung
h el
h ouse
i ary
k rank
r uf
on str
Ġs ight
Ġs yn
Ġs ums
re if
re form
an y
Ġin her
Ġf em
Ġf and
Ġh art
Ġh orr
Ġn uk
Ġn omin
Ġun um
Ġun ity
Ã¼ hen
Ġv ent
Ġv ague
as il
ĠI ll
ur m
Ġis rael
ĠS ant
ĠS TO
ĠM org
ra ct
Ġre verse
sch ten
sch iÃ¶
ul ous
ĠF a
ĠF il
ĠF ette
Ġzu zustimmen
ĠK ein
ĠK lage
Ã¶ tz
Ġden ied
urop as
ĠC ertain
ĠC eder
Ġge lie
Ġge forder
Ġal to
Ġver fahren
Ġver spro
Ġpro l
Ġer such
Ġauf er
Ġauf richt
Ġst ri
Ġst Ã¤dt
kt ive
ĠVer g
ĠVer he
Ġnot ably
ĠIn spekt
la van
ĠN ik
iv oc
ĠPar agraph
ens ive
ant ini
ĠSt reichung
Ġvor ank
ah e
ungs weise
Ġaus wÃ¤rt
ad ing
olit ion
ord nungs
ĠAus Ã¼bung
ĠEr ne
ĠEr stellung
Ġman geln
Ġman gelt
Ġent zieht
Ġad verse
ast er
Ġsa ve
Ġbet ra
Ġpos sibilities
zu arbeiten
Ġbes orgnis
Ġte ilt
iert es
wick lung
Ġwar s
ĠKon servativen
erst att
ign ed
fahr zeuge
ĠLe hren
ĠSe xtourismus
iti ativen
Ġgew onnen
Ġgew Ã¶hn
acht ungs
Ġass um
Ġrem ed
Ġfre ut
Ġresol ving
Ġsystem atic
Ġsystem atically
ĠRahmen s
Ġincre ases
Ġfo ught
Ġgleich berecht
ĠIm port
Ġbez ahl
ĠMon opol
Ġdiffer ently
ĠAfr ikas
Ġwissen schaft
Ġtrans fers
ĠArbeits gruppe
Ġ8 7
Ġwish ed
ĠGer ichte
Ġeing esch
ĠMa at
Ġide ology
ĠMan agement
Ġschw eren
ĠÃ¼b lichen
Ġbew ahren
gl ing
ĠDi kt
ĠDar aus
mÃ¶ gliche
reg ierung
Ġoffen e
ĠFort setzung
Ġtransport ation
Ġben utzen
Ġmed izin
Ġgenau er
ĠJahres bericht
Ġdemokrat ischer
ĠStellung nahmen
hÃ¶ re
Ġpass ing
ĠheiÃŁ en
ĠBeding ung
Ġklein eren
ĠgefÃ¤hr licher
ĠSitzung speriode
ĠAktion sprogramm
Ġexperien ces
ĠKl Ã¤r
Ġconsequ ently
ĠGrundrechte charta
Ġbit ter
ĠStaats ange
ĠStaats bÃ¼rger
ĠbefÃ¼r chten
ĠVÃ¶lk ern
ĠDirect orate
Ġtour ist
tell te
ĠDokument en
Ġirgend wel
Ġrecon c
ĠQuest ions
ĠSc rapie
Ġverk aufen
Ġtack led
ĠVerteid igungs
ĠsÃ¤mt lichen
Ġreject ion
ĠJugend liche
ĠStellen wert
Ġinvestig ations
Ġung erecht
ĠBeschl Ã¼ssen
Ġeffiz iente
Ġsent ence
Ġweltweit en
ĠgeÃ¤uÃŁ erten
ĠÃ¼berein stimmen
Ġwach sam
Ġvess el
ĠAlban ian
ĠSw iss
Ġeinsch lÃ¤
Ġhinzu weisen
Ġterritor ies
Ġcoast al
greif ende
Ġprem ature
Ġwitness ed
Ġeinger ichtet
ĠErn Ã¤hrungs
ĠBerat ung
Ġcust oms
ĠJe ws
Ġverbind lich
Ġdiplom atic
ĠerÃ¶ff nen
Ġnachzu denken
Ġabziel en
Ġchann els
yr ight
Ġausgest attet
ĠFrÃ¼ h
Ġabandon ed
Ġdiox in
Ġkn app
Ġsil ence
ĠVerursacher prinzip
ĠOste uropa
Ġvigil ant
Ġreve al
gh an
sph ase
ĠTenden z
ĠRev olution
ĠAnre iz
Ġverpflicht en
ĠEvalu ierung
ĠSten zel
ĠzwÃ¶l f
ĠVerbrech ens
ĠAssoc iation
ĠAf ghan
ĠBul gar
ĠMorg antini
schiÃ¶ ld
ĠCeder schiÃ¶ld
Ġalto gether
Ġverspro chen
ĠVerhe ugen
Ġbesorgnis er
8 7
B C
C R
F IN
N ord
d own
h Ã¤nd
k lar
m d
m t
o le
u v
u ck
w ider
w ater
Ġd roht
in en
Ġa ward
Ġb eschÃ¤
Ġm ine
al ent
Ġf irms
ar r
ar ious
ar io
le id
Ġan gehen
Ġan lÃ¤ÃŁlich
Ġan stelle
Ġc atastrop
st on
Ġbe greifen
Ġbe werten
ĠA ra
ĠS er
ĠS up
ĠS low
Ġein rÃ¤umen
ĠP oss
im ine
ĠB re
ĠB IP
ĠD olmet
am es
ĠT amil
ĠT imor
Ã¶ te
Ã¶ ste
Ã¼r zen
Ġda vor
Ġden y
ĠG AP
ĠC ong
ab kommens
ĠU EN
Ġim bal
os tet
Ġver wirk
Ġer suchen
Ġauf gerufen
Ġas pir
ĠUn glÃ¼ck
Ġdes irable
ĠVer ts
ĠVer sp
Ġde te
for schung
ant opoulou
ĠSt Ã¼ck
und s
we igen
Ġsh ape
Ġres idence
Ġsch Ã¶n
be wirtschaftung
be lebung
ĠmÃ¶ ge
Ġad ap
Ã¤t igung
Ġapp alling
chen schaft
Ġgen es
Ġgen eration
Ġber Ã¼hm
Ġges onder
ag s
Ġ199 1
ĠUnter lagen
ren nen
ĠGrund zÃ¼ge
Ġdam al
Ġgew id
hÃ¶r ige
hÃ¶r igkeit
Ġemp fehlen
Ġho hem
Ġ4 9
Ġwieder her
Ġtechn ischer
ĠAl ter
ĠAl kohol
Ġfo oting
Ġange paÃŁt
Ġlast ing
Ġorgan ise
ĠFinanz mÃ¤rkte
ĠQ ue
rÃ¤n gt
Ġsoc io
Ġhelp ful
ĠBest ands
ĠBest reben
Ġpl Ã¶tz
spr inzip
ĠQu Ã¤st
Ġorganis ierte
fÃ¤h ige
old aten
ĠBel astung
Ġaufge hoben
Ġopen ly
Ġ20 20
Ġmed ic
ĠGrÃ¼n buch
ĠWith in
Ġviol ated
Ġversch oben
ĠZahl ungs
ĠStabil isierungs
Ġjoint ly
que llen
Ġbedeut enden
Ġgee hrten
ĠDirect or
ĠPost dienst
Ġangesprochen en
Ġfocus ed
ĠDritt lÃ¤nder
Ġeinzu halten
Ġverantwort ungs
Ġcritic isms
Ġpension ers
ĠWider stand
Ġmovement s
ĠGar ca
Ġkrit isiert
Ġnormal en
Ġthreat s
Ġdev oted
Ġrestrict ive
Ġweak en
Ġung laub
Ġprof ound
ĠPatent amt
Ġxenophob ic
zul Ã¤ss
Ġign ore
gere ien
ĠIraq i
Ġpursu ed
Ġworth y
Ġerneuer barer
Ġbar bar
Ġfear s
Ġfrei will
Ġcondu cted
Ġtransfer red
ĠUrs ache
ĠtÃ¼rk ische
Ġdauer haften
ĠTrotz dem
ĠprÃ¤z ise
Ġsurpr ise
Ġrech nen
ĠVerlauf e
ĠOber grenze
Ġincident s
ĠDringlichkeit s
ĠKategor ien
ĠFlor a
Ġey es
Ġsold iers
ĠTerror ismus
ĠDav ies
ĠTelekommun ikations
ĠSum me
ĠBewerber lÃ¤ndern
ĠAuseinander setzung
Ġimper ative
ĠkohÃ¤r ent
ĠdÃ¤n ischen
Ġhabit ats
Ġverank ert
ĠDiam antopoulou
ĠmiÃŁbrauch t
dok ument
ĠenttÃ¤us cht
Ġtraged y
Ġfert ig
ĠKonzentr ation
debat te
Ġgep lant
Ġkonfront iert
ĠProgrammp lan
Ġunequ ivoc
Ġcompe te
Ġfem ale
ĠSTO P
ĠPoss elt
Ġverwirk lichen
9 6
G A
b ie
b end
g ipfel
k lag
l am
m ail
n ot
p ack
r ich
r isik
u is
w icht
Ġt ort
is tern
an teil
Ġb reiten
Ġf oss
Ġe uropa
Ġe pidem
le ase
Ġp ir
Ġp ure
Ġc ity
st Ã¤nde
as ion
ĠE EF
ĠE AG
ĠE din
Ġbe wirkt
ir men
ĠS ar
ĠS port
Ġz Ã¤hlt
ĠM utter
ĠM ission
Ġein bringen
ĠP hÃ¤n
ĠP ersÃ¶n
ut age
sch te
ĠT ar
ĠT reib
ĠW ann
ĠK urd
ĠK Ã¼rzung
ĠR indern
Ġal beit
ort ion
Ġcon temp
Ġver handeln
Ġer a
ach te
Ġst Ã¼tzt
kt iven
ĠL am
ĠL isten
Ġha zardous
ĠUn zulÃ¤nglich
ĠVer folgung
ĠVer stoÃŁ
Ġnot ion
Ġdas selbe
ĠZ in
Ġj ugoslaw
ament ally
Ġse arch
sp flicht
if ies
qu oten
ay ann
ĠSt rom
we ises
ĠAn schein
Ġab zustimmen
me ister
ĠAus land
ĠPro fit
gr Ã¼nden
keit en
ĠBer g
Ġinter governmental
age ments
ĠEin es
ĠEin igkeit
Ġnach kommen
Ġapp la
imm te
ass ing
rag m
ĠReg ul
he il
Ġsp ring
Ġimport s
lieÃŁ t
Ġhin der
Ġhin nehmbar
utz utage
ĠDe fence
Ġdec line
ĠMenschen handels
ĠÃľber sch
ĠÃľber legung
Ã¤ch er
Ġover look
Ġstat ute
Ġfre ely
Ġger ingen
ĠUmwelt ausschuÃŁ
Ġser b
ĠVerein fachung
Ã¶ÃŁ en
Ġ200 4
Ġmain streaming
Ġbesch rieben
ĠHaushalts plan
Ġmin or
Ġ9 6
01 7
Ġsens it
Ġcolle ction
Ġprogress ive
ĠMarkt wirtschaft
Ġhervor ra
Ġdemocrat isation
stehen de
Ġzusammen ge
Ġtechnolog ischen
Ġavail ability
Ġinn oc
bereit en
Ġdisp ute
ĠStabil isierung
Ġharmon ising
ĠFischere ise
Ġenter ing
Ġeuro s
ĠerklÃ¤r te
Ġfore cast
ĠKl uft
Ġdep th
verb ot
burg h
ĠGre mien
Ġamb igu
Ġgener ate
Ã¼rz ungen
Ġappe ared
Ġclar ified
of ar
Ġblo od
ĠArmut s
ĠInde pendent
Ġbl ame
Ġtack ling
Ġdr iving
Ġeffekt ive
strÃ¶ me
Ġleicht er
Ġerk annt
Ġperspect ives
Ġdisapp ointed
Ġprefer red
ĠTele fon
Ġrepla ced
Ġradio akt
Ġneighbour s
Ġleaders hip
ĠSach ver
ĠMittelmeer raum
Ġmill ennium
Ġmitt ler
Ġamt ierende
Ġcontradict ions
ĠPap ayann
schw emm
ĠRoth ley
greif enden
Ġsurpr ised
IT ES
stat us
Ġdrast ic
ĠverÃ¤nder ten
ĠDefiz it
Ġterror ism
Ġpermit s
Ġmulti annual
ĠnatÃ¼r liche
ĠSom it
Ġfrequ ently
utr ition
ĠBeruf s
Ġperform ance
ĠAbÃ¤nder ungsantrÃ¤ge
ĠLegisl ativ
ĠÃ¼bersch ritten
ĠsÃ¼d lichen
ĠLie be
Ġestim ates
Ġdict ators
ĠVier tens
Ġabgesch afft
ĠStaatsan wal
zer ne
Ġincon s
ĠPensions fonds
disc rimin
Ġstring ent
Ġprerequis ite
ĠECO FIN
Ġerlaub t
Ġgekenn zeichnet
ĠSens ib
ĠBetrÃ¼ gereien
Ġadap ted
ĠEdin burgh
ĠPapayann akis
- -
3 2
6 7
H er
g al
h abil
i ro
m ung
m Ã¤rkten
Ġt enden
Ġa qu
on sten
on tain
un a
Ġs lick
an agement
an bau
an forderungen
Ġh it
Ġn utz
Ġan hand
Ġun con
Ġto ugh
ĠE TA
Ġbe gan
Ġbe gangen
Ġbe herr
ĠA ct
ĠA hern
ĠM ag
ĠP lease
ic ious
eit e
el a
Ġre mit
am an
ĠT EN
ĠW ald
ĠF ontain
Ġzu zu
Ã¼r ger
ĠG ibt
ot te
ot um
ab len
de cken
os sen
Ġver handelt
men gen
ĠfÃ¼r chte
Ġpro active
Ġer ho
Ġer heben
Ġer sucht
ach lÃ¤ss
Ġauf zubauen
ĠUn fall
ĠUn recht
ĠVer arbeit
Ġj ahre
iv ate
Ġse as
sp unkte
Ġex emp
if est
Ġco alition
ib ungs
Ġr id
Ġvor sehen
ĠAn bau
ĠAn nex
Ġsich eren
Ġab olition
ges prÃ¤
art igen
rÃ¤ ume
ĠAus fÃ¼hrung
ĠSch iffen
ĠEr de
all o
ĠAr z
ass es
uss ions
ag ers
au ert
ĠUm sch
iÃŁ t
iÃŁ en
Ġbereit zustellen
ĠLe id
Ġjust it
Ġprov en
Ġhuman ity
iger weise
zie le
zie he
halt igkeit
ĠBed auern
Ġwhere ver
Ġho hes
ĠwÃ¼r d
Ġfund amentally
ĠRechts ausschusses
Ġfest geschrieben
pro bleme
Ġfre ight
Ġher zustellen
Ġ5 1
Ġens hr
Ġevery where
Ġange hÃ¶rt
Ġgu ard
ĠZiel s
ĠThem atik
Ġcountry side
ĠOr te
Ġorgan ising
Ġobject ions
Ã¶ÃŁ t
ĠY our
ekt or
rÃ¼ ch
Ġ8 8
mÃ¤ÃŁ igkeit
ĠArtik els
spro blem
Ġinvest iert
eld et
Ġir ak
Ġide ological
ĠHil fen
Ġcolle ct
Ġrev enue
ĠGleich wohl
Ġbew Ã¤hr
ĠLebens bedingungen
ĠInd ones
ĠFe hlen
Ġans onsten
Ġcult ures
Ġdemand ed
ĠWort laut
Ġvorgesehen e
Ġern ste
Ġschne llen
Ġmult ip
wach ung
Ġdisp utes
Ġstress es
Ġunterschied licher
ize i
Ġvern achlÃ¤ss
ĠGre mium
Ġerwar te
Ġeng aged
Ġlow est
Ġexam ining
ĠBeitritts lÃ¤ndern
Ġincor rect
Ġhistor ischen
ĠSÃ¼d oste
Ġinteress ante
ĠSchiff s
Ġli able
Ã¶ff nung
ĠSc ient
part ner
ĠIde ologie
Ġ198 6
Ġkrit isieren
ĠIniti ativ
Ġconstit uen
lÃ¤ÃŁ t
ĠBeam te
ĠvernÃ¼nft igen
ĠKar as
Ġjur istischen
ĠÃľberwach ungs
spar teien
Ġsum mar
entscheid ungen
ĠgrundsÃ¤tz liche
ĠBl ut
Ġconsist ently
Ġbig gest
Ġbr id
Ġwidersp richt
ĠLeist ung
Ġmittel s
Ġlisten ed
ĠbetrÃ¤cht lich
ĠFlugh afen
ĠEnd es
Ġtro ops
ĠRu iz
regel ungen
Ġexem ptions
Ġvirt ually
ĠTechn ik
Ġdiscip line
Ġarr ive
Ġras che
Ġumfang reich
Ġvorzu gehen
Ġloss es
Ġverring ert
Ġconsolid ation
Ġirgendein er
Ġwarn ings
ĠOther wise
Ġinterpre ted
iÃ¶ se
Ġhervorragen de
Mittel meer
ĠGelt ungsbereich
Ġsel ber
Christ ian
ĠzulÃ¤ss ig
Ġstell te
Ġresist ance
ĠCanad ian
ĠLo hn
Ġrefus al
Ġfoot ball
ĠLog ik
Ġbelg ischen
ĠBus qu
Ġadj ourn
Ġinqu iry
ĠFour thly
ĠÃ¶rt lichen
ĠgeprÃ¤ gt
Ġtang ible
ĠFrequ enz
ĠProfess or
Ġthres hold
Ġdisagre ement
Ġtremend ous
ĠBiotechnolog ie
Ġcoex istence
Ġatmosph ere
Ġmunicip al
aest ors
ĠKlÃ¤r ung
ĠFontain e
1 0
8 4
F reie
O R
S teuer
a ktiv
b Ã¼
d ung
e iden
f el
g Ã¤ng
h ielt
l s
l assungen
p us
p assen
p lus
r iz
v ar
y ren
Ġ iron
Ġs ite
Ġs enten
Ġs ales
ie gel
re in
an cy
Ġin put
Ġe arn
Ġp ertain
Ġn a
Ġan x
Ġc ategory
ge wÃ¤sser
Ġun ited
Ã¤ glich
Ġder eg
Ġv ary
as pe
ĠI V
ĠA lavan
ed e
ig ter
ĠM organ
ic ter
ĠB ern
ĠB Ã¶r
ĠB BC
Ġre la
Ġre vers
Ġre ibungs
omm t
ĠD ine
sch ritt
am ount
ĠT ieren
ĠW en
ĠW esen
ĠF u
Ġzu zulassen
ĠK h
ĠK au
Ġl iv
ĠG as
ĠH ern
ĠEurop es
Ġge ein
de ckung
Ġcon front
Ġver halten
Ġver schaffen
ver hÃ¤lt
Ġpro mpt
Ġer b
Ġer bringen
Ġauf s
Ġauf rechter
Ġst ory
Ġst ruck
Ġst reichen
Ġdes ired
ĠIn spe
op ath
ĠZ erst
pp ich
ĠSt ich
ne iden
00 2
sen den
ungs antrag
Ġsh aring
Ġres tra
Ġum ge
ad a
ad ed
ĠBe haupt
ĠBe urteilung
Ġdo or
Ġsch Ã¶
ĠAus fuhr
ĠPro van
be ob
ĠEr lÃ¤
ĠO pport
ĠO ost
Ġreg istr
Ġman aging
ĠAb gesehen
Ġdi am
ĠEnt schuld
ip t
Ġpart ial
Ġbeen den
ĠEin nahmen
ast ungen
Ġcomp r
Ġcomp lied
ĠGe wÃ¤sser
ru ppen
Ġgro ss
Ġgen e
Ġfin ish
Ġra re
ĠCoun try
Ġno body
ag nen
Ġexp los
ri re
Ġhin nehmen
ĠKon kur
ĠDe ll
Ġdec ent
lÃ¤ che
ĠUm struktur
ĠUm feld
Ġfe els
Ġfe atures
ĠVerb rennungsanlagen
ĠCh air
Ġins ofar
Ġrec ip
Ġrec ital
Ġrec ourse
Ġprodu zieren
Ġviel es
Ã¤ch sten
leg te
Ġstr icter
ĠRechts akt
feren ces
gesch ritten
Ġpar adox
Ġpresent s
ĠHa vel
Ġgesch rieben
Ġcar go
wÃ¤ hl
Ġbek lagen
Ġredu ctions
Ġ7 1
ĠMa f
ĠMa es
gew ichts
Ġir respon
ĠBest Ã¤nde
ĠBest Ã¤tigung
Ġplan et
ĠOrgan en
Ġintegr iert
Ġfood stuffs
Ġeinge gangenen
ĠStandpunkt s
Ġresearch ers
irm a
ĠMed ina
Ġrecommend ed
Ġanswer ed
Ġdist ance
ĠWasser politik
ĠstÃ¤rk eren
ĠGew iÃŁ
Ġcontra st
amb od
Ġfall ing
Ġvier zehn
stell ern
Ġvis ible
kontro llen
Ġgrundlegen d
Ġgrundlegen der
ĠZugang s
zeichne ten
Ġindic ates
ĠGroÃŁ teil
ĠRede zeit
Ġhighl ights
Ġcut ting
ĠVersch le
Ġerfolg reichen
Ġerfolg reiche
Ġeinzu leiten
Ġverantwort ungsbe
Ġine quality
Ġleben den
Ġeffekt iver
Ġangemessen en
krÃ¤ ft
Ġexplo it
rep ublik
Ġade quately
Ġconcentr ation
Ġehr lich
Ġzunehmen de
Ġverste ht
Ã¤st igung
Ġlik ed
inter essen
Ġrelig ion
ĠÃ¶kolog ische
ĠgewÃ¤hl te
Ġumwelt freund
Ġangeb oten
ĠBetrie b
ĠInsel n
Ġmittel frist
Ġmoder ne
Ġamer ikanische
ĠÃ¶ffentlich er
Ġconvention al
ĠKrÃ¤ ften
Ġvorbe halt
Ġsucceed ed
ĠKrank heiten
Ġappoint ment
Ġpostpon ed
ĠBesonder heiten
Ġeingeb unden
Ġbir ds
Ġfront iers
Ġdiesel be
Ġadjust ments
Ġcorrespon ding
Ġbenachteil igten
Ġpreced ent
Ġdepart ments
ĠKompeten zen
Ġacknowled ged
Ġlar gest
Ġsad ly
Ġderog ations
ĠTerritor ium
ĠmaÃŁ geb
Ġexplicit ly
Ġwest lichen
Ġmitge teilt
Ġscre ening
Ġjo ining
ĠGewerk schaften
Ġconfident ial
ĠBeschrÃ¤n kungen
Ġrul ing
ĠWortmeld ung
ĠForst wirtschaft
ĠPalestin ian
ĠFunktions weise
ĠallmÃ¤h lich
ĠElekt riz
Ġcere als
Ġderiv atives
Ġverhe eren
ĠMoro cco
Ġantisemit ism
ushk its
hard t
Ġjeglich er
ĠNaturkatastrop hen
Ġtroub le
Ġreconc ile
ĠAfghan istan
Ġgewid met
ĠQuÃ¤st oren
ĠLam y
ĠBusqu in
ĠAlavan os
ĠDine h
ĠOost lander
D I
d ro
d rÃ¼ckt
g red
k ul
k lausel
m el
n isses
t ausend
w agen
z Ã¤hl
Ġ ere
er ed
er ted
in ent
Ġt abling
Ġa ffair
Ġw in
Ġw ake
it at
Ġs ah
Ġs cept
at um
ie th
re ise
an o
an spruch
Ġb ov
Ġin nen
Ġin wieweit
Ġin gred
Ġm em
Ġm erg
Ġe he
Ġp f
Ġh alt
Ġh undert
Ġan b
Ġan stehenden
Ġc ommission
Ã¼ mer
st ritten
Ġbe ziehe
us ted
Ġis lands
ĠS im
ĠS oc
ĠS int
ĠP yren
Ġg Ã¼lt
ĠB our
ĠB ou
Ġre de
ĠD u
ĠD ynamik
ĠF ift
ĠK och
et hn
ĠR en
ĠR ande
Ġl ingu
ĠV o
ĠG ott
ĠC as
ab stimmung
um in
Ġge ziel
Ġge zahlt
Ġge habt
Ġim stande
de term
ĠTh ys
Ġver letz
men ge
Ġer stellen
Ġauf hÃ¶ren
Ġst oÃŁen
Ġst ammt
ĠL uc
Ġnot ification
Ġnot iced
ĠIn c
pp ing
ind lichen
Ġse ason
ĠRe aktionen
ĠRe chenschaft
Ġex ert
Ġmit unter
Ġco fin
ant ast
Ġsu it
ne z
we ich
ĠAn wesenheit
hal opath
ug ung
ug nis
Ġab schlieÃŁen
schaft s
ĠJ ac
llen ce
ĠSch lag
ĠEr fassung
ĠEuropÃ¤ isches
ĠBer eits
se e
Ġman agers
Ġent ziehen
Ġent ails
Ġwor ried
Ġinter ference
Ġfa ster
Ġqu oted
oun ter
ĠSie d
ĠGr Ã¶n
imm er
Ã¶r d
Ã¶r r
Ġgen aue
Ġzw ingen
Ġfin nischen
Ġma il
oll y
ag og
stit utes
Ġout lined
ĠKon f
Ġind isp
Ġany where
arbeit eten
lan ges
Ġsol ved
Ġfe ier
geb Ã¼hren
ite te
Ġinv ited
ans ion
Ġclear er
ĠÃľber arbeitung
stitution en
Ġrep erc
Ġthink s
Ġinternational ly
Ġend ors
ĠSte u
ĠRechts akte
ĠCon f
ac a
ac ted
vor haben
Ġtechn isch
Ġtechn iques
Ġconf used
ĠHer z
Ġausge zeichnet
ĠY ear
ĠFre unde
Ġbek annten
ĠHaushalts mittel
ĠAm b
Ġgeb rauch
Ġgeb lieben
rÃ¤n ken
ĠgrÃ¶ÃŁ t
Ġdeut licher
Ġcontrib utes
Ġsecond ary
Ġseiner zeit
ĠGen f
Ġpl ural
vorsch rift
ĠÃ¼b lich
Ġdefin itive
Ġintegr al
Ġcor re
Ġcor por
mÃ¶ glichen
ĠMehr zahl
Ġstren gen
Ġaufge fÃ¼hrt
Ġaufge griffen
Ġbef ried
weis ungen
Ġexce llence
Ġann ually
war ten
net ze
Ġfun ctions
Ġjeder zeit
Ġpoll ut
Ġident ical
Ġdist ur
ĠAmer ika
ĠAmer ikaner
Ġsur plus
ĠSchul z
Ġevent uelle
Ġlab els
Ġethn ischer
Ġzahl reich
Ġret ire
ĠPart nern
oss iers
Ġprakt iz
Ġconne cted
Ġakt iven
Ġakt uelle
Ġdelay ed
ĠNatur ally
Ġfort gesetzt
ĠAnst ieg
ĠVersch Ã¤r
ĠRichtlinien vorschlag
Ġproduc er
Ġmis under
ĠKont akte
ĠWider sprÃ¼che
ĠKommun al
Ġfal sche
spe zif
ĠKar aman
ĠMiÃŁ achtung
Ġexerc ised
ĠSy r
ĠProz esse
ĠProjekt s
Ġangemessen er
ĠjÃ¼ng ste
ĠVerhalten sk
Ġquant itative
Ġvorher igen
Ġpursu ing
Ġbad ly
Ġinitial ly
Ġsubstantial ly
Ġausgewogen en
ĠSh ould
Ġverurs achen
Ġinterv entions
Ġtarge ted
Ġamt ierender
Ġehemal ige
Ġcompeten ces
Ġdram atic
Ġremov al
Ġreinfor ced
Ġlay ing
ĠbetrÃ¤cht lichen
Ġdauer hafte
Ġwitness ing
ĠRu he
ĠLat einamer
Ġgewalt igen
ĠordnungsgemÃ¤ÃŁ e
ĠGu inea
Ġras chen
Ġvorzu bereiten
ĠbekrÃ¤ft igen
ipp ed
besch luÃŁ
orient ierten
ĠPo etter
Ġzweck mÃ¤ÃŁig
Ġwom it
Ġvereinbar ten
ĠEinschrÃ¤n kungen
ĠAg ain
Ġabziel t
ĠSow eit
ĠGeneraldire ktion
Ġstraf rechtlichen
Ġhervorragen den
Ġkil led
Ġabol ish
ĠDav id
Ġobligator ische
mosph Ã¤re
ĠtÃ¤ glich
ĠTelekommun ikation
Ġintoler able
ĠBosn ien
ĠBosn ia
Ġincomp atible
atal og
Ġbann ed
Ġkr imine
Ġcompon ents
ĠgewÃ¼n scht
ĠRechtsp rechung
Ġessen ce
ĠRef uge
Ġschuld ig
ĠAufent halts
ĠKn Ã¶rr
Ġdump ing
ĠOrient ierung
build ing
Ġdism ant
Ġap olog
ĠVe ter
Ġadvert ising
Ġfeas ible
ĠBetroffen en
Ġtwel ve
ĠMcCart hy
Ġgelie fert
Ġvorank ommen
ĠThys sen
Ġreperc ussions
ĠKaraman ou
ĠPoetter ing
1 5
4 1
5 7
L T
O L
b ett
f utter
g uer
i leg
i Ã¶s
k y
k ompeten
l Ã¶sen
p ed
p ol
p est
r id
r ungen
r unde
r isy
w eren
w affen
in itiative
Ġt agt
at form
ie wed
or i
an ad
Ġin haft
Ġin stances
Ġm ism
al itÃ¤ten
Ġf asc
ar chie
ro ad
Ġp ragm
ent ur
Ġh ect
Ġn ic
Ġn utrition
Ġn Ã¶rd
Ġan merken
Ġc ast
ge walt
Ġun us
Ġun best
Ġun just
Ġv et
ĠE qual
ĠE lles
Ġand ern
us ionen
Ġz it
Ġz ielt
ĠM ollar
Ġein her
Ġein iges
ĠP ack
ĠP hil
ĠB eren
ĠB lock
ĠD al
am s
ĠT it
ĠT itel
ĠW ests
ul ates
ĠF un
ĠF ang
ĠF ront
gen huber
ĠR eding
Ġk atastrop
Ġk anad
ĠG A
ab l
Ġge Ã¤nder
de ck
ĠTh ors
Ġver lag
Ġauf halten
Ġst ating
Ġst range
ĠL Ã¶
ĠIn zwischen
ĠN ap
ĠN ull
sp rach
Ġex ac
ens e
ĠSt urm
00 8
Ġab seh
igen de
ĠFra mework
ad em
ĠBe zÃ¼glich
ĠBe wegung
ord an
Ġsch ott
ĠAus setzung
ĠSch on
Ġman oe
ĠAb ove
Ġag gress
th a
Ġus es
ĠMit gefÃ¼hl
ĠEin wohner
ok ing
Ġcoun cil
ĠGe fÃ¤hr
ĠGe heim
iz es
og genhuber
zu gehen
Ġmein t
he id
Ġcont ents
ĠKon vent
ĠKon zep
ĠMitgliedsta ats
Ġwo od
ĠUnter drÃ¼ck
ĠMenschen wÃ¼r
fe kt
Ġtra ins
iÃŁ ig
tre m
ĠVerb indungen
Ġinv ested
Ġnow adays
Ġproblem atic
Ġviel fach
ĠÃľber leben
ĠÃľber schwemm
Ġgew ahrt
Ġgr ass
Ġwhen ever
Ġbas k
Ġbas es
Ġbas iert
Ġoff ic
Ġar bit
Ġpla ys
ĠGes tern
Ġunder line
Ġass ured
gend ijk
Ġho olig
stÃ¤nd ig
Ġfre und
Ġappro ving
ĠMe chanismus
Ġimmer hin
Ġreal istisch
Ġlo y
Ġgesch enkt
Ã¼ÃŁ en
erg ie
Ġ6 5
Ã¤mp ft
rÃ¼ st
Ġrat ification
Ġgel tend
Ġproduct ivity
Ġcontro lled
Ġbesonder es
Ġcontrib uting
par tei
Ġpract ically
Ġback ing
ĠFund ament
Ġintegr ate
Ġbew ill
ĠQu aestors
ĠInd ien
ĠInd ia
Ġvo ters
Ġremain ed
Ġgenau en
Ġadministr ations
Ġtreat y
02 6
ator ium
ĠWettbewerbs verzerr
Ġcivil isation
ody ear
Ġschwier iger
Ġethn ische
Ġarbeit et
Ġofficial ly
Ġdep lore
griff e
Ã¼h le
Ġamb itions
03 7
Ġsustain ability
ĠAut onom
Ġanalys ieren
ĠbefÃ¼r chte
ĠDec ision
Ġindic ators
Ġhistor ische
ĠDienstleist ung
ĠSc ott
Ġmanufact uring
Ġnormal erweise
ĠNational itÃ¤t
Ġfal schen
ĠUntersuch ungs
Ġord inary
Ġdemonstr ates
ĠÃ¼berw acht
Ġgere chte
Ġdefend ed
ĠÃ¤hn lichen
min en
Ã¤us er
Ġimpos ing
Ġkl ass
ĠZweck e
ĠSpiel raum
Ġnah m
Ġreserv es
ĠursprÃ¼n glich
sk i
Ġqualifiz ierten
ĠSpe zif
Ġwidersp rÃ¼ch
ĠLa gendijk
Ġhervorge ht
ĠGo odyear
ĠgrÃ¶ÃŁten teils
zut reten
Ġveran lassen
reib ung
ĠgrÃ¼nd et
ĠKÃ¼ ste
Ġarm y
ĠWeiter hin
Ġadvoc ates
Ġcompla ints
ĠÃĸl pest
ĠzurÃ¼ckge zogen
Ġgriech ische
ĠUngleich heiten
ĠSozialschutz es
Ġbir gt
Ġregular ly
ĠgrÃ¶ÃŁer er
Ġkonstrukt ive
ĠEigen schaft
Ġschlimm sten
Ġwom an
ĠSÃ¤ ule
Ġapprox im
Ġtoler ance
Ġgestr ichen
ĠbeeintrÃ¤cht igen
Ġincent ive
Ġbenef ic
Ġbenef icial
Ġauseinander setzen
Ġbemer ken
ĠTradition en
ĠGesicht spunkt
Ġstopp ed
Ġsusp ension
Ġcop yright
ĠAnwend ungsbereich
ĠspÃ¼r en
ĠAusgang spunkt
ĠAllgemein e
Ġdisadvant aged
ĠBill ig
Ġscore board
ĠRelig ion
Ġentreprene urs
Ġconvict ion
ĠkÃ¼mm ern
ĠGrÃ¼nd ung
ĠuneingeschrÃ¤n kte
ĠServ ice
Ġchap ter
Ġanzup assen
Ġconstra ints
Ġvorzusch lagen
Ġredis trib
ĠAssoziierungs abkommen
Ġinhabit ants
ĠauswÃ¤rt ige
GA W
Ġsensit ivity
Her zeg
Ġaufrechter halten
Ġmerg ers
ĠBeren guer
Ġexac erb
Ġmanoe uv
ĠMenschenwÃ¼r de
Ġarbit r
A us
C omm
G eb
G ipfel
I C
a os
b ack
d igt
e le
f ree
g os
g barkeit
i os
i hen
j o
k al
n esty
w ahr
z ahlung
in ated
Ġt ighten
ch ung
Ġth rust
Ġw issens
at ches
or ter
an p
Ġb auen
Ġin appropri
Ġf inger
le bens
Ġp ity
Ġh erd
Ġn ord
Ġc ra
Ġc atch
ge halten
Ġun st
Ġto x
as k
Ġbe merk
Ġbe auft
us etzen
ĠS on
ĠS al
ĠM illion
ĠM eld
ĠM igration
ic able
Ġg reift
ĠB o
Ġre tro
Ġre isen
sch ub
ĠT oleranz
ĠW ould
ĠW Ã¤re
ul der
ul se
ĠF F
il ing
Ġzu genommen
Ġzu wenden
ĠK or
ĠK orre
ĠR ap
ĠR ac
ĠR inder
ĠV et
ot ine
ĠC ategory
ĠH Ã¤
Ġon to
Ġge gangen
Ġal ert
Ġal ban
Ġso ft
Ġso zio
ĠTh un
Ġver weise
Ġver mut
Ġver hÃ¤ngt
est ablish
Ġer we
Ġauf weisen
Ġauf gestellt
Ġst Ã¼tzen
ĠVer sprechen
ĠVer arbeitung
ĠIn t
la im
lie hen
ĠSt att
Ġab ges
Ġab zusch
ĠFra ktions
iel ten
ĠBe ide
ze igen
ĠEr halt
ĠO GAW
Ġman ifest
Ġdi verse
ran ational
Ġad here
Ġfa kt
Ġen ger
Ġbei der
Ġbei zu
ĠParliament ary
Ġdis gra
gra ben
oc kt
oc ide
zu heben
Ġgen ocide
he ll
Ġra w
wo oll
ke pt
ag ger
ĠMen gen
ĠDies en
ĠDe leg
ĠDe va
Ġacc us
Ġacc ounting
Ġhier fÃ¼r
bar gos
ĠTe xte
Ġadd ing
Ġover wh
Ġpla in
Ġstr and
Ġac ted
Ġac ute
Ġro ots
ulation en
Ġmon at
Ġincre d
Ġfo ster
ĠNach haltigkeit
Ġange fÃ¼hrt
Ġlo ans
Ġthro wn
Ġposit ively
Ġcar bon
ĠFinanz dienstleistungen
ĠY outh
tegr ation
ĠBei hilf
Ġ6 9
Ġform ation
Ġform ally
Ġtrans it
tra uen
ĠWas hing
Ġpres cr
ĠAm nesty
199 8
ĠÃĦnderungsantrag s
Ġ9 3
Ġdeut sche
Ġir r
ĠAt mosphÃ¤re
Ġaccount able
ĠDurch fÃ¼hr
Ġbro ken
Ġorganis iert
ĠIs lam
Ġoffen kund
Ġkurz er
Ġvi ability
ĠBem Ã¼hen
Ġenlar ged
Ġprevent ive
Ġeth ical
ĠVerkehr ss
ĠvÃ¶ ll
ĠNor wegen
ĠWieder belebung
ĠMar ok
Ġdang ers
Ġconv ince
ĠLissabon ner
ingen ommen
Ġfour teen
ĠOp eration
Ġexperien cing
ĠLeit ung
Ġvern ommen
Ġgee hrter
stell te
ĠKamp agne
Ġgelten de
Ġcriter ion
Ġsustain ed
ĠAgrar haushalt
ĠAut or
Ġche ap
Ġfail ing
Ġcomb ination
ĠBeschluÃŁ fassung
ĠDemoc racy
Ġhoch rang
Ġbetreffen de
Ġverein f
nehm lich
Ġinteress anten
Ġerfolg te
ĠDemocrat ic
ĠZusatz stoffen
ĠPrÃ¤ z
ĠKom pon
Ġmanufact ure
Ġformul ieren
200 1
Ġdeath s
ĠDez entral
ungsan lage
icien cies
Ġdr ive
ĠBef Ã¶rderung
krÃ¤ ften
Ġsup ranational
Ġmag n
Ġwithdra wal
Ġempf angen
arch y
ĠIran ian
igran ten
Ġenterpr ise
ĠLa an
Ġmist akes
sprogram men
Ġcontradict ory
Ġcharacter ised
Ġmand atory
Ġ197 0
Ġdauer haft
Ġelimin ating
Ġoffiz iellen
Ġsurpr ising
Ġvorbe ugen
Ġvirt ue
ĠCor bett
ĠArgument en
Ġut il
ĠHung ers
ĠverÃ¤nder te
ĠBeob achtungs
Ġwrit e
Ġtool s
Ġpill ars
Ġpotent iellen
Ġpotent ielle
ĠKohÃ¤s ions
person en
ĠPa ul
ĠErk enntnisse
ierend es
ĠSk la
Ġglaub wÃ¼rdig
reb ungen
Ġthir teen
ĠverschÃ¤r ft
Ġsurv ive
dep th
Christ demokraten
Ġbann ing
ĠgÃ¼nst ig
Ġtrop ical
Ġwiderspie gelt
ĠErschein ung
Ġrestor ing
ĠDien sten
Ġrecognis es
Ġdistin ction
ĠTemp o
Ġratifiz iert
ĠKapaz itÃ¤ten
Ġconcent rating
Ġverwir kl
ĠUniversal dienst
ĠKindes miÃŁbrauch
ĠAutomobil industrie
pla ce
ĠSlo ven
Ġnachvoll ziehen
Ġextraordin ary
ĠplÃ¤ d
ĠAtt wooll
Ġbegeg nen
ĠÃ¼berras cht
Ġprovider s
Ġdez entral
Ġrhetor ic
ĠBedienste ten
Ġbewaff neten
ĠÃ¼berflÃ¼ss ig
Ġstri kt
ĠNik ot
ĠErne uerung
Ġbezahl t
ĠUnzulÃ¤nglich keiten
Ġinnoc ent
habil itation
ĠScient ific
ĠBÃ¶r sen
Ġgeein igt
Ġbov ine
ĠBour langes
Ġlingu istic
determ ination
ĠVerschÃ¤r fung
Ġkatastrop hal
ĠGA SP
Ġoverwh el
0 5
2 20
B endit
D ollar
S C
W eg
a ug
d isziplin
e ller
f ungen
i ol
k w
m as
m ischen
o hl
p unkten
r ischen
s age
s orge
t ies
u ous
y an
z um
z ert
Ġd ial
in vest
it iv
it udes
ie h
ie ÃŁ
ie fung
Ġthe ory
or ed
an ia
Ġm ix
Ġm ixed
Ġf ill
ar ians
le ge
Ġp led
Ġp act
Ġp lus
Ġp ending
Ġh ide
Ġan schlieÃŁend
Ġan fÃ¼hren
Ġc attle
Ġun p
Ġun its
Ġun pre
Ã¤ me
st reit
st abilitÃ¤t
Ġv acc
ĠE he
ur teile
ĠS ing
ĠM Ã¶
ĠM our
ĠP feiler
Ġg ame
ĠB isher
Ġre ine
ĠD anu
ĠD opp
am mer
ul icher
ĠF Ã¼nften
il s
Ġzu kunft
Ġzu kommt
gen er
et us
id r
Ġwh olly
Ġda uern
Ġl osing
Ġk ne
Ġden selben
ĠG ama
Ġfor me
um welt
ĠH at
ĠH ol
Ġdies mal
ĠTh us
ĠTh rough
Ġer reich
Ġer weist
Ġauf greifen
Ġst ad
Ġst ations
Ġst ages
ĠL iber
Ġdes p
ĠVer markt
ĠVer trie
ĠVer Ã¶ffentlich
Ġde em
la sten
la gerung
Ġj u
iv ile
sp ace
sp rechend
Ġr ichtet
Ġwill k
ĠSt Ã¤r
ne id
Ġvor gestellt
Ġvor legt
Ġvor lÃ¤uf
Ġab gest
ĠÃ¼ber wie
ĠÃ¼ber geben
Ġum stritten
Ġaus geb
Ġaus gesch
Ġaus machen
ĠAus gehend
our rire
ĠEr werb
ĠEr leicht
ĠVor sicht
ĠVor stellungen
Ġent f
Ġent ail
Ġinter f
Ġad her
th ink
ĠEin erseits
ĠEin heits
ĠEin mischung
Ġreport ing
Ġinc omes
Ġgen techn
Ġimp orted
Ġimp etus
ress ive
aÃŁ ten
Ġte ach
Ġsp ong
are z
Ġges unden
ĠArbeit sprogramm
Ġhin reichend
ink el
Ġacc el
Ġdec iding
ign ation
ĠRat her
ĠKolle g
Ġtra ck
Ġsol ide
ĠAuf stellung
Ġper mission
Ġinv ite
ĠGem Ã¤ÃŁ
Ġkon vention
ĠEuropa abgeordne
ĠZeit ungen
zeit en
Ġzwischen staat
Ġrep ro
Ġrep rÃ¤sent
Ġass urance
ha fter
Ġend ed
ĠSta es
Ġstat istics
Ġstat istical
Ġher be
ĠInter pret
ĠKo finanzierung
Ġfinan ces
ĠUmwelt politik
Ġsozial dem
Ġbin den
Ġverb inden
ĠZu cker
cond ition
Ġlo ve
ĠSp itzen
ĠDem onstr
vers icherung
Ġausge ht
ĠMon tre
ĠMon ats
Ġneg le
wÃ¤ cht
Ã¤uÃŁ erung
Ġtrans atlant
ĠArbeits krÃ¤fte
ĠWelt markt
ĠHaushalts ausschusses
ĠHaushalts kontroll
Ġgel assen
Ġproduct ive
Ġrepresent ing
Ġ9 8
ĠMa ij
Ġir ischen
Ġspecific ations
ĠGen ugt
hol t
ĠBesch wer
itt ings
rieden heit
ĠAnge hÃ¶rigen
ĠNe ed
Ġintegr ity
Ġregul ating
ĠInd ik
Ġans Ã¤ss
Ġcult ivation
Ġzusammen zuarbeiten
Ġoffen ce
Ġvo llen
Ġbef re
ĠZus age
Ġeindeut igen
ĠHier zu
ĠRÃ¼ck stand
ĠMy ller
Ġorigin ally
ĠMil itÃ¤
Ġjud ges
ĠGesch mack
Ġzie ht
Ġdisast rous
ĠfÃ¶r dert
ĠOb gleich
ĠCo hn
ĠCo hesion
Ġbre aking
Ġcontinu ation
Ġcomb ine
Ġremind ed
Ġcandid ates
ĠVers orgung
ĠBeitritts lÃ¤nder
ĠDec lar
ĠDec ourrire
Ġfort geschritten
ĠSchokol aden
ĠInstrument en
Ġthough ts
Ġmis le
chter ung
Ġkrit ische
ĠsÃ¤mt licher
Ġexclus ive
ĠWeiÃŁbuch s
ĠAd op
ĠÃ¼berw unden
Ġeffekt iven
Ġremark able
ĠjÃ¤hr liche
ĠStraf rechts
Ġschle chter
Ġlearn ed
Ġsmok ers
ĠZw angs
Ġexplan ations
Ġerk ennt
Ġerneuer bare
ĠFahr zeug
Ġreserv ed
ĠFÃ¼hr er
ĠSto ffen
ĠSpe k
Ġgain ed
Ġem ot
olid ierung
ĠBÃ¼ ros
ĠGo vern
Ġgeograph ischen
sprogram ms
ĠAk zept
Ġclass ification
Ġeinzus ch
ĠEinw Ã¤nde
Ġtw ice
Ġhol iday
Ġdestro y
Ġgenere llen
ĠMob il
II I
Ġisol ation
ĠHung er
Ġehrgeiz ig
fangen en
ĠAtlant ik
ash ion
Ġbelong s
ĠSÃ¤ uber
Ġadjust ment
Ġvertra ut
Ġexec utive
Ġunl Ã¤ngst
Ġwachsen de
Ġbemer kt
Ġalarm ing
Ġverz ichten
ĠverschÃ¤r fen
Ġimmen se
ĠAnk ara
Ġcompon ent
Ġindire kt
Ġwiderspie geln
Ġbehin dern
Ġdecentral ised
Ġacqu ired
ĠVizeprÃ¤sident in
Ġfam ous
ĠGeschle chts
Ġinciner ators
ffect ive
ĠNacht fl
ĠBla k
gie b
Ġhypoc risy
pap ier
ĠWÃ¼n sche
Ġries ige
Ġnewsp apers
ĠAngeb ot
Ġhous ing
ĠPie tro
Ġgeplan ten
ĠGefÃ¤ng nis
ĠHeran fÃ¼hrungs
Ġregrett able
stad t
Ġchines ischen
Ġpal Ã¤stinens
ĠWur tz
Ġobs erve
Ġweiterentwick elt
Ġsubscr ibe
ĠHekt ar
Ġarran gement
ĠHaup tz
Ġkommerzie llen
Mitglied staaten
ĠInspekt oren
ĠSlow en
discrimin ation
Ġenshr ined
ĠOrte ga
ĠSim ilar
ĠSoc iety
ĠWests ahara
ĠScott ish
Ġinappropri ate
ĠWashing ton
Ġverwirkl icht
Weg gen
ĠMour a
ĠDanu be
ĠGenugt uung
4 5
9 8
M arg
P L
U n
V or
V an
W F
a al
f aktor
g reift
i very
j ekten
k r
k ra
k ette
k apital
l assung
n s
n isch
n ism
o oth
v arez
w Ã¤l
z ahlen
er geb
Ġd ri
on y
Ġw is
Ġw ages
Ġw reck
it ary
Ġin j
Ġm erk
al us
al ys
Ġe bensowenig
le t
Ġp ace
Ġan ch
Ġan scha
ge ist
Ã¤ chte
st es
st imme
ĠE M
Ġbe we
Ġbe wertet
ur ies
ĠA z
ĠA ppe
ed eration
ĠS oldaten
ĠM ach
ĠM ulder
Ġein gele
Ġein setzt
ĠP et
ies t
ĠD ra
ĠT wo
ĠW ein
ter en
ĠF ische
ber ichte
Ġzu ge
ĠK il
Ã¶ ch
ĠR ome
Ġl Ã¤ngst
isch t
Ġk amen
Ġk aufen
Ġk enne
ĠG AT
ĠC olle
ĠH as
Ġwir ft
Ġwe ise
Ġge lesen
Ġso viel
Ġver mittelt
ver k
ach sen
Ġauf kommen
Ġst ick
ĠL ad
ĠUn t
ĠUn fÃ¤lle
ĠVer ste
ĠVer dienst
ĠVer mÃ¶gen
Ġne utr
ĠN it
ĠN ob
Ġj ung
Ġes c
Ã¼ber wachung
Ġex isted
if ik
Ġco inc
Ġwill en
ĠSt Ã¼r
Ġvor ab
00 3
Ġaus genommen
Ġaus sieht
ĠBe weise
ĠEn gl
uch ung
ĠJ ur
ĠAus bild
ĠSch wed
ĠSch ule
be f
be wertung
ĠEr folge
Ġman chen
Ġent schuld
Ġwor auf
ert o
Ġfa ces
Ġen ge
Ġen gen
Ġprop aganda
Ã¶r ungen
ĠGe geben
Ġpr ud
Ġber ichtet
Ġimp lies
ose x
Ġra ft
ĠComm unities
Ġges tellten
Ġout er
ĠJahr tausend
Ġsol ch
Ġsol ving
ĠAuf schw
ĠAuf klÃ¤rung
ĠAuf schub
tre ffen
Ġbereit stellen
Ġbereit gestellten
fl ikt
fol d
fÃ¼r sorge
Ġrel uct
ĠÃĦnderungs vorschlÃ¤ge
Ġar isen
Ġover r
Ġstr ike
ĠMein ungsver
Ġunder p
ha ftet
Ġend s
Ġhand ling
ĠGro ss
ĠRahmen richtlinie
Ġask s
Ġspec ify
Ġconf ine
Ġprocess ed
Ġreal en
Ġorgan ic
Ġausge drÃ¼ckt
zeich nungen
Ġbegr enzen
Ã¤tz ungen
Ġdiffer ing
ĠTeil s
ĠTeil ung
Ġindust rie
Ġtrans mission
Ġtrans lated
Ġrat ify
Ġsm ooth
Ġsign ing
Ġgeb Ã¼hr
Ġvoll zogen
Ġdel ivery
Ġlang er
Ġeing est
ĠBes org
ĠÃ¶ff nen
Ġschw ach
ĠHil f
ĠStra fe
ĠStra fs
ĠInd ivid
ĠDar an
Ġcl oning
ĠStruktur reformen
Ġseem ed
Ġstren gere
Ġloc ated
Ġocc urs
ĠSol bes
Ġinstitution elle
ĠZwe ifellos
Ã¤d chen
Ġpass ive
Ġmind s
chan ges
ifiz ieren
Ġenerg isch
Ġlack s
bereit ung
ĠNor way
Ġcivil ians
haft ung
zug s
ĠFortsch ritts
mb ud
Ġwider sprechen
av ig
ĠÃĸsterreich er
Ġcirc ulation
ĠProt est
Ġemphas ises
stell end
ĠSerb ian
ĠwÃ¼n scht
ĠDen k
ĠBeitritts verhandlungen
Ġerziel ten
Ġph arm
Ġrecon ciliation
ko h
Ġverab schiede
Ġavo ided
Ġsus pect
ĠHandels abkommen
Ġcentral ised
Ġine ff
ĠPrÃ¤ zed
Ġmax imal
Ġtim ely
Ġuner wÃ¼n
Ġbilater ale
Ġsinn volle
ĠBeam ter
Ġeinges tellt
ĠZivil isation
Ġunge achtet
ĠAnder e
Ġinvestig ate
produ kte
ĠGra a
ĠBeschl usses
ĠVerhÃ¤lt nisse
ĠSy mbol
Ġdr iven
erzeug er
Ġpartnership s
haus halts
Ġmoral ischen
Ġlearn t
Ġunmittel baren
ĠStad ium
Ġdescr ibe
ĠNord ir
Ġged acht
Ġauszu Ã¼ben
ĠKontin ents
Ġgesellschaft liche
Ġthreaten ing
ĠLeist ungs
Ġignor ed
ĠVorred nern
ĠWeiter entwicklung
Ġvorbereit en
ĠJed e
ĠJed och
hre b
ĠIns gesamt
Ġton ight
fu hren
Ġwert volle
Ġgegenseit ig
Ġzerst Ã¶ren
Ġgeeigne ten
Ġpassen ger
Ġthorough ly
Ġobstac le
ĠNachbar n
ĠStabilitÃ¤tspakt s
ĠNiederlan de
ĠMÃ¼ he
Ġprohib ited
ĠAnmerk ung
ĠMitentscheid ungsverfahren
ym met
Ġlengt hy
Ġcontact s
Ġthir ty
Ġstopp en
Ġfried liche
Ġerad ication
Ġbeschleun igen
Ġschreck lichen
zent ren
Ġarres ted
Kon ferenz
Ġpol izei
Ġdemograph ic
Ġverschw inden
Ġunreal istic
Ġgenehm igt
Ġmultilater al
Ġverdeut licht
merz ung
ĠVert iefung
Ġexter nen
Ġkorrig ieren
tran sport
ĠReicht um
ĠBesitz stand
bil den
strÃ¤ ger
Ġersta un
Ġnorm ally
Ġinstall ations
Ġcol our
Ġgesp annt
Ġdrink ing
Ġprejud ice
ĠLegitim itÃ¤t
ĠverknÃ¼p ft
ĠCF SP
Ġforesee able
Ġprinzip iell
ĠbedÃ¼r fen
mach ung
Ġaltern atives
Ġunm iÃŁ
iskrimin ierung
kap az
ĠIM F
ĠRund funk
ĠWarnhin weise
Ġgeforder ten
erstatt ung
ĠSer ben
ĠKurd ish
Ġjugoslaw ischen
Ġadjourn ed
ĠOpport unities
Ġingred ients
ĠFift h
ĠLuc as
ĠSyr ien
Ġmanoeuv re
Ġdisgra ce
ĠMarok ko
ĠBeobachtungs stelle
ĠMontre al
ĠDeclar ation
ĠAkzept anz
ĠSimilar ly
Marg allo
nism Ã¤ÃŁ
ĠMeinungsver schieden
ĠGross ette
ĠPrÃ¤zed enz
C AT
E ast
F OR
N E
P OL
b ranche
c er
c all
d t
f indung
k ay
k nown
r ent
s ystemen
Ġd ry
in och
in tens
Ġt ier
ch o
un al
Ġs n
at ischer
Ġm inder
Ġe at
Ġan fangen
Ġc ul
Ġc olonial
Ġun zulÃ¤ss
Ã¼ lle
st Ã¼ck
as er
ĠE th
ĠE co
ĠE SA
Ġbe legt
ll ation
ur ances
ed nes
ĠS atell
Ġz ivile
ĠP inoch
ic ing
im ents
ut ze
eit ern
ĠB ra
ĠD enken
am ment
ten ance
ĠW ednes
den ce
ĠF lÃ¤chen
ve ll
Ġzu verlÃ¤ss
ĠK omm
ĠK uba
ĠK FOR
Ã¶ ten
Ã¶ hnung
ĠR ot
ĠR ein
Ġl varez
isch erei
Ġk m
ĠG Ã¼lt
ĠG lauben
ĠC ze
ĠC yp
ĠC OM
ab fÃ¤lle
um n
ĠH orn
ĠH emm
Ġge achtet
Ġge hÃ¶re
de cess
ce eding
Ġver hÃ¤ng
Ġver weist
ver halten
Ġer led
Ġauf einander
Ġauf weist
ĠL ange
ĠL ande
ĠVer y
ĠVer gabe
ĠIn nen
Ġne o
la ger
Ġex changes
if all
Ġr ising
ĠSt ufe
we ile
ĠAn kÃ¼nd
ste igen
Ġab road
och e
ĠÃ¼ber gehen
ĠFra geste
ĠBe ibe
ĠBe grenzung
ze hnt
Ġsch Ã¤tzen
Ġsch nelle
ĠAus legung
ĠSch ienen
be halten
ĠVor gaben
Ġman gel
Ġman ager
Ġhe ft
Ġdi ver
Ġinter ception
Ġour s
Ġen ables
able d
Ġapp ointed
Ġsa c
ĠGe fÃ¤ll
Ġob gleich
Ġzw ing
ĠReg ions
Ġcons ent
Ġpre dict
Ġpre decess
Ġsp anische
ced ented
ĠMitglied schaft
ag on
Ġexp ansion
Ġhin fÃ¤llig
ĠDies be
Ġev ol
bar es
iven Ã¶l
lÃ¤ re
Ġtra ur
ĠUm gebung
ĠGrund recht
ĠAuf lagen
ĠAuf rechter
Ġper ce
ĠLe hr
wir tschaften
ild ren
ĠCh i
Ġkon sequ
Ġins ide
fr isten
Ġrec ruit
ific ial
ĠÃľber nahme
icher ungen
Ġrep ut
ĠHaus halte
Ġeinz ut
Ġrespon ding
geord net
Ġpoint ing
ĠSta ff
Ġhand elte
Ġpublic ly
kon s
Ġspec ulation
Ġsozial es
Ġgleich er
inn a
ĠZu wanderung
okrat ische
Ġmay be
ĠHa var
ĠSp ar
Ġcontin ually
Ġtransp ar
ĠHer ange
Ġfind ings
Ġtun a
ret ch
ĠFall s
Ġklar er
Ġsm ug
Ġsign s
Ġgeb oren
iar ies
wert igen
ĠNe hmen
Ġrev iewed
ĠProdu ktivitÃ¤t
Ġaccess ible
Ġerst re
Ġcor n
Ġair lines
ĠAnd alus
ĠFran c
ĠRegel werk
Ġben chmarking
ĠSol che
Ġpass ion
Ġclos ing
ĠHier bei
Ġviol ent
Ġpers istent
Ġaff irm
Ġmoment an
Ġplay ers
ĠNor m
Ġdist ress
Ġjud ged
Ġdring liche
ĠSelbst bestimmung
Ġfound ations
ĠErzeug ung
ĠErzeug nissen
Ġverw ende
Ġcomprom ises
Ġeng ine
ĠStaats fÃ¼hrung
ĠPrinzip s
Ġvis ited
cep ts
ĠWahl beob
ĠWill ens
ĠSteuer politik
igr ant
Ġfail s
Ġeduc ational
Ġdest o
Ġbroad ly
Ġbeschlossen en
mitglie der
Ġliegen den
Ġinst ability
Ġfocus ing
Ġattemp ted
ĠGed Ã¤cht
Ġverantwort lichen
Ġcondem ning
bet rag
Ġformul ate
Ġhinter her
Ġmess ages
ĠNational staaten
tel n
ĠGesundheits schutz
Ġdemonstr ation
ĠPlan eten
ĠBar on
ĠhÃ¤ uf
ĠVorbereit ungen
Ġquant ities
ĠStraf recht
Ġgran ts
Ġgrat ul
Ġkl ug
Ġzufrieden stellend
Ġgre ifen
ĠWes halb
Ġsafegu ards
Ġerk lÃ¤re
Ġoccur ring
ĠursprÃ¼n gliche
ĠEreign is
grÃ¼nd et
Ġblock ed
Ġversich ert
Ġvorge geben
ĠSchaden s
Ġsafeguard ing
Ġexper iment
Ġcharacter istics
ĠTr ib
Ġsuperv isory
ĠMitglieds land
ĠMitglieds lÃ¤ndern
Ġbegrenz ten
Ġfulfil led
ĠMeeres verschmutzung
ĠDan ach
Ġdestro ying
Ġvorbe halten
ĠIC CAT
Ġheav ily
Ġdrast isch
Ġerfre ulich
Ġsla very
Ġehrgeiz ige
Ã¶p ft
Ã¶p fen
ĠOber flÃ¤chen
Ġverbind liche
Ġsimpl ify
Ġfift y
ĠMart in
ĠWissens gesellschaft
ĠPa asil
Ġvert ie
Ġchann el
ĠPerspekt iven
katastrop he
ĠErnen nungen
dien sten
Ġsusp ic
Ġgetr ennt
ĠAnwend ungen
ĠAusnahmere gelungen
Ġestim ated
bring t
Ġsensib len
ĠEm bargos
Ġdecentral isation
Ġtransl ation
Ġfam ine
Ġmacro economic
Ġautonom y
Ġeinzur ichten
Ġeinzur Ã¤umen
ĠLob by
Ġbeurteil en
Ġcontam ination
ĠErd Ã¶l
Ġinterven ieren
Ġtrib ute
ĠÃĸk os
ĠPos itiv
Ġquarter s
Ġteleph one
ĠSyri a
ĠSchmid t
Ġbott om
ĠMitverb rennung
Ġperipher al
ĠAltern ativen
ĠWork ing
ĠRedebeit rag
ĠFlag ge
ĠOl ivenÃ¶l
Ġconfin ed
ĠLÃ¤rmbel Ã¤stigung
meth oden
ĠHar bour
ĠgroÃŁzÃ¼g ig
hel fen
Ġinher ent
Ġaspir ations
ĠplÃ¶tz lich
bie ter
Ġpir acy
ĠArmuts bekÃ¤mpfung
ĠMag hreb
Ġconstituen cy
ethn ic
ĠGrÃ¶n er
ĠVeter in
kompeten z
Ġmism anagement
Ġnic otine
ĠnÃ¶rd lichen
ĠUnterdrÃ¼ck ung
ĠAutonom ie
ĠSloven ia
Ġoverwhel ming
Ġunpre cedented
ĠGegeben heiten
ĠStrafs achen
ĠWednes day
ĠBeibe haltung
ĠGefÃ¤ll igkeits
ĠAufrechter haltung
ĠPaasil inna
9 7
A U
A r
H aus
K rise
S ch
a id
b ted
b anken
c l
c ia
e e
e te
e ut
f il
g ige
g erecht
g Ã¼nst
h Ã¤lter
j unkt
n Ã¤chst
p en
p aket
r ight
w man
w indung
w idr
en ge
un ken
Ġw Ã¤chst
Ġs olle
at ibility
or ie
re iteten
Ġo d
Ġo ste
Ġm ild
Ġm iddle
Ġf ur
Ġf ashion
Ġp urch
ent h
Ġn ar
Ġan onym
ge ister
Ġun res
Ġun ilater
Ġv ill
Ġv ac
ĠE st
ĠE ach
Ġbe ars
Ġbe achten
Ġbe achtet
ĠI WF
ĠA LT
ĠS ah
ĠS out
ĠS atz
Ġz Ã¶
ĠM ur
ĠM Ã¤dchen
ĠP an
Ġg ir
Ġg Ã¤be
ut ors
ĠB Ã¼nd
ĠB anken
Ġre dep
sch iff
sch lagen
ĠW ild
ul ts
lich em
ĠF al
ĠF eind
ĠF ederal
ĠF irmen
ĠK Ã¶r
ĠK auf
ĠR Ã¤
ĠV om
ĠV ere
ĠV iertel
ĠV otum
ĠG ast
ĠG Ã¶te
ĠC ast
ĠC ode
um er
ĠH Ã¤nde
ĠH Ã¤nden
res erven
Ġge ts
ommiss ar
ver sammlung
ver folgung
Ġvon einander
and ina
Ġer richten
Ġst a
Ġst reben
ĠL ama
Ġas ymmet
ĠVer un
ĠVer weis
ĠVer meidung
ith erto
ow ski
op hil
op ole
ĠZ er
pp Ã¤nen
ĠN iger
ĠN ichts
iv itÃ¤t
for ce
Ġdem nÃ¤chst
Ġse ktor
ak ers
ak ters
Ã¼ber tragung
ens able
ann ter
Ġr ent
ĠSt ill
Ġvor Ã¼ber
Ġab zus
ĠBe antwortung
ĠJ arz
ord nen
heit lich
enn bar
be wegungen
ĠEr teilung
ĠEr Ã¶ffnung
ĠAb lauf
Ġhe utzutage
Ġent senden
Ġwor um
Ġunter einander
ĠMit bÃ¼rger
ĠEin halt
Ġnach gewiesen
Ġdis tr
ĠGe wÃ¤ssern
ger ichts
Ġpre d
aÃŁ nahmen
Ġte lling
wer ks
au ff
uropÃ¤ ische
fÃ¼hr er
ĠDe v
cess ing
fahr zeugen
ĠLe uten
sche ch
schlieÃŁ ung
ĠSe ppÃ¤nen
ĠAs ien
ĠMaÃŁ stab
ĠÃľber windung
Ġgr Ã¼nden
Ġbest anden
leg ten
Ġemp ty
Ġadd itive
ĠMein ungen
Ġrep rodu
weit erung
Ġeinz ubringen
Ġunder lined
Ġrequ iring
Ġro t
Ġro utes
Ġfund ed
Ġbelie ved
hin dert
ĠCon ventions
Ġhand led
ĠInter ventions
ĠWh ether
Ġview ed
Ġger icht
Ġger ufen
ĠMe ere
Ġletz tes
ĠBÃ¼rger meister
Ġverb reitet
ĠPolitik bereiche
ĠHa ut
Ġlo op
Ġaid s
Ġfra gt
Ġgesch ah
Ġserv es
stru cted
Ġest imate
Ġfind s
Ġausge arbeitet
Ġausge Ã¼bt
Ġmain tenance
ĠFre il
Ġbek Ã¤mpft
Ġklar es
ĠHaushalts ordnung
ĠHaushalts fÃ¼hrung
ĠHaushalts verfahren
ĠHaushalts behÃ¶rde
Ġprom ising
lus te
ĠBest rebungen
Ġcolle cted
ĠFisch fang
Ġdefin itions
Ġvar i
Ġvar iety
Ġ12 0
ler nen
ĠBr ut
ĠStra fen
ĠTur ning
ĠRed nern
Ġhervor zuheben
ĠMinister prÃ¤sident
ĠFran z
Ġzusammen hÃ¤ngen
Ġdrei zehn
wes ens
Ġhinaus gehen
ĠHo olig
Ġgegeben en
ĠDienst es
Ġqual itative
Ġenc omp
Ġenc ounter
ĠKrit erium
voll es
organ e
Ġsur vey
av ier
ĠVerfÃ¼ gbarkeit
verb rauch
Ġverw and
Ġentire ty
ĠAss ist
ĠFremden verkehrs
ĠAnt i
Ġprakt ik
ĠIntegr itÃ¤t
Ġlimit ing
ĠLin ke
ĠDokument s
EN ER
leit ungen
Ġcritic ise
ĠZusatz stoff
ĠVorsitz ender
ĠGrundsatz es
Ġmass iv
Pro zeÃŁ
Ġbi ological
Ġformul ated
emb owski
Ġrenew al
ĠTÃ¤tigkeit s
Ġfehl enden
Ġfehl ende
Ġanwes enden
Ġunge he
Ġcheck ed
ĠGesundheits wesen
ĠGra d
ĠDeut lichkeit
Ġgering sten
Ġsort s
Ġberu h
Ġvorhanden e
Ġersch Ã¼t
Ġersch weren
Ġmoral ische
Ġzufrieden stellen
riend ly
Ġschwerwie gend
Ġet abl
Ġcle ans
Ġevalu ate
Ġaufzu heben
ĠausfÃ¼hr liche
Ġbr ut
ĠMittelmeer politik
Ġart ificial
ĠEing ri
ĠBÃ¼ ro
Ġrig our
ĠInst ance
Ġvorge gangen
Ġcondition al
ĠtÃ¤t igen
Ġsele cted
ĠTr ink
Ġcompens ate
Ġlisten ing
Ġult imate
Ġbegrenz te
ĠSchwer punkte
ĠUmweltschutz es
ĠChrist demokraten
ĠÃľbergangs zeit
spolit ische
ĠErn Ã¤hrung
ca pe
Ġunbe k
Ġumfang reichen
ĠSchweiz er
Ġrass istische
Ġcompar able
ĠAkt ual
ĠComp etition
Ġstip ulates
Ã¼nde te
ĠTun es
ĠverÃ¤nder ter
Ġgewiss ermaÃŁen
Ġterror ist
ĠzukÃ¼nft ige
ĠgenÃ¼ gt
Ġangest rebt
Ġjun ge
Ġschlimm er
Ġitalien ische
ĠEben falls
ĠArmen ia
ĠAny one
Ġprosec ution
ĠschÃ¤d lich
ĠChin as
ĠMeinungs Ã¤uÃŁerung
ĠSow ohl
ĠFlÃ¼chtlings fonds
Ġhom es
Ġjournal ist
Ġsurv ival
Ġgreen house
Ġflow s
Ġzuges agt
ĠKrie ges
ĠAnk lage
Ġziel ger
ĠProzent satz
ĠEigent ums
Ġshift ing
Ġderog ation
ĠkohÃ¤r enten
Ġengag iert
Ġinhalt lich
ĠDire ktor
mutz ungen
Ġantibiot ics
Ġinsp ir
ĠPlenars itzung
)] .
ĠStraft at
ĠTabakerzeug nissen
Ġdepr ived
Ġbroadcast ing
ĠbegÃ¼nst igt
ĠDel ors
ĠmakroÃ¶konom ischen
ĠRefer endum
Program ms
Ġfortz usetzen
Ġinfr in
Ġdiscover ed
Ġqualit ativ
ĠKÃ¶nn ten
Ġcert ific
Ġlif ted
Ãľberein kommen
ĠAntibiot ika
Ġvent ure
ĠCertain ly
ĠPhÃ¤n omen
ĠVerarbeit ungs
ĠDell Al
Ġverantwortungsbe wuÃŁ
Ġvorbehalt los
ĠBou wman
ĠJac ques
Ġindisp ensable
Ġretire ment
ĠLateinamer ika
ĠgeÃ¤nder ten
Ġwissens bas
Ġfakt isch
Ġbeizu behalten
ĠAutor itÃ¤t
ĠKohÃ¤sions fonds
ĠNikot in
Ġzukunft s
ĠNeed less
ĠHeranfÃ¼hrungs strategie
ĠSlowen ien
ĠAppe ll
ĠGAT T
ĠPinoch et
ĠDiesbe zÃ¼glich
ĠGedÃ¤cht nis
ĠALT ENER
andina v
ĠJarz embowski
1 2
4 2
5 3
9 4
H NE
S I
S T
a ppe
b eschrÃ¤n
f Ã¤nger
f erring
f ibre
f riendly
h Ã¼
l imm
l ike
l abel
m aterial
n ische
r up
t ta
z qu
z ucht
Ġd ates
Ġd ub
Ġt at
Ġt act
Ġt ension
on te
Ġs ichtbar
re gend
ich ern
Ġin tell
Ġin fect
Ġin sec
Ġm ic
Ġm arkt
al yse
Ġf ly
Ġf este
ar p
ar ren
Ġe d
Ġe arth
Ġe cho
le hnen
Ġp et
Ġp ick
Ġp apers
Ġh ot
Ġn it
Ġan gere
Ġc yc
Ġun ten
Ġun iver
Ġun amb
Ġun schuld
Ġdie d
st ud
st atten
as p
ĠE ta
ed ed
ĠS ystemen
ĠP hilosoph
ic ism
ic ulous
ĠB ritt
el be
Ġre habilitation
ĠD AP
sch riften
ĠT ake
ĠW urz
ĠF le
il led
Ġzu wider
ĠK ir
ĠK now
et land
Ã¼r t
ĠR ett
ĠR ente
Ġl it
Ġl os
Ġl Ã¤ng
Ġl aps
ĠV are
ĠG ot
ĠG oll
ot ted
ĠC ITES
ĠH it
Ġge folgt
ort s
Ġcon vers
Ġcon cepts
Ġver ze
Ġver folg
Ġver tik
Ġver grÃ¶ÃŁ
est ag
and o
Ġer zeugt
ach teil
Ġst anden
ĠL kw
Ġde utet
la v
ĠN ation
ĠN ichte
ĠN either
Ġdem nach
Ġle b
Ġle bt
ĠSt art
ĠSt reben
Ġvor geb
Ġvor sichtig
Ġvor nehmlich
we i
ĠAn gabe
ĠAn zeichen
ug gel
err er
ĠÃ¼ber arbeitet
scha fter
hen burg
Ġres c
ad ow
ĠBe hinderung
ĠJ eg
ĠAus merzung
etz ungs
ĠSch ande
ĠSch ori
ĠEr be
ĠEr satz
ĠEr suchen
ĠVor fall
Ġdar gestellt
ĠO der
ue ller
se ek
ĠAb end
ĠAb schnitt
Ġent scheidet
ĠEnt fern
ĠEnt tÃ¤us
lem ma
Ġunter m
Ġunter s
Ġunter halten
Ġunter nimmt
Ġunter worfen
ĠMit tw
ĠEin fuhr
ok e
Ġcomp lying
Ġsa f
Ġbet ragen
ger icht
Ġgen Ã¼gen
Ġconc essions
Ġfin ished
ap ing
Ġges enkt
wick elt
ĠJahr zehnt
ĠKon kret
bar r
chn ungen
Ġalle g
Ġalle v
Ġmehr heitlich
ĠUm lauf
ĠAuf sto
Ġdam aged
Ġ3 50
ied elten
ĠTe er
ĠTe ppich
fr on
Ġrep air
Ġeinz iger
Ġrespon ses
Ġac id
ĠRechts hilfe
ĠRechts vorschrift
stÃ¤nd igen
Ġfre ige
Ġher um
Ġher stellen
ĠInter ventionen
Ġ5 8
ull ing
ĠKo hlen
Ġlie fert
gesch Ã¤
Ġzwe ier
Ġzwe ifel
ĠGeb Ã¼hren
ĠUmwelt bel
ĠUmwelt schÃ¤den
ĠNach teil
ĠNach richten
Ġreal e
Ġreal ised
ĠSp itze
Ġtransp osition
vers orgungs
Ġobject ion
ĠFinanz en
ĠFinanz rahmen
Ġnecess ity
ĠÃĸ VP
ĠGroup s
reichen de
ble iben
Ġ6 4
Ġbesch eiden
Ġform ed
ĠBet rÃ¤ge
Ġgest iegen
Ġ8 50
Ġbek ommt
Ġ7 2
ĠHaushalts vor
ĠFrauen handels
Ġ9 4
ĠSozial modell
Ġaccount ability
ĠNe g
Ġcap ita
ĠGleich heit
ĠGleich gewichts
Ġ12 44
Ġread mission
Ġgem essen
fÃ¤h iger
reg ulierung
rech tz
Ġstren ger
Ġprec arious
ĠZus agen
Ġann immt
ifiz ierungs
Ã¤ren te
ĠGemeinschafts rechts
Ġmod els
ĠTo de
Ġtas te
Ġrecommend s
Ġstress ing
Ġcent uries
ĠSelbst Ã¤nd
ĠInvest ition
Ġfair en
Ġdep lor
Ġvertreten en
Ġencour ages
ĠPart ners
ĠWach samkeit
Ġmer its
Ġgra in
03 8
Ġrein en
ĠWahl kamp
ĠWahl periode
ĠAgrar ausgaben
ĠAut h
Ġassess ing
Ġassess ed
Ġemploy ee
Ġche aper
ĠfrÃ¼ here
Ġilleg ally
Ġakt uell
ĠVers icherung
ĠFlug zeugen
Ġindic ative
Ġunver z
pre is
Ġavo iding
under te
Ġcritic ised
ĠPrÃ¤ mien
liz it
Ġflexib el
Ġsubstant ive
Ġthreat ens
Ġfal se
Ġcamp s
ĠEl tern
Ġalong side
Ġjur istisch
Ġcondemn ation
ĠZeitraum s
Ġlog ic
bÃ¼r gern
Ġdeep er
erzeug nisse
Ġschle chten
ĠLandwir ten
Ġzunehmen den
Ġrespond ed
Ġec os
ĠEreign issen
Ġentstehen den
Ġenfor ced
Ġblock iert
Ġart icles
ĠEing reifen
Ġrig id
ĠAlban ians
Ġabzu lehnen
Ġignor iert
Ġrecord ed
Ġremov ing
ĠUnabhÃ¤ng ig
Ġfr ustr
ĠbetrÃ¤cht liche
Ã¶der alen
Ġcompla int
Ġdispla y
Ġtemp er
ĠPartnerschaft s
IT S
ĠfÃ¼ hlt
Ġdre iÃŁig
ĠDon au
Ġrass istischen
ĠAkt ions
ĠVorbe ugung
ĠMand ats
ĠVerst Ã¶ÃŁe
Ġbir th
trieben en
ĠGanz es
Ġslow ly
ĠZiff ern
ĠStraÃŁen verkehr
Ġkorre kte
Ġkoh Ã¤rente
herr schaft
Ġbenachteil igt
Ġrational e
Ġinterpre ters
Ġsinc ere
Ġwachsen den
Ġterritorial en
Ġdopp elten
ĠHab itat
ĠLang u
ĠSum men
Ġheik len
ĠYes terday
Ġillustr ate
Ġerad icate
Ġindirect ly
ĠFÃ¤h igkeiten
ĠWass ers
Afr ika
Ġunk nown
Ġded icated
ĠFÃ¼nf jahres
Ġverdeut lichen
Ġpersu ade
Ġexter ne
Ġhypoc rit
Ġcustom ers
Ġbeurteil t
ĠÃ¶konom ischen
Ġdeterior ation
ĠErmitt lungen
Ġrelev ance
Ġcance llation
Ġdiskrimin iert
Ġhes it
ĠVorgÃ¤n ger
Ġunabding bar
ĠArme e
ĠJahrzehn ten
ĠSant a
Ġersuch e
ĠstÃ¤dt ischen
ĠVerg essen
Ġmangeln de
ĠSup er
ĠFischereise ktor
ĠStaatsanwal tschaft
Ġjahre lang
ĠZerst Ã¶rung
Ġumge kehrt
ĠChair man
Ġirrespon sible
Ġcofin ancing
Ġgebrauch t
ĠRefuge e
Ġbask ischen
Ġbeauft ragt
Ġabzusch affen
ĠDezentral isierung
ĠHungers not
ĠDopp el
ĠVermarkt ung
ĠVerÃ¶ffentlich ung
ĠAdop tion
Ġemot ional
kra ine
Ġwis dom
ĠAufschw ung
ĠPrÃ¤zedenz fall
ĠEco fin
ĠCze ch
Ġeinzut reten
Ġtranspar enten
ĠBaron ess
ĠSout hern
ĠFreil assung
ĠTunes ien
ĠDellAl ba
ĠDAP HNE
ĠVare la
ĠGot henburg
ĠGoll nisch
ĠJeg gle
ĠMittw och
ĠAufsto ckung
G ruppe
S ystem
Z one
f le
g Ã¤
h ig
j Ã¶ste
k an
k ind
m us
m itte
m ine
r ist
s itz
t ausende
w ann
w inkel
z Ã¤hlt
Ġ ungen
Ġ 99
Ġ Ã¼ben
Ġd ual
Ġd read
Ġa ra
un n
Ġw ro
Ġw ies
Ġw Ã¶ch
it ts
Ġs port
Ġs ine
Ġs abotage
Ġs ittings
at us
ie hlt
or ums
Ġb ra
Ġb rachte
Ġin ad
Ġm ad
Ġm aster
Ġf ix
ar tet
ro g
Ġe arm
Ġe gal
le are
Ġh ars
Ġan nehmbar
Ġan nex
Ġan zusehen
Ġun ange
Ã¼ st
ĠE qu
ĠI zqu
ur er
ur ities
ĠA B
ir us
ig l
ĠS ad
ĠS jÃ¶ste
ĠM Ã¼n
Ġein stellen
Ġein leiten
ĠB irma
el iegen
Ġre ly
ĠD est
ĠD ossier
ĠT ruppen
ĠW ind
ĠW este
ĠW HO
ul den
ĠF inger
ĠF errer
ber gen
Ġzu grund
gen ehm
ĠK lagen
ĠK Ã¶rper
ĠK enntnisse
ĠK Ã¼rzungen
et ic
id el
ĠR uf
ĠV AT
ĠV oggenhuber
Ġk omb
Ġk na
Ġk ostet
ĠG l
ĠH undert
iss ionen
ein trÃ¤cht
res se
Ġwe igh
Ġge legen
Ġge fÃ¤llt
de fiz
Ġcon ver
Ġcon stitutions
Ġcon fron
Ġver geben
Ġver liehen
ver pflicht
est Ã¤nd
Ġer langen
Ġer hielt
Ġauf rechtz
Ġst ood
uld ung
Ġde ar
tr at
Ġes p
Ġdem zufolge
Ġse vere
ĠRe ich
Ã¤n gen
ak er
sp l
sp lit
ant ly
lie derung
Ġall otted
Ġsu ited
und ed
we ll
ĠAn sÃ¤tze
Ġsich ere
ste uern
Ġab laufen
Ġab hÃ¤ngen
Ġab zuschlieÃŁen
ĠÃ¼ber sehen
hen de
Ġaus gelÃ¶st
ad et
ĠBe hinder
Ġdo g
ist le
ĠJ avier
Ġsch weigen
ĠAus b
ĠAus sprachen
chte t
our ge
ĠO AU
Ġwor Ã¼ber
Ġen rich
ip s
Ġunter liegt
Ġunter scheidet
ĠEin k
ĠEin bindung
ok olle
ĠGr Ã¶ÃŁen
Ġcomp uter
Ġsa cr
ĠGe legenheiten
oc aust
oc ratic
zu halten
Ġcons ists
Ġpre ference
wer ts
wer ke
Ġint ent
Ġint im
ke eping
Ġges te
ag d
au x
rat ors
stit u
Ġup hold
Ġany body
lÃ¤ ger
Ġmehr mals
Ġinv ent
ĠSe ch
Ġdisc rep
Ġviel fÃ¤lt
ĠMaÃŁ st
Ġrel ative
Ġar ch
Ġrep lied
Ġunder est
Ġro ot
Ġro les
isen berg
ient en
Ġweiter gehen
Ġhand le
Ġmeas ured
kehr ungen
vor aus
ffe kt
Ġens ures
ĠHin zu
Ġspec ulative
Ġgleich wohl
Ġverb rauch
uer halten
Ġserv ed
zeug nisse
Ġbez we
klÃ¤r ungen
ount ain
ĠAfr icans
Ġrat io
ĠVerbrauch s
ĠStand ard
Ġbetr ie
spro bleme
Ġmin imal
markt es
Ġeing reifen
gew ichte
Ġinde bted
Ġmention ing
hol ders
Ġeigen er
Ġeigen es
ĠÃ¤uÃŁ ert
Ġvorgesch rieben
ĠVerantwort ungs
att form
ĠInformation spolitik
ĠfÃ¼hren de
Ġintegr ierten
Ġeinge treten
gar ant
Ġoffen er
Ġbef indlichen
ĠEntscheidung sprozeÃŁ
ĠUN IC
Ġtechnolog ische
Ġdef ending
hÃ¶ chst
Ġbenefit ing
Ġmod est
Ġeinfach er
Ġparliament arians
Ġcivil ised
voll er
Ġassist ants
ĠGeschÃ¤fts verkehrs
Ġdring ende
Ġlab or
Ġshe ep
ĠRisik ok
ĠLuft qualitÃ¤t
ĠLuft fahrt
Ġanal yse
Ġzie he
Ġerreicht en
wÃ¼r fe
ĠPre isen
ĠGefahr gut
Ġground water
verb ind
ĠAuÃŁen beziehungen
Ġsett led
ĠWo llen
Ġsex uelle
Ġcontinu ity
Ġcontinu ous
Ġiniti ate
Ġiniti ated
stell ungs
Ġbeg leitet
Ġdisch ar
ĠHuman ressourcen
Ġverl iert
ĠIsrael is
ĠSan ter
Ġbeha ve
Ġko oper
Ġsatisf y
wÃ¼rd ige
ĠFlug gesellschaften
Ġdeterm ining
Ġindic ating
Ġinnov ativen
Ġblo ÃŁe
Ġirgend wo
Ġmis ery
ĠProdukt pir
Ġ198 0
Ġ198 5
ĠVÃ¶lker mord
Ġpotential ly
Ġverk auft
Ġincorpor ating
Ġformul a
ĠMiÃŁ verstÃ¤nd
Ġprof ession
Ġreturn ed
Ġgere chten
ĠBerlin er
Ġanzu gehen
Ġstandard ised
ĠEntschlieÃŁungsantrag s
bs ite
ĠBrÃ¼ssel er
Ġempf iehlt
zust and
ĠStat ist
entscheid ung
ĠgrundsÃ¤tz lichen
ĠChar akters
Ġunivers ally
ĠausfÃ¼hr te
ĠSpe zial
Ġerweit erten
ĠImp uls
Ġem barr
ĠEing reif
Ġged rÃ¤ngt
ĠGrÃ¼ ne
ĠEnts te
ĠAlban ien
ĠAlban ia
Ġmist aken
Ġzut reffend
ĠBegriff s
Ġfriend ly
Ġabzu geben
Ġsele ction
Ġbank rupt
Ġhop ing
Ġhop ed
ĠTSE s
ĠMeeres umwelt
Ġbenach bar
Ġoffiz ielle
ĠPresse freiheit
Ġdrast ically
zwe if
Ġdre w
ĠSign ale
ĠTrans fers
ipp ing
ĠSoll ten
besch l
Ġisol ated
ĠGemeinschaftsin itiativen
ĠExper ts
Ġconsolid ate
Ġsupposed ly
program men
ĠArmen ien
ĠEinwanderung spolitik
Ġlandwirtschaft liche
Ġdeliber ately
Ġunl ike
Ġdistort ion
Ġtaxpay er
Ġabol ished
Ġobligator ischen
Ġintoler ance
ĠKrie gen
Ġkurzfrist ig
Ġru in
Ġstrukture llen
Ġstrukture lle
Ġanticip ate
ĠEm bargo
ĠTrag weite
Ġjeopard ise
agn os
Ġbehin dert
Ġrecognis ing
ĠOff ensichtlich
Ġlebens wicht
Ġautonom ous
ĠUC ITS
ĠPlenars aal
Ġeast ern
ĠverfÃ¼g baren
ĠSachverstÃ¤nd igen
Ġprivile ged
ĠUrspr ung
ĠniederlÃ¤nd ischen
ĠSchwÃ¤ chen
ĠSchwÃ¤ che
Ġdistingu ish
Ġbiomet ric
Ġscen ario
Ġswift ly
Ġphilosoph y
Ã¶d ie
ĠPolit ical
ĠGemeinschaftspolitik en
Ġvigor ous
Ġaud it
Ġgeist igen
Ġdisappoint ment
Ġsudden ly
ĠSubst anzen
ĠMerkmal e
ĠBon de
Ġargu ed
ĠRÃ¼ckÃ¼ber nahme
ĠTunis ia
ĠInformationstechnolog ie
Ġisrael ischen
Ġaufer legt
Ġdamal igen
Ġtort ure
ĠRegul ierungs
Ġserb ischen
Ġhervorra gend
ĠUmsch ichtung
aspe kte
ĠKau pp
ĠHern ndez
ĠVerschle chterung
ĠSint ra
ĠConf ederal
Ġtagt Ã¤glich
ĠDal ai
ĠFun ktionen
ĠÃľberschwemm ungen
Ġoffic ers
Ġapproxim ation
Ġbenefic iaries
ĠKorre ktur
ĠRac ism
ĠVerkehrss icherheit
ĠStÃ¤r ke
Ġrepro cessing
ĠIndik atoren
Un ter
Ġdri vers
ĠColle ge
Ġouter most
mbud sman
ĠCyp riot
ĠHavar ie
Ġcorn erst
Ġgratul iere
ĠKÃ¶r ner
ĠDev isen
appe ared
Ġunamb igu
Ġearm ark
Ġhars h
ĠIzqu ier
ĠSjÃ¶ste dt
Ġkomb in
Ġaufrechtz uerhalten
Ġsacr ific
V C
W G
b and
b rechen
c omp
e ing
f ens
f unktion
g y
g ro
g te
h ire
h undert
j an
k ter
l ib
l ary
m Ã¼t
r ung
r ichtet
s ely
t urn
w Ã¤hrung
y sen
er atur
Ġd il
Ġd rittens
in sel
Ġt ensions
Ġt schetschen
is ations
Ġw ine
Ġs atell
at te
ie in
or es
or ters
re isen
Ġb read
Ġb old
Ġm ith
Ġm Ã¤cht
al ts
Ġf at
Ġf lying
Ġf Ã¶deral
le ger
Ġh Ã¶rt
Ġh itherto
Ġn ein
Ġc ommen
Ġc ry
Ġc ope
Ġc ited
Ġc old
Ġun kontroll
st Ã¤nden
Ġv it
as i
ĠE hr
ĠE conom
Ġbe aut
Ġbe heben
Ġbe fallen
ĠA lar
us hing
ir ies
ig ant
ĠS m
ĠS org
ĠS zen
ĠM ary
ĠM Ã¶glich
ĠM ade
ĠP ort
ĠP ilot
ĠB ran
ĠB ret
ĠB orr
ies e
el ter
el den
ĠD rei
sch arta
sch reiben
ĠT B
ĠT ues
ĠT atsÃ¤ch
ĠT rennung
ĠW ater
ĠF arm
ĠF eld
ĠF asch
ĠF Ã¤lschung
ĠF Ã¼lle
il es
Ġzu stimmt
gen eration
ĠK as
ĠR oc
ĠR oten
ĠR ibe
Ġl isted
Ġl Ã¤cher
ĠV el
ĠV ieh
Ġk Ã¼nst
ĠG od
ĠG eschÃ¤
ĠC l
ĠC lin
ĠC ivil
ĠC roat
um es
ĠH el
Ġwe ib
Ġge we
Ġge werb
Ġge fallen
ĠU kraine
de te
de hnen
de hnung
Ġcon ferences
Ġver gangen
Ġver hÃ¤lt
Ġver haftet
Ġver bergen
Ġpro stitutes
Ġer zeugen
Ġer fassen
Ġauf gebaut
Ġst ation
ĠL iz
ill ar
ĠVer fe
ĠVer gemeinschaft
Ġde grad
ĠN am
sp ir
sp rÃ¤
Ġex agger
qu id
qu elle
Ġco des
ib be
ĠSt re
Ġvor igen
Ġvor dringlich
we ichen
Ġy ield
ĠÃ¼ber d
ĠÃ¼ber leben
ĠÃ¼ber nimmt
Ġsh op
ges tellte
Ġaus reicht
Ġaus zuschlieÃŁen
ad o
Ġat roc
uf ung
ĠBe eintrÃ¤cht
uch ten
ĠDie jenigen
ĠAus kunft
ĠAus dehnung
our ce
ĠSch le
ĠSch Ã¼
ĠSch ritten
ĠSch Ã¼ssel
ĠEr m
ĠEr hebung
ĠEr rungen
ĠVor fÃ¤lle
ĠO EC
ect ion
ĠAb wicklung
Ġag ieren
Ġfa c
Ġfa ult
ĠEin setzung
Ġnach teil
Ġch ief
ĠGr upp
Ġdis in
Ġdis appeared
ĠGe is
ĠGe fÃ¼
ĠGe fangenen
Ġinc ur
Ġpr on
Ġgen annte
nah ms
Ġlike wise
Ġzw ingt
lo b
Ġsp ot
Ġsp rachen
au erung
Ġwork force
ious ly
Ġhin dern
ĠKon ting
Ġacc um
Ġind es
ĠMenschen ver
ever kehr
fe hle
ĠAuf teilung
Ġintern ally
Ġfe et
Ġsub vention
ĠLe iden
ĠCh em
Ġprov ing
fr Ã¼
ĠSe everkehr
Ġdiff erenz
ĠÃľ bel
Ġgew achsen
ĠZeit ung
Ġbest raft
Ġass urances
ha ul
Ġfest gehalten
inc ing
Ġbis weilen
fÃ¼ gen
Ġaut umn
ĠRahmen programm
Ġprincip al
ĠUmwelt bereich
Ġfo ol
Ġgu ide
ĠIm mer
Ġgesch ickt
Ġwen de
Ġreason ably
ĠHer bst
Ġpra ise
Ġatt itudes
ĠFinanz minister
ĠMon opole
Ġprev ail
Ġensure d
ĠFl otten
ĠTeil nehmer
own ers
bal anced
ace ut
tra cting
wirtschaft lichen
ĠHe il
ĠMad rid
Ġmin es
Ġbed acht
Ġcontro lling
ĠBesch leun
Ġcost ly
kÃ¤mp ft
Ġbrauch e
Ġanges etzt
Ġfinanz ieller
Ġintegr ating
Ġexist ierenden
Ġair line
Ġair space
Ġlet ters
ikan ern
zÃ¼ gen
Ġgem isch
Ġgem eldet
Ġdemocrat s
Ġstruct ured
Ġloc ation
ĠEntscheidung sproz
Ġenlar ge
schutz es
ĠAustri ans
Ġadm inister
Ġdef iciencies
Ġcreat ive
ĠHo ffentlich
ĠHo heits
less ness
Ġshow ed
ĠRep rÃ¤sent
Ġversch limm
Ġvers ions
Ġpoll uted
ĠGesetz geber
ĠItal iens
co ver
ĠRei hen
Ġklein ere
mb olic
Ġgute m
ĠInvest oren
ĠLuft raum
ĠGew issen
ĠGew inne
ĠGesch wind
Ġfound ing
ĠRaum es
Ġzahl t
Ġret ten
Ġret urning
ĠKl ass
ĠKl onen
Ġve ter
Ġemphas ising
Ġschnell st
ĠfÃ¼hr enden
Ġsever ely
Ġgra ve
Ġstar ving
Ġstud ied
plan ung
Ġanalys ed
Ġanalys iert
ĠunabhÃ¤ng iger
ĠSerb s
Ġheraus stellen
ĠFern ando
ĠPer u
Ġlimit ation
Ġlimit ations
Ġdest abil
ĠVers ion
Ġoffer ing
ĠPe ters
ĠEntlast ungsverfahren
Ġbevor zug
Ġbevor stehende
ĠInstrument ar
Ġlegitim en
Ġrefle ction
ĠhÃ¶ch stens
Ġinteress ieren
Ġunterst reicht
Ġbl ue
chter t
ĠEntwurf s
Ġflexib ler
Ġincorpor ation
ĠHow itt
Ġconsult ing
200 2
llos en
Ġalloc ate
ĠZivil bevÃ¶lkerung
Ġspok es
Ġinvestig ated
ĠGesundheits fÃ¼rsorge
Ġemer ge
Ġemer ged
ĠBar ak
ĠWeit ere
Ġmiss ed
ĠWiederauf nahme
Ġintens iver
Ġexplo ited
schreit et
ĠStraf verfolgung
Ġersch wert
Ġworth while
ĠStat ut
Ġwonder ful
Ġniedr igen
Ġsonst ige
Ġeffizient en
Ġspeed y
ĠSh etland
Ġgesetz liche
Ġverurs achten
Ġvir us
ĠÃ¶kolog isch
ĠBlick winkel
ĠFriedens abkommen
ĠZustÃ¤ndigkeit s
ĠBezug s
ĠBegriff e
ĠAnp assungen
Ġexcl ude
Ġsele ctive
Ġdram atischen
ĠNG O
Ġrecord s
Ġadapt ation
Ġcompla in
ĠzurÃ¼ckge gangen
ĠKre is
ĠJed es
Ġfrag ment
Ġunc lear
roh ungen
ĠTechn ical
Ġpostpon ing
Ġclean ing
ĠAkt ien
ĠComp uter
amer ikanischen
Ġreiter ated
ĠstÃ¤r kt
Ġoccup ation
ĠBetrugs fÃ¤lle
ĠPo os
Ġenvis age
fÃ¤ll igkeit
Ġirgendein e
Ġretain ed
Ġgebill igten
Ġfu els
ĠBen achteil
Ġdiss emin
ĠMart nez
ĠEinwander ungs
Ġcalc ulated
Ġattra ct
Ġverwe igert
Ġexec ution
ĠProf ite
sh ore
Ġvergleich en
Ġdistort ions
Ġfil m
Ġwettbewerbs fÃ¤hig
Ġsal mon
ĠCar ibbe
Ġadvis ers
Ġadvis ory
Ġdomin ated
kamp agne
ĠmiÃŁ achtet
Ġstre am
Ġgenie ÃŁt
rot tung
ĠAuseinander setzungen
ĠspÃ¼r bar
Ġliber ty
Ġdisadvant age
ĠzulÃ¤ss igen
ĠTrag Ã¶die
Ġkoordin iert
Afr ica
Ġents orgt
ĠDien stag
ĠgeschÃ¤ tz
Ġantibiot ic
ĠMich el
Ġnament lich
ĠVert agung
Ġflood s
Ġkorrig iert
Ġawait ing
arbeits losigkeit
ĠSein e
ĠUrspr ungs
Ġdrug s
Ġgemeinschaft licher
Ġzweif els
ĠDiox in
ungsbef ugnisse
Ġol ive
uche lei
Ġengl ischen
ĠSofort hilfe
Ġangestreb ten
ĠGrundprinzip ien
ĠverlÃ¤ng ern
Ġdevast ating
ĠOpt ionen
Ġherange zogen
Ġgetrenn te
Ġnuk leare
Ġirgendwel che
ĠeinschlÃ¤ gigen
ĠDolmet scher
ĠVersp Ã¤t
Ġfoss il
ĠSÃ¼doste uropa
aktiv itÃ¤ten
ĠBern ard
ĠUmstruktur ierung
Ġconfidential ity
ĠCas aca
Ġzahlreich er
ĠPhil ipp
tha ft
ĠGefÃ¤hr dung
Ġarbitr ary
Comm unity
ĠRap kay
Ġinterf ere
Ġaccel er
Ġkonvention ellen
ĠMilitÃ¤ ra
ĠBesorg nisse
ĠNordir land
ĠMeinungsverschieden heiten
ĠFrageste ller
Ġreput ation
Ġoste uropÃ¤ischen
Ġnar row
ĠCast ro
Ġcleans ing
Ġinfrin gement
ĠPhilosoph ie
ĠAuth ority
ĠLangu ages
Ġzugrund eliegen
ĠRisikok apital
ĠKaupp i
ĠTues day
ĠTatsÃ¤ch lich
ĠRoc ard
ĠRibe iro
ĠOEC D
ĠBeschleun igung
ĠCaribbe an
1 7
E WG
P art
P olitik
b org
b low
c ern
c oun
d is
d ed
e v
f aser
g ten
h or
i pe
i ast
i ably
i Ã¶sen
l iberal
m ie
o ok
p feiler
r s
r annt
v ene
w i
w ier
w unsch
z ute
z onen
Ġd up
Ġa ro
Ġa ston
es ter
is ters
un st
Ġw ise
it ch
Ġs em
Ġs and
or a
an while
Ġb ere
Ġb low
ar at
te le
Ġe bend
le te
Ġp atter
Ġp aÃŁt
Ġp ilot
Ġn ennt
Ġn uts
Ġan te
Ġan wend
Ġan geschlossen
Ġan zusprechen
Ġun b
Ġun ified
Ġun verstÃ¤ndlich
Ã¼ ne
Ã¤ le
Ã¤ men
st Ã¤d
ĠE duc
Ġbe zieh
us ive
ĠS A
ĠS ection
ĠM ass
ĠM achen
ĠP ur
ĠP utin
Ġg igant
ĠB or
ĠB rov
ĠD ial
sch ungen
sch reiten
ĠT Ã¤ter
ĠT DI
ĠT schech
ul ichen
ĠF el
ĠF Ã¼nfte
ĠF Ã¼ÃŁen
il ib
Ġzu geben
Ġzu gewiesen
ct ure
ĠK L
ĠK ub
ĠK olonial
ĠK roat
Ã¶ tet
Ġwh istle
ĠR Ã¼ckt
Ġda uert
Ġl ifel
Ġl Ã¼cken
Ġk g
Ġk enn
ĠC ent
ĠC riminal
ĠH Ã¼r
ĠH Ã¤n
ein heit
ein richtungen
de velop
Ġcon form
ver trÃ¤glich
est ock
Ġpro ceeding
Ġer mitteln
Ġauf geb
Ġst if
ĠL ib
ĠL etzt
ĠL ichte
ĠL yn
Ġha us
ĠUn less
ĠVer wir
ĠVer ordnungs
ĠVer lagerung
ĠVer luste
Ġnot es
Ġde eds
ik ares
ĠN O
for me
Ġdem ent
Ġse es
Ġse lling
ĠPar allel
sp lan
sp osition
sp otential
if ul
Ġco d
ib r
lie fer
Ġr ush
Ġr ender
ĠSt illeg
Ġvor gebracht
ck ed
ĠAn ze
ĠAn leger
uÃŁ en
err en
ste in
ste uer
Ġab warten
igen den
Ġsh oul
ĠFra cht
Ġaus wirkt
Ġaus zusprechen
Ġaus nahms
ad ig
ers atz
Ġwie viel
Ġsch icken
ĠAus stattung
heit lichung
ĠSch ein
be teil
ĠEr ster
Ġreg imes
Ġent legen
Ġent nehmen
ran gern
ĠEnt scheiden
ĠEnt lassungen
Ã¤r z
Ġunter laufen
ud rÃ¼cken
Ã¤t igen
ult ural
Ġapp ra
igh ter
ub b
ute te
ank o
Ġste ckt
zu wirken
Ġconc erted
ĠReg imes
ĠReg ulations
Ġra in
rie b
Ġbes etzten
wer ter
ap se
Ġpolic ing
ement s
Ġexp osed
Ġout line
ĠKon ventionen
Ġnew ly
Ġind iff
auf nahme
arbeit er
fe cted
Ġalle ged
ĠUm stand
ĠGrund rechten
Ġnational ism
ĠVerb renn
ituation en
ĠGemein de
pon ien
iti ver
iger ungen
Ġoff ensicht
Ġstr ive
Ġganz er
Ġass embly
Ġend ing
Ġbelie b
Ġfest legt
Ġfre ier
ĠMe anwhile
Ġzwe imal
Ġange legt
Ġreal istische
Ã¤m mung
ĠEuro zone
ĠDem zufolge
ĠVerein heitlichung
Ġbegr Ã¼nden
Ġtun nel
Ġbesch lieÃŁt
Ġtrans form
Ġmor gigen
ĠVerbrauch ers
Ġreform ed
Ġexpress es
ĠHe uchelei
abil ities
man den
man gel
ĠGer ichten
Ġgeb ildet
Ġbed ing
ĠzurÃ¼ck kehren
Ġcommun it
gew innen
01 3
Ġir ische
Ġsupp ose
Ġschw ar
par te
Ġequ ipped
Ġabs or
Ġabs ent
ĠNe xt
Ġerst recken
ĠQu orums
Ġread s
Ġze ugt
ĠMehr werts
Ġhervor gerufen
Ġless on
ennt nissen
ĠBel ange
ĠBel astungen
ĠPerson ally
wÃ¤rt ig
ĠEx ek
ĠWer bung
Ġmonth ly
Ġsuccess ive
Ġpass ieren
less ly
Ġerne uten
ĠMed ik
its ky
Ġdisp osed
Ġbehand elten
Ġangenommen e
zug reifen
ĠFest setzung
Ġwahr genommen
Ġwahr haft
Ġdiskut ierten
Ġopt imum
ĠRisik om
ĠZweit en
ĠGew inn
Ġfound ation
Ġundert ook
ĠVolks wirtschaften
ĠMin ute
Ġverst Ã¶ÃŁt
ĠPal Ã¤stinens
Ġpoor er
Ġbeg ann
ĠWahl kreis
Ġrad ically
ĠzusÃ¤tz licher
Ġheraus gestellt
Ġakt ual
ĠRes ult
Ġtradition elle
Ġverein baren
Ġfort unately
ĠLebensmittel behÃ¶rde
Ġprofit able
Ġinnov ations
Ġvol ks
Ġhistor ischer
nehm ung
ĠKons ument
Ġirgend wann
ĠKampf es
Ġabge deckt
Ġeinheit liches
Ġ198 7
Ġfl ight
ĠPrÃ¤ vention
Ġsy mbolic
Ġauthor ising
Ġverd anken
200 5
ĠNational ismus
opp elt
Ġbel astet
ĠRess ource
ĠKonflikt ver
Ġsix th
Ġrestrict ion
ĠvernÃ¼nft iger
ĠKar l
Ġgering eren
Ġsepar ately
Ġenable d
krÃ¤ ftig
Ġschle chte
Ġsmok e
Ġbein ahe
Ġsk andal
Ġvoraus setzt
ĠprÃ¤ vent
Ġanders wo
Ġunmittel bare
ĠAbfall bewirtschaftung
Ġ28 0
Ġec olog
Ġdepend ing
omb ard
ĠImp ulse
ĠMitarbeit ern
Ġkompliz ierte
ĠPersonal politik
ĠAuft reten
Ġoptim al
Ġoptim istic
schÃ¤d lich
ĠGel dern
Ġclass es
Ġmoder ate
Ġsubmit ting
Ġeinzus tellen
Ġlay s
ĠVerf assungen
ĠArbeitszeit gestaltung
Ġergeben den
ĠJed enfalls
Ġreact ions
ĠKlar stellung
ĠBefÃ¼r wor
ĠResolution en
Ġenjoy ed
qual ities
Ġsymp t
Ġcompl iment
ĠKonsult ationen
Ab kommens
ĠzukÃ¼nft ig
ĠPo sten
Ġmobil isieren
ĠInnov ationen
Ġmach in
ĠHindern is
Ġcalc ulation
ĠÃ¤lter e
Ġprosec utor
Ġdepart ment
Ġvert ical
Ġcourage ous
Ġvergleich bar
Ġfrequ ent
ĠImm igranten
schl Ã¼sse
Ġschwed ische
Ġstattf and
ĠHab en
ĠEntscheidungs findung
ĠUmwel thaft
ĠKan ada
Ġbeseit igt
Ġillustr ates
Ġziel en
Ġdoll ars
ĠEmissions hÃ¶chst
Ġkurzfrist igen
bring ung
Ġvalid ity
Ġbomb ing
Ġcharge d
Ġarres t
ĠRechtsrahmen s
ĠZuge hÃ¶rigkeit
ĠdÃ¤n ische
ĠDire kt
Ġreass ure
Ġgesundheit s
Ġacqu ire
ĠCanad a
ĠRauch er
Ġunreal istisch
ĠglÃ¼ck licherweise
Ġjo ined
Ġperpet rated
Ġrefus ing
ĠInvestitions bank
Ġherrschen den
Ġdur ation
Ġpsych ological
Ġenforce able
Ġanhalten de
ĠBab itz
ĠWechsel kurs
Ġdisregard ed
Ġmanip ulation
Ġbiolog ischen
Ġvigor ously
bezogen en
Ġaccommod ate
ĠConserv ative
ĠInner es
ĠverzÃ¶ gert
Ġdesper ate
Ġberuf liche
Ġscar ce
Ġkonsult iert
ĠKur den
Ġaufricht ig
ĠgewÃ¶hn lich
Ġwissenschaft lich
Nord ic
Ġcatastrop he
ĠTar if
Ġmittler weile
Ġdictators hip
Ġsummar ise
Ġdereg ulation
Ġliv estock
Ġpartial ly
ĠDu isenberg
Ġendors ed
ĠVerhaltensk odex
Ġunus ual
ĠSpezif ik
Ġvermut lich
ĠKompon ente
Ġkne w
Ġstad ium
ĠEinheits wÃ¤hrung
Ġgentechn isch
ĠInterpret ation
ĠGovern ments
ĠpalÃ¤stinens ischen
ĠHauptz iel
Ġbewe gt
ĠUnt il
ĠStÃ¼r me
Ġpharm aceut
ĠunmiÃŁ verstÃ¤ndlich
Ġzwing end
Ġrecruit ment
ĠhÃ¤uf iger
Ġgir ls
ĠNiger ia
Ġlaps es
ĠHit ler
ĠNichte in
Ġresc ue
seek ers
ĠPartners hip
Ġdread ful
Ġwro te
Ġintim id
Ġdischar ges
ĠEntste hung
ĠIzquier do
ĠMade ira
ĠBorr s
ĠClin ton
ĠCroat ia
coun try
ĠEduc ation
Ġbezieh ungsweise
develop ed
ĠUmwelthaft ung
ĠEmissionshÃ¶chst grenzen
4 9
5 24
E EC
N L
P s
S F
U F
d est
f ish
g ent
g ht
g ungs
h am
h our
i xt
j et
k ommissar
l ust
l abelling
m ans
o her
o vers
t ime
v iertel
w ies
w ner
w ait
y le
z esses
Ġ /
Ġ ul
en cy
er mÃ¤cht
Ġd ying
Ġd ossier
in formation
in strumente
Ġt reiben
un dern
Ġs qu
Ġs kept
at ri
re ut
re uung
an lage
Ġb ol
Ġb ran
Ġb are
Ġb io
Ġo wner
Ġm ig
Ġm ort
Ġm igrants
al ia
Ġf ire
Ġf lieÃŁen
ar ischen
Ġe hren
le iden
le vant
Ġh um
Ġh amp
Ġan ger
Ġan setzen
Ġan zust
Ġc rimin
Ġc yn
Ġc aution
Ã¼ nen
Ã¼ tern
Ã¤ hern
Ġbe halten
ll or
ĠA llt
ed a
ĠS n
ĠS ud
ĠS imbab
Ġz eich
ĠM s
ĠM un
Ġein tritt
Ġein dringlich
ĠP op
ĠP feil
em ination
Ġg ift
im er
ĠB al
ĠB ord
ĠB alt
ĠB aut
Ġre chten
ol ved
ĠD up
ĠD atum
sch m
sch Ã¤tzung
ĠT aus
ĠW ien
ĠW ende
ĠF ourt
ĠF usionen
Ġzu fÃ¤llig
gen ce
ĠK op
ĠK asch
Ã¼r en
ĠR obin
Ġk ill
Ġk Ã¶rper
Ġk Ã¤me
Ġden k
Ġden kt
ĠC ol
ĠC ad
ĠC EN
ĠH ud
ĠH imm
Ġge op
Ġcon vey
Ġver ification
Ġver laufen
Ġver lÃ¤uft
Ġpro sp
Ġauf gest
Ġauf bringen
Ġst ich
Ġst ore
ĠL Ã¼cke
ĠVer triebenen
Ġde fer
ess im
ust rated
Ġwer fen
ĠN ass
ive aus
Ġse ch
Ġse ed
sp ra
Ġle hne
ens ysteme
ens werten
Ġco incineration
ant wortet
Ġr iver
we chsel
ĠAn ders
Ġy ields
Ġsich ert
aus stattung
ug nissen
Ġab ide
Ġab schlieÃŁ
Ġab used
Ġab zubauen
ern t
ern Ã¤hrung
ges etze
Ġum hin
Ġaus macht
ad or
ĠBe ifall
ĠJ ud
ord s
Ġsch ade
ĠAus lands
ĠSch war
ĠSch rift
ĠSch eitern
gr Ã¼nde
ĠEr ziehung
ĠVor ab
ard o
se x
Ġman kind
ĠAb stand
Ġhe gen
Ġent ity
Ġinter action
Ġag ents
Ġunter min
Ġunter graben
ĠMit t
ĠBericht erstattung
rit ter
ĠEin sicht
ĠSie g
Ġch amber
Ġdis abled
iz en
Ġpos ed
Ġpos itiver
og h
Ġinc oher
ĠReg ister
Ġber ufen
Ġte uer
wer ken
ag te
Ã¤hr t
Ġout rage
Ġwo hnen
fÃ¼hr end
fÃ¼hr enden
utz er
ĠDies em
ĠUnter zeichnung
auf wand
ĠMenschen recht
Ġhier mit
lÃ¤ gen
chn itten
ĠGrund werte
ĠDer artige
ĠVerb Ã¤nde
Ġprov es
Ġprodu ces
hand ed
ĠÃľber trag
ĠÃľber setzung
ov ina
Ġref unds
ues a
Ġmark s
Ġemp fehle
Ġar ises
Ġrep ublic
ĠBereich erung
Ġganz em
Ġro b
ĠSte hende
ĠRechts etzung
ĠRechts instrument
Ġlie ÃŁen
Ġwirk ungs
Ġsystem atische
Ġtechn ically
Ġaut on
ĠMe ÃŁ
Ġselbst Ã¤nd
kon ting
kon zept
kon zentr
ĠNach richt
Ġsc ourge
ĠHa ve
ĠIm age
Ã¤m men
Ġthro w
Ġgesch eit
Ġtransp osed
chie ben
bei hilfe
ĠmÃ¶glich er
Ġausge de
Ġtun e
Ġbesch uld
Ġlaw ful
Ġform ing
Ġtrans ferring
ĠRecht fert
Ġ8 2
ĠWelt raum
ĠSchutz maÃŁnahmen
Ġredu ziert
ys is
ĠHaushalts disziplin
spro du
Ġextre men
ĠAm ong
Ġgel ang
Ġsign als
Ġgeb ieten
Ġvoll zieht
Ġlang wier
Ġeing angs
Ġsec ured
hol fen
ĠMan che
par agraph
Ġpl atform
Ġequ ilib
Ġmeet s
gre mien
ĠNe ug
Ġstru ktur
Ġrev ise
Ġadv ise
Ġ12 84
ĠQu elle
ĠDar f
Ġspeak s
ĠBeispiel sweise
ĠRed en
Ġallgemein em
Ġindivid uellen
ĠFran zÃ¶s
ĠBel grade
Ġaccord ed
Ġaufge zeigt
Ġcomple tion
ĠGegen wÃ¤rtig
Ġinform al
Ġfeel ings
Ġkle ines
Ġdemokrat isches
ĠVerwalt ungsverfahren
Ġnie manden
Ġexc ise
Ġexc iting
Ġadministr ativen
Ġbesser es
Ġpop ular
Ġdisp ose
02 8
Ġmak ers
ĠNor mal
ĠMar s
ĠMar fil
Ġteil zunehmen
ĠZug estÃ¤nd
ĠMehrheit s
Ġguid ance
folgen den
enste in
Ġdring enden
Ġemph atically
ĠSicht weise
Ġconv incing
ĠKomp l
Ġarbeit s
Ġfore front
Ġcirc le
verb indungen
Ġverw altet
Ġbre eding
ĠPlen ums
03 5
03 6
Ġvis iting
ĠNahrungs kette
Ġeingehen der
Ġland f
ĠFreiheit lichen
Ġcla uses
Ġtotal itarian
Ġerheb licher
ĠVers auerung
Ġfisher y
ĠMenschenrechts politik
ĠMenschenrechts kommission
Ġinst ig
Ġhead s
ĠAnst att
Ġunver meid
Ġtop ics
ĠVersch uldung
laub nis
ĠRichtlinien entwurf
ĠKons um
Ġsan ction
Ġrene wed
uter ungen
ĠKr is
Ġ198 4
Ġine qualities
ĠPartner schaften
Ġpat ients
ĠTabak anbau
Ġconsult ations
Ġbilater aler
ĠWerte gemeinschaft
ĠEind Ã¤mmung
ĠerhÃ¶ h
Ġweak er
produ ctive
Ġemer ging
Ġveh icle
ĠAd ri
Ġobtain ing
ĠTier futter
ox id
Ġersch reck
erzeug ung
Ġbill iger
ĠZur Ã¼ck
Ġniedr iger
Ġautom atic
Ġinten se
ĠChe chen
ĠImp f
Ġtrag ischen
gesetz ten
ĠEnts endung
ĠConsum ers
Ġvorge zogen
ĠgrÃ¼nd liche
Ġignor ieren
Ġerr ors
Ġdram atisch
Ġdram atically
Ġult ra
Ġcooper ating
Ġ197 3
ĠWeiter fÃ¼hrung
Ġfr ucht
Ġinterpret iert
Ġpatent ing
ĠÃľbergangs fristen
ound ed
Ġbound aries
Ġattend ed
Ġattend ance
Ġminister ial
Ġpun ished
ĠElement en
Ġgegenseit ige
Ġstor age
Ġinsist ing
ĠTrans it
Ġoccasion ally
orient ierte
Ġinte llig
Ġconsolid ated
ald a
ĠVorsorgeprinzip s
Ġmach te
Ġdiss emination
Ġtoler ate
ĠPflanzen fet
Ġbedauer licherweise
ĠZwischen zeit
Ġnachzu kommen
Ġcalc ulations
Ġtouch ed
ĠBil der
Ġendeavour s
ĠschÃ¤d lichen
ĠMeinungs freiheit
Ġdopp elt
Ġhil ft
ĠauÃŁen politischen
ĠGeneraldire ktionen
Ġhom osex
Ġverz ichtet
Ġorient ation
Ġorient ieren
Ġdomin ant
ĠUmwel tz
ĠKurz um
Ġerleicht ert
Ġheik le
Ġfried lichen
Ġcount less
ĠHerkunfts land
ĠEigent um
iox id
Ġdro hen
Ġdro ught
Ġzivil en
Ġobjekt ive
Ġobjekt iven
Ġjudge ments
Ġengag ieren
ĠDienstleistungs aus
Ġunk lar
Ġdemograph ischen
Ġtank ers
Ġausz udrÃ¼cken
wohn ern
Ġperpet rators
Ġdisappear ance
ĠSchnell hardt
anst alten
Ġnament liche
ĠTemp eratur
ĠRad io
Ġupd ate
Ã¼ste t
Ġren ational
arbeits zeit
ĠSachverstÃ¤nd iger
Ġcommend able
Ġconcent rated
Ġprivile ge
Ġchemical s
ĠBab itsky
ias m
ĠKranken h
Ġproc laim
Ġersta unt
Ġredund ancies
ĠPf und
Ġcance lling
Ġlic ences
Ġpflanz lichen
ĠMod alitÃ¤ten
vereinbar ungen
Ġconce al
ĠInner halb
ĠauslÃ¤nd ischen
Ġdesper ately
Ġpersec ution
Ġdenoun ce
ĠSchad stoffe
Ġhung er
ĠGol an
Ġfrank ly
Ġenthus iasm
Ġeingesch lagen
ĠStaatsange hÃ¶rigen
ĠFrÃ¼h jahr
Ġaward ing
ĠCong ress
Ġimbal ance
Ġgesonder te
risik en
Ġappla ud
Ġtenden cy
Ġexemp lary
Ġbrid ge
ĠFrequenz politik
Ġsenten ced
Ġerb racht
ĠErlÃ¤ uterungen
wÃ¤hl ten
ĠMaf alda
ĠElektriz itÃ¤ts
Ġscept ical
umin osen
Ġverletz en
Ġcorpor ate
Ġpollut ants
Ġdistur b
ĠTit ley
Ġkanad ischen
rÃ¼st ung
ĠBillig flaggen
Ġfinger pr
ĠFF H
Ġirr ational
Ġoffenkund ig
Ġmagn ific
ĠErleicht erung
Ġspong iform
ĠKolleg ium
Ġeingele iteten
Ġindustrie llen
Ġmanager ial
Ġsmug gling
Ġerstre ckt
ĠPositiv liste
ĠSah ra
Ġinsec urity
ĠBritt any
ĠEnttÃ¤us chung
gÃ¤ ste
ĠAB B
ĠProduktpir aterie
ĠVel zen
Ġpron oun
ĠMenschenver stand
ĠHÃ¤n sch
ĠVerwir rung
ermÃ¤cht igungen
ĠFourt ou
ĠHud ght
Ġprosp erous
ĠNass au
Ġequilib rium
1 9
4 7
K ommission
R M
S tr
b ies
d am
h un
h uman
h Ã¤nger
i hood
k rise
k odex
k atalog
m ir
m inistr
n ight
o id
p her
s ir
s ein
s ighted
v iew
v iet
v itable
w est
w ith
w ish
w issen
Ġ ?
Ġ Ã¤ndert
Ġt ab
Ġt ue
Ġt one
Ġt ied
ch ard
on ents
is er
Ġw uÃŁ
Ġs le
Ġs idel
at ant
re den
Ġb ab
Ġo we
Ġm iÃŁb
Ġf rieden
ar re
te chnolog
Ġe kl
le b
le ments
le bt
Ġh ielt
Ġh ingenommen
Ġan c
Ġan schein
Ġan regen
Ġan passen
Ġc ite
Ġc olon
Ġc ash
Ġun ent
Ġun fall
st rom
Ġv ic
Ġv age
ur ate
ing ly
ĠA v
ĠA gency
us ing
Ġund es
Ġund em
ĠS aat
Ġz o
ĠM uch
ĠM asch
Ġein s
Ġein ander
ra cies
ic op
Ġg alt
Ġg old
ĠB rÃ¼
ĠB oy
el ihood
Ġre ct
Ġre aff
Ġre open
Ġre think
ĠD G
ĠD Ã¼r
ĠD ere
ĠD ass
ĠD sir
der te
sch ra
sch icht
ten ds
ĠT est
ĠT ragen
rop ortion
ĠF uster
il ungen
ber at
Ġzu gegeben
id s
Ã¶ se
ĠR Ã¼b
ĠR unde
ĠR UF
ĠV ien
ĠG F
Ġfor cing
Ġge teilt
Ġge handelt
Ġso u
Ġer wor
Ġer sichtlich
Ġer teile
Ġer achtet
ach es
ach ts
Ġauf zus
Ġst retch
ĠL ink
ĠL Ã¼cken
ĠUn klar
ĠVer gn
ĠVer pack
ĠIn spect
ĠIn koh
ow ina
op fer
pp er
la w
her es
ind ed
ĠN II
ĠN uk
Ġes cape
ĠRe ferenz
end igung
Ġle ist
Ġex tern
if eration
qu est
ib l
ib ung
ib enden
ĠThe orie
ĠSt ock
Ġvor teil
we ge
ĠAn trÃ¤gen
ĠAn sehen
ah ar
Ġab hÃ¤ngt
Ġsh arp
Ġres id
Ġres ignation
ain streaming
ges ucht
ĠWe is
ĠWe gen
rÃ¤ ger
ĠBe endigung
Ġwas ted
ĠAus lÃ¤nder
etz ungen
ĠSch afen
ĠSch Ã¤tzungen
Ġthere of
ĠVor beding
ĠVor entwurf
Ġdar k
Ġreg ain
ĠAb sÃ¤tze
Ġwor ries
Ġag gra
Ġen em
Ġunter stellt
ud able
ĠEin en
Ġnach ge
ok ed
igh teen
Ġdis miss
Ġcomp are
Ġcan cer
Ã¶r ter
Ã¶r dern
Ġste ad
Ġste he
Ġste igt
oc o
lin ing
Ġconc ur
Ġspe kul
Ġpre condition
Ġsp heres
ĠComm ittees
wer den
wer bst
ap able
sicht s
Ġweit est
Ġweit reichenden
Ġwork er
Ġout bre
teil te
ĠUnter richtung
Ġind igen
Ġhier her
Ġhier archy
Ġdirect or
ĠZusammen leben
Ġrec over
fol io
ĠSe g
gel d
gel dern
ĠÃľber setz
ĠÃľber schreit
ĠÃľber griffe
Ġgr and
Ġgr asp
Ġref rain
leg uminosen
ĠAussch luÃŁ
Ġrep ay
Ġrep ression
ĠGes etzen
isk y
Ġrespon sibly
geordne ten
Ġro se
fin it
ĠCon cern
Ġla udable
pro jekte
ĠWh ilst
Ġadop ts
Ġresol ute
ĠMittel me
ĠAl ten
ĠAl ger
Ġview point
Ġger aum
Ġhal be
Ġpar ents
ĠUmwelt katastrophe
ĠNach weis
ĠBÃ¼rger rechte
Ġhel icop
Ġgleich zeit
Ġlo hnt
Ġgesch afft
Ġtransp orted
ĠOr igin
zeug nissen
Ġausge gangen
Ġausge prÃ¤
Ġausge legt
ĠVerein igungen
Ġget Ã¶tet
ĠBeit rÃ¤gen
Ġ6 2
grund satz
ĠFre md
ĠBet on
ĠArbeits lose
Ġreform ieren
Ġke hren
Ġbek unden
ĠWelt krieg
ĠHaushalts linien
spro jekte
Ġprom otes
Ġgeb Ã¼hren
Ġvoll ziehen
ĠBes etzung
Ġta pe
hm ir
ĠSozial ausschuÃŁ
ĠbegrÃ¼ÃŁ enswert
wert ige
druck s
ĠFisch bestÃ¤nde
ĠAnge hÃ¶rige
gre g
maÃŁ nahme
ĠgehÃ¶r te
Ġintegr ieren
Ġimm igrant
recht lich
Ġcl im
Ġoper ates
Ġappropri ately
ĠStruktur anp
Ġallgemein er
Ġhervor rufen
zÃ¼ gliche
rech ungen
Ġgrow ers
Ġzusammen fassen
ĠBel ize
Ġunderstand able
Ġabsol uten
Ġbef ugt
Ġaim ing
ĠFol ter
ĠFort unately
ĠEntwicklungs fonds
ged acht
Ġ11 5
ĠhÃ¶ re
ĠErweiterung sprozeÃŁ
Ġdef ect
Ġbo x
Ġbo ught
Ġaddress es
Ġrequest ing
zahl ungen
ĠArbeitsp lan
Ġpop ul
Ġpop ulated
ĠTo o
Ġliberal en
Ġliberal ised
neh me
Ġmen schen
Ġdisp roportion
Ġdiscrimin ated
ator ial
Ġteil genommen
ĠGeld es
ĠFortsch ritten
Ġident ification
Ġident ifying
Ġdist anz
Ġpress ures
Ġcover age
Ġwahr zunehmen
Ġsur ve
bur ger
Ġenthalten e
Ġcoordin ating
ĠWasser ressourcen
Ġwirksam es
ĠRaum fahrt
ĠErzeug nis
Ġernst es
Ġernst haften
ĠVolks gruppen
Ġdep endence
Ġencour agement
Ġexpect ing
Ġvis itors
Ġbeg leiten
Ġerheb t
Ġdoubt ful
Ġmodern ise
ĠKomprom isse
Ġfort un
Ġstaat licher
Ġblo ÃŁ
Ġunver antwort
ĠInstrument s
ĠKons olidierung
Ġsolidar isch
Ġattemp ting
ĠStrukturfonds verordnung
ĠAbsicht ser
Ġrun s
Ġine vitable
ĠAugen merk
Ġinfl ux
ĠTabak industrie
Ġreject s
Ġreject ing
Ġjen es
ĠAsyl politik
Ġrenew ables
Ġzentral er
ĠMiÃŁ wirtschaft
ĠMiÃŁ verstÃ¤ndnis
ĠWahr nehmung
Ġprof ile
Ġcurren cies
gÃ¼lt ig
rehens ible
ĠBeschÃ¤ftigungs mÃ¶glichkeiten
ĠVerkehrs un
ĠBef ried
Ġdeep ening
ĠVorbereit ungs
Ġzul Ã¤ÃŁt
Ġvorher gehenden
bed enk
Ġship owners
ĠspÃ¤ter en
Ġaccident al
Ġempf ind
Ġempf unden
ĠKat al
ĠNieder schlag
Ġerk ennbar
Ġvoraus gesetzt
ĠSto ff
ĠBot schafter
Ġprefer ential
Ġage ing
Ġaufzu fordern
ĠausfÃ¼hr licher
Ġsinnvoll er
ĠVoll endung
Ġannoun cement
ĠEing ang
mon th
Ġumwelt politischen
Ġemb ry
Ġgeograph ische
ĠInst anzen
Ġexcess ively
ĠBeamten stat
Ġbeabsicht igen
Ġeinf lieÃŁen
ĠRedner in
Ġoptim alen
fÃ¤hr t
ĠInsel regionen
Ġignor ing
Ġeinsch lagen
ungsver fahrens
ĠRechnungshof es
ĠKre ise
ĠAngriff e
ĠSee le
sprÃ¼ chen
ĠordnungsgemÃ¤ÃŁ en
Ġrass istischer
nÃ¼p fen
Ġniemand em
Ġdeleg ations
ĠJe wish
Ã¶konom ische
ĠTer mine
Ġissu ing
Ġirre levant
program ms
ĠReal itÃ¤ten
ĠBesuch er
Ġprohib ition
Ġvorrang ige
ĠHandeln s
berecht igung
Ġvertra uens
Ġattra ctive
Ġbreak down
Ġendeavour ing
Ġpreced ence
Ġdefic its
kur b
ĠBedÃ¼rf nissen
Ġfederal ist
ĠAbÃ¤nder ungsantrag
ĠspÃ¤t estens
ĠKrie ge
Ġgeleis teten
ĠParitÃ¤t ische
Ġkurzfrist ige
Ġliber t
Ġobjekt iv
Ġanticip ated
ĠdrÃ¤n gt
ĠGal ic
Ġkommer zielle
Ġtie fer
Ġsil ent
Ġinhalt liche
Ġleid et
ĠErschein ungen
Ġshame ful
ĠLandwirtschafts ausschuÃŁ
Ġtank s
ĠDiam anten
Ġmultilater alen
Ġtheoret isch
ĠBla ir
Ġpsych olog
ĠVern ichtung
ĠMot or
tran sp
ĠStraft aten
ĠWortmeld ungen
Ġanspruchs vollen
Ġvoranz u
Ġvoranz ubringen
ĠUnternehmer geist
mod ified
Ġermut igen
Ġentreprene ur
ĠErfordern isse
Ġnewsp aper
Ġdetaill ierte
Ġdistingu ished
ĠunnÃ¶t ig
ĠbÃ¼rokrat ischen
wass ers
Ġzun ichte
Ġkontinuier lich
Ġol der
Ġhes itation
ĠRec ommend
Ġimprison ed
Ġwiden ing
Ġcow s
ĠverzÃ¶ gern
Ġcancel led
ĠVerhaltens weisen
Ġangestreb te
Ġfremdenfeind liche
ĠSpr ung
ĠJo hn
Ġverble iben
Ġmotiv ated
Ġenthus iast
ĠFa una
Ġremed y
ĠDikt atur
Ġmedizin ische
ĠBulgar ien
ĠBulgar ia
Ġbesorgniser regend
hÃ¤nd ler
ĠberÃ¼hm ten
Ġwiederher zustellen
ĠProgrammplan ung
Ġunequivoc ally
ĠZin ss
Ġforecast s
ĠSensib ilitÃ¤t
Ġjustit iellen
ĠwÃ¼rd igen
Ġirak ische
ĠvernachlÃ¤ss igt
ĠGas lib
verhÃ¤lt nisse
ĠInspe ktion
ĠBehaupt ung
Ġrecital s
Ġmittelfrist ig
Ġanb ieten
Ġmisunder standing
Ġkrimine llen
Ġapolog ise
Ġhect ares
Ġvet o
Ġschott ischen
Ġaggress ive
ĠWettbewerbsverzerr ungen
Ġtox ic
ĠInt oleranz
ulicher weise
Ġmisle ading
ĠPet itions
ĠAusbild ungs
Ġentschuld igen
ĠgebÃ¼hr end
Ġeingest uft
Ġerstaun lich
ĠKomm ent
ĠGÃ¼lt igkeit
ĠMur cia
ĠVere hrte
ĠGÃ¶te borg
ĠTrink wasser
Ġwissensbas ierten
Ġdub ious
Ġintell igence
Ġuniver se
ĠWurz eln
ĠEntfern ung
Ġsaf ely
Ġacid ification
ĠHaushaltsvor entwurf
ĠWahlkamp f
Ġkna ppen
Ġconfron ted
ĠAusb reitung
ĠGrÃ¶ÃŁen ordnung
ĠKÃ¶rner leguminosen
Ġearmark ed
Ġsatell ite
ĠKas hmir
ĠVergemeinschaft ung
Ġatroc ities
ĠGrupp ierungen
Ġveter inary
Ġschnellst mÃ¶glich
zute ilen
Ġanwend bar
ĠBrov ina
ĠKroat ien
ĠEntscheiden d
ĠBabitz k
ĠSud an
ĠSimbab wes
ĠKasch mir
ogh urt
Ġlandf ill
Ġunvermeid lich
Ġmagnific ent
ĠHudght on
Ġanschein end
Ġunfall beding
ĠDere g
ĠDass elbe
ĠRÃ¼b ig
ĠVien na
ĠVorbeding ung
Ġaggra v
Ġoutbre ak
ĠGaslib a
1 8
B ereich
D C
E bene
G F
K K
K opf
O T
T S
T T
a ven
b us
b ul
b rechung
c ard
d re
d igten
f at
f irst
f lÃ¤che
h erein
i ant
k enntnis
k Ã¼ste
l om
l end
l og
l ene
m Ã¼
n g
n Ã¼gen
n iveaus
p ot
r asch
t okoll
u ay
w uÃŁt
y ers
in kt
Ġt ant
Ġt ail
on ged
is al
un k
Ġw all
Ġw Ã¼ÃŁ
Ġw under
Ġs ink
Ġs orgt
an ter
an ism
an anen
Ġb lie
Ġb Ã¼rger
Ġin human
Ġm ache
Ġf ung
Ġf als
Ġf eder
ar ia
te enth
Ġe ase
le v
Ġh oc
Ġan k
Ġan nehm
Ġan zub
ge fÃ¤hr
Ġun ber
Ġun aus
Ã¤ en
Ġdie t
st ar
st unde
Ġv ort
Ġv ierte
as us
om ing
ĠE us
ĠE ck
ĠE mb
Ġbe denkt
Ġbe lÃ¤uft
Ġbe denk
ll a
ll i
ll ul
ll ose
ĠA qu
ir gend
ĠS O
ĠS and
Ġz ones
ĠM ord
ĠM igr
ĠP ension
em pt
ic iary
Ġg as
Ġg ingen
im ittel
ĠB le
ĠB uesa
el en
el and
ol es
ĠD M
ĠD ay
ĠD ossiers
sch rift
ĠT om
ĠT yp
ul iert
ĠF ett
ĠF luÃŁ
ĠF Ã¶deral
ber ufung
Ġzu viel
ĠK abel
Ġau ction
Ġl as
Ġl ived
ĠV inc
Ġk ost
Ġk ling
ĠG il
ĠG az
ĠC e
ab ile
ĠH is
ĠH Ã¼ter
ĠH ushkits
ĠH underte
res sen
Ġge ared
Ġge grÃ¼ndet
ier n
ĠTh ree
Ġver se
Ġver trag
ver lust
Ġpro mp
and als
Ġer arbeiteten
Ġauf zustellen
Ġst orm
ĠVer z
ĠVer an
ĠVer se
ĠIn dem
ĠN et
Ġj Ã¼d
Ġdem agog
Ġse ats
Ġle ge
Ġex akt
ens ystem
ens ionen
if ikation
Ġr isen
ĠSt imm
ne imittel
Ġvor kommen
Ġvor zusehen
ck ten
ĠAn wes
Ġy ard
Ġuns u
Ġuns atisf
aus chen
ungs zeitraum
Ġab schaffen
Ġ1 01
ĠÃ¼ber trieben
Ġres ume
Ġme al
Ġum zu
Ġaus schlieÃŁen
Ġaus zusetzen
ben ga
olit ano
ĠBe wert
ĠJ an
ĠJ ordan
Ġsch Ã¤r
Ġsch Ã¤nd
Ġsch auen
ĠWir ken
ĠWir tschaften
Ġcom fort
ĠEr reichen
ĠEuropÃ¤ ern
eren zen
ĠVor kehrungen
ĠBer end
Ġent w
ĠEnt weder
ou d
ational isierung
Ã¤r er
Ġen cep
Ġqu a
Ġqu asi
ip tion
ip linary
Ġunter zogen
oun ted
ĠBericht es
ĠEin ver
Ġcomm od
Ġcoun ting
Ġch rist
Ġcomp atibility
Ã¶r p
ĠGe g
ass ment
ank ungen
Ġste igern
Ġinc apable
Ġpr icing
Ġfin nische
Ġpre dom
aÃŁ te
Ġbes ides
Ġwho ever
Ġsp ar
Ġsp lend
wer be
sam e
ap ie
Ġint ra
ag ten
ide ut
Ġwar nen
Ġexp ed
Ġout lines
Ġleg te
leich en
ri age
ĠKon zerne
Ġwo hin
che z
ĠDe ckung
ĠDe parte
ĠeuropÃ¤ isch
ĠMenschen leben
wend ungen
ĠUm verteilung
ĠAuf wand
ĠAuf ruf
Ġfe e
Ġsub jected
ĠLe hre
fl ug
fl achs
ĠSo viet
alt ungen
Ġkon tra
Ġkon zip
Ġkon zert
ĠSe kret
ken ne
ov is
ame ter
Ġgew inn
Ġgr Ã¼nen
get an
atz en
Ġadd ict
Ġrep lies
Ġeinz ug
Ġrespon ds
Ġass et
Ġac adem
geordne te
Ġgemein t
Ġend et
Ġend ang
Ġla x
pro ben
Ġweiter zu
Ġfar mer
Ġhand ful
ĠKo ex
oth ing
ĠWie benga
Ġlegisl ate
Ġlegisl ature
Ġallem al
ĠRahmen beschluÃŁ
Ġprincip ally
ĠUmwelt zeich
ĠBÃ¼rger beauftragten
Ġange geben
Ġgu ided
Ġverb rannt
ĠZu weisung
ĠSp ionage
Ġserv ants
red it
ail and
Ġobject ively
Ġposit ives
ĠFinanz hilfe
ĠFinanz ielle
Ġausge weit
Ġausge glichen
Ġauth ors
Ġget Ã¤t
ĠFl chard
Ã¤tz t
ĠBei legung
Ġ6 8
ĠBet rieben
Ġtrans formation
Ġtrans missible
Ġbefore hand
ĠHand hab
Ġ8 6
Ġ8 9
Ġreform ing
Ġ7 7
Ġklar gestellt
gemein schaften
Ġgel ernt
Ġgeb Ã¼hrt
Ġinvest ing
Ġir anischen
hol ung
hol ding
Ġta ught
Ġeinzel ner
ĠSozial istischen
ĠLÃ¶s ungs
ĠVerantwort ungsbe
ĠVerantwort lichkeiten
Ġ15 8
ĠAnge klag
Ġagree ing
Ġdefin es
Ġmil est
Ġintegr ierte
ĠQu ote
ĠDar stellung
Ġgovern ed
Ġorganis ational
ĠStruktur politik
Ġglobal ised
ĠReform prozeÃŁ
Ġsector al
ĠStandpunkt es
ĠLiberal ismus
ĠGegen wart
ĠEnerg ies
Ġthird ly
ĠEntscheidung strÃ¤ger
Ġshort age
Ġhinaus lÃ¤uft
ĠViel mehr
ĠForsch er
ĠEmp fÃ¤nger
ĠHo her
Ġern sten
Ġern annt
ĠSitz ungs
Ġeth ischen
Ġtreat ing
ĠVertre ters
fang s
Ġversch m
Ġzus amment
ĠWieder ver
ĠMil cher
Ġjud iciary
ĠWasser qualitÃ¤t
ĠZweit e
ĠKomp lex
ĠÃľberein kunft
Ġbedeut end
ĠProt okolle
Ġgener elle
Ġsex es
Ġstar ts
03 3
ĠKamp agnen
Ġdurchge fÃ¼hrte
plan s
Ġbeg nÃ¼gen
ĠAut ob
Ġanalys es
fre ien
Ġappe als
Ġbetroffen e
Ġwesentlich es
ĠInformations austausch
Ġcomb ining
ĠbeschÃ¤ft igung
ĠFern ndez
ĠVers Ã¶hnung
rang ing
Ġtradition ally
Ġtradition ell
Ġprofit iert
Ġfocus es
ĠPe oples
Ġlegitim ately
orr ies
Ġli quid
ĠSicherheits rates
ij s
ĠStrukturfonds mittel
Ġobserv ance
Ġ198 8
ĠVÃ¶lker gemeinschaft
Pro blem
Ġauthor ise
ĠWhite head
Ġfunktion ierenden
Ġconstit u
opp ing
ĠKern anlagen
Ġjen em
Ġdev ote
produ kt
aktor en
Ġjur istische
Ġexerc ising
ĠDeut schen
ĠSy ner
[...]
