{
  "version": "1.0",
  "truncation": null,
  "padding": null,
  "added_tokens": [
    {
      "id": 0,
      "content": "<pad>",
      "single_word": false,
      "lstrip": false,
      "rstrip": false,
      "normalized": false,
      "special": true
    },
    {
      "id": 1,
      "content": "<s>",
      "single_word": false,
      "lstrip": false,
      "rstrip": false,
      "normalized": false,
      "special": true
    },
    {
      "id": 2,
      "content": "</s>",
      "single_word": false,
      "lstrip": false,
      "rstrip": false,
      "normalized": false,
      "special": true
    },
    {
      "id": 3,
      "content": "<unk>",
      "single_word": false,
      "lstrip": false,
      "rstrip": false,
      "normalized": false,
      "special": true
    },
    {
      "id": 4,
      "content": "<mask>",
      "single_word": false,
      "lstrip": false,
      "rstrip": false,
      "normalized": false,
      "special": true
    }
  ],
  "normalizer": null,
  "pre_tokenizer": {
    "type": "ByteLevel",
    "add_prefix_space": true,
    "trim_offsets": true,
    "use_regex": true
  },
  "post_processor": null,
  "decoder": {
    "type": "ByteLevel",
    "add_prefix_space": true,
    "trim_offsets": true,
    "use_regex": true
  },
  "model": {
    "type": "BPE",
    "dropout": null,
    "unk_token": null,
    "continuing_subword_prefix": null,
    "end_of_word_suffix": null,
    "fuse_unk": false,
    "byte_fallback": false,
    "ignore_merges": false,
    "vocab": {
      "<pad>": 0,
      "<s>": 1,
      "</s>": 2,
      "<unk>": 3,
      "<mask>": 4,
      "!": 5,
      "$": 6,
      "%": 7,
      "&": 8,
      "(": 9,
      ")": 10,
      "+": 11,
      ",": 12,
      "-": 13,
      ".": 14,
      "/": 15,
      "0": 16,
      "1": 17,
      "2": 18,
      "3": 19,
      "4": 20,
      "5": 21,
      "6": 22,
      "7": 23,
      "8": 24,
      "9": 25,
      ":": 26,
      ";": 27,
      "?": 28,
      "A": 29,
      "B": 30,
      "C": 31,
      "D": 32,
      "E": 33,
      "F": 34,
      "G": 35,
      "H": 36,
      "I": 37,
      "J": 38,
      "K": 39,
      "L": 40,
      "M": 41,
      "N": 42,
      "O": 43,
      "P": 44,
      "Q": 45,
      "R": 46,
      "S": 47,
      "T": 48,
      "U": 49,
      "V": 50,
      "W": 51,
      "X": 52,
      "Y": 53,
      "Z": 54,
      "[": 55,
      "]": 56,
      "a": 57,
      "b": 58,
      "c": 59,
      "d": 60,
      "e": 61,
      "f": 62,
      "g": 63,
      "h": 64,
      "i": 65,
      "j": 66,
      "k": 67,
      "l": 68,
      "m": 69,
      "n": 70,
      "o": 71,
      "p": 72,
      "q": 73,
      "r": 74,
      "s": 75,
      "t": 76,
      "u": 77,
      "v": 78,
      "w": 79,
      "x": 80,
      "y": 81,
      "z": 82,
      "£": 83,
      "¤": 84,
      "¶": 85,
      "¼": 86,
      "Â": 87,
      "Ã": 88,
      "Ċ": 89,
      "č": 90,
      "Ġ": 91,
      "Ħ": 92,
      "ĸ": 93,
      "ľ": 94,
      "Ł": 95,
      "en": 96,
      "er": 97,
      "Ġd": 98,
      "in": 99,
      "Ġt": 100,
      "ch": 101,
      "Ġa": 102,
      "on": 103,
      "Ġth": 104,
      "es": 105,
      "is": 106,
      "un": 107,
      "Ġw": 108,
      "it": 109,
      "Ġs": 110,
      "at": 111,
      "čĊ": 112,
      "ie": 113,
      "Ġthe": 114,
      "or": 115,
      "re": 116,
      "an": 117,
      "ich": 118,
      "Ġb": 119,
      "ion": 120,
      "Ġin": 121,
      "Ġo": 122,
      "Ġm": 123,
      "al": 124,
      "Ġf": 125,
      "ar": 126,
      "ro": 127,
      "te": 128,
      "Ġe": 129,
      "le": 130,
      "Ġp": 131,
      "ent": 132,
      "Ġh": 133,
      "Ġn": 134,
      "Ġan": 135,
      "Ġc": 136,
      "ge": 137,
      "ung": 138,
      "Ġun": 139,
      "Ã¼": 140,
      "Ã¤": 141,
      "Ġdie": 142,
      "Ġof": 143,
      "Ġto": 144,
      "st": 145,
      "Ġder": 146,
      "Ġv": 147,
      "as": 148,
      "om": 149,
      "ĠE": 150,
      "Ġbe": 151,
      "ll": 152,
      "ĠI": 153,
      "ur": 154,
      "ing": 155,
      "Ġand": 156,
      "ĠA": 157,
      "us": 158,
      "Ġis": 159,
      "ed": 160,
      "ir": 161,
      "Ġund": 162,
      "ig": 163,
      "ÃŁ": 164,
      "ĠS": 165,
      "Ġz": 166,
      "ĠM": 167,
      "Ġein": 168,
      "ra": 169,
      "ĠP": 170,
      "em": 171,
      "ic": 172,
      "Ġg": 173,
      "im": 174,
      "ut": 175,
      "eit": 176,
      "icht": 177,
      "ĠB": 178,
      "ies": 179,
      "el": 180,
      "Ġre": 181,
      "ol": 182,
      "omm": 183,
      "ĠD": 184,
      "der": 185,
      "sch": 186,
      "am": 187,
      "ten": 188,
      "ation": 189,
      "ĠT": 190,
      "ĠW": 191,
      "ter": 192,
      "ul": 193,
      "den": 194,
      "rop": 195,
      "lich": 196,
      "ĠF": 197,
      "ve": 198,
      "il": 199,
      "ber": 200,
      "Ġzu": 201,
      "ct": 202,
      "Ġthat": 203,
      "hr": 204,
      "gen": 205,
      "ĠK": 206,
      "et": 207,
      "id": 208,
      "Ã¶": 209,
      "Ġwh": 210,
      "Ġau": 211,
      "Ã¼r": 212,
      "ĠR": 213,
      "Ġda": 214,
      "Ġl": 215,
      "isch": 216,
      "ĠV": 217,
      "Ġk": 218,
      "Ġden": 219,
      "ere": 220,
      "urop": 221,
      "ĠG": 222,
      "Ġfor": 223,
      "ot": 224,
      "ĠC": 225,
      "ab": 226,
      "um": 227,
      "ly": 228,
      "ĠH": 229,
      "iss": 230,
      "Ġwir": 231,
      "Ġon": 232,
      "ein": 233,
      "res": 234,
      "ĠEurop": 235,
      "Ġwe": 236,
      "Ġge": 237,
      "ier": 238,
      "ĠU": 239,
      "Ġal": 240,
      "Ġdies": 241,
      "Ġso": 242,
      "Ġim": 243,
      "de": 244,
      "ĠTh": 245,
      "os": 246,
      "ort": 247,
      "ff": 248,
      "ĠdaÃŁ": 249,
      "ommiss": 250,
      "Ġcon": 251,
      "Ġthis": 252,
      "ce": 253,
      "Ġver": 254,
      "ver": 255,
      "Ġvon": 256,
      "est": 257,
      "men": 258,
      "ommission": 259,
      "ĠfÃ¼r": 260,
      "Ġit": 261,
      "Ġpro": 262,
      "Ġist": 263,
      "and": 264,
      "Ġer": 265,
      "ft": 266,
      "ach": 267,
      "Ġare": 268,
      "Ġauf": 269,
      "Ġst": 270,
      "kt": 271,
      "ĠL": 272,
      "Ġha": 273,
      "ment": 274,
      "Ġas": 275,
      "Ġnicht": 276,
      "ill": 277,
      "ĠUn": 278,
      "Ġdes": 279,
      "ĠVer": 280,
      "Ġnot": 281,
      "uld": 282,
      "ĠIn": 283,
      "ith": 284,
      "Ġdas": 285,
      "ischen": 286,
      "ould": 287,
      "Ġwhich": 288,
      "ow": 289,
      "Ġde": 290,
      "ess": 291,
      "Ġne": 292,
      "Ġwith": 293,
      "op": 294,
      "ĠZ": 295,
      "ik": 296,
      "pp": 297,
      "la": 298,
      "ust": 299,
      "ungen": 300,
      "Ġhave": 301,
      "her": 302,
      "ind": 303,
      "ts": 304,
      "Ġwer": 305,
      "Ġals": 306,
      "ĠN": 307,
      "tr": 308,
      "ĠEurope": 309,
      "Ġeine": 310,
      "Ġj": 311,
      "ident": 312,
      "iv": 313,
      "Ġes": 314,
      "ate": 315,
      "ive": 316,
      "for": 317,
      "Ġwerden": 318,
      "Ġdem": 319,
      "ament": 320,
      "Ġse": 321,
      "ĠRe": 322,
      "ĠPar": 323,
      "Ã¤n": 324,
      "end": 325,
      "ak": 326,
      "Ã¼ber": 327,
      "ial": 328,
      "sp": 329,
      "Ġle": 330,
      "Ġex": 331,
      "Ġmit": 332,
      "ens": 333,
      "if": 334,
      "qu": 335,
      "Ġich": 336,
      "Ġco": 337,
      "ity": 338,
      "ay": 339,
      "ann": 340,
      "ib": 341,
      "ant": 342,
      "lie": 343,
      "Ġall": 344,
      "Ġr": 345,
      "Ġsu": 346,
      "Ġ-": 347,
      "Ġwill": 348,
      "ĠThe": 349,
      "ĠSt": 350,
      "ne": 351,
      "Ġvor": 352,
      "und": 353,
      "nen": 354,
      "we": 355,
      "ck": 356,
      "ĠAn": 357,
      "Ġauch": 358,
      "ĠParl": 359,
      "ah": 360,
      "hal": 361,
      "Ġy": 362,
      "ht": 363,
      "Ġuns": 364,
      "Ġsich": 365,
      "00": 366,
      "aus": 367,
      "sen": 368,
      "ungs": 369,
      "uÃŁ": 370,
      "ug": 371,
      "err": 372,
      "Ġby": 373,
      "ĠCommission": 374,
      "ste": 375,
      "Ġab": 376,
      "Ġ1": 377,
      "och": 378,
      "igen": 379,
      "ĠMr": 380,
      "ĠUnion": 381,
      "ĠEuropean": 382,
      "ĠÃ¼ber": 383,
      "Ġsh": 384,
      "scha": 385,
      "pe": 386,
      "ions": 387,
      "hen": 388,
      "Ġhab": 389,
      "Ġres": 390,
      "Ġme": 391,
      "ĠFra": 392,
      "ain": 393,
      "ern": 394,
      "ges": 395,
      "Ġhas": 396,
      "port": 397,
      "iel": 398,
      "ĠWe": 399,
      "ĠHerr": 400,
      "art": 401,
      "Ġum": 402,
      "ted": 403,
      "Ġaus": 404,
      "ad": 405,
      "Ġat": 406,
      "rÃ¤": 407,
      "ben": 408,
      "uf": 409,
      "schaft": 410,
      "ĠKommission": 411,
      "olit": 412,
      "Ġor": 413,
      "ers": 414,
      "ĠBe": 415,
      "ĠIch": 416,
      "Ġwird": 417,
      "ĠEn": 418,
      "ure": 419,
      "Ġwie": 420,
      "ien": 421,
      "Ġsind": 422,
      "uch": 423,
      "ze": 424,
      "me": 425,
      "Ġdo": 426,
      "ĠDie": 427,
      "Ġhat": 428,
      "ahr": 429,
      "Ġwas": 430,
      "itte": 431,
      "ist": 432,
      "ĠJ": 433,
      "up": 434,
      "ord": 435,
      "Ġsch": 436,
      "ĠAus": 437,
      "chte": 438,
      "heit": 439,
      "etz": 440,
      "llen": 441,
      "our": 442,
      "ĠSch": 443,
      "ĠPro": 444,
      "ĠWir": 445,
      "enn": 446,
      "Ġcom": 447,
      "be": 448,
      "Ġi": 449,
      "gr": 450,
      "Ġhaben": 451,
      "keit": 452,
      "Ġalso": 453,
      "Ġwould": 454,
      "ische": 455,
      "Ġzur": 456,
      "ĠEr": 457,
      "tz": 458,
      "ĠEuropÃ¤": 459,
      "Ġthere": 460,
      "eren": 461,
      "ĠÃ": 462,
      "ĠVor": 463,
      "Ġdar": 464,
      "lichen": 465,
      "rom": 466,
      "ĠO": 467,
      "beit": 468,
      "all": 469,
      "ĠBer": 470,
      "ue": 471,
      "ise": 472,
      "Ġreg": 473,
      "ĠAr": 474,
      "Ġsie": 475,
      "ĠmÃ¶": 476,
      "ese": 477,
      "ect": 478,
      "ard": 479,
      "se": 480,
      "99": 481,
      "Ġshould": 482,
      "gt": 483,
      "Ġman": 484,
      "ĠAb": 485,
      "ous": 486,
      "ĠPres": 487,
      "Ġhe": 488,
      "rÃ¤s": 489,
      "dern": 490,
      "Ġent": 491,
      "ember": 492,
      "ates": 493,
      "ige": 494,
      "Ġdi": 495,
      "ran": 496,
      "Ġsein": 497,
      "aten": 498,
      "ations": 499,
      "Ġ2": 500,
      "rÃ¤sident": 501,
      "esch": 502,
      "Ġwor": 503,
      "Ġinter": 504,
      "Ġour": 505,
      "Ġag": 506,
      "Ã¶n": 507,
      "ert": 508,
      "ĠEnt": 509,
      "Ġmust": 510,
      "Ġam": 511,
      "cht": 512,
      "od": 513,
      "ou": 514,
      "ational": 515,
      "Ġad": 516,
      "ĠPresident": 517,
      "du": 518,
      "urch": 519,
      "ther": 520,
      "Ġfa": 521,
      "Ã¤r": 522,
      "th": 523,
      "Ġen": 524,
      "ical": 525,
      "Ġfrom": 526,
      "Ġeiner": 527,
      "lem": 528,
      "iament": 529,
      "Ġqu": 530,
      "ĠParlament": 531,
      "Ġdiese": 532,
      "Ġbut": 533,
      "ip": 534,
      "Ġunter": 535,
      "Ã¼s": 536,
      "ud": 537,
      "cial": 538,
      "ick": 539,
      "able": 540,
      "Ġus": 541,
      "ore": 542,
      "oun": 543,
      "Ã¤t": 544,
      "Ġbei": 545,
      "ition": 546,
      "ommen": 547,
      "ĠMit": 548,
      "ult": 549,
      "Ġpart": 550,
      "ĠBericht": 551,
      "ĠPrÃ¤sident": 552,
      "age": 553,
      "out": 554,
      "form": 555,
      "ake": 556,
      "Ġbeen": 557,
      "Ġprop": 558,
      "ĠIt": 559,
      "rit": 560,
      "ĠEin": 561,
      "Ġnach": 562,
      "Ġapp": 563,
      "Ġcomm": 564,
      "ok": 565,
      "anz": 566,
      "Ã¼hr": 567,
      "ang": 568,
      "ast": 569,
      "ĠSie": 570,
      "Ġcoun": 571,
      "Ġch": 572,
      "ĠGr": 573,
      "igh": 574,
      "ĠkÃ¶n": 575,
      "ĠParliament": 576,
      "Ġdis": 577,
      "gra": 578,
      "ction": 579,
      "Ã¼n": 580,
      "vel": 581,
      "Ġdieser": 582,
      "Ġcomp": 583,
      "Ġsa": 584,
      "ution": 585,
      "cc": 586,
      "ub": 587,
      "imm": 588,
      "Ġgo": 589,
      "ute": 590,
      "Ġcan": 591,
      "Ġyou": 592,
      "ĠMember": 593,
      "ome": 594,
      "ary": 595,
      "elt": 596,
      "con": 597,
      "ĠmÃ¶chte": 598,
      "Ġbet": 599,
      "Ġpo": 600,
      "olle": 601,
      "chen": 602,
      "liche": 603,
      "Ã¶r": 604,
      "ĠGe": 605,
      "Ã¼ssen": 606,
      "Ġcountr": 607,
      "Ġob": 608,
      "Ġeinen": 609,
      "Ġreport": 610,
      "mp": 611,
      "ass": 612,
      "ank": 613,
      "iz": 614,
      "Ġste": 615,
      "Ġdurch": 616,
      "Ġits": 617,
      "ear": 618,
      "ish": 619,
      "ru": 620,
      "ierung": 621,
      "ĠEuropÃ¤ischen": 622,
      "ĠmÃ¼ssen": 623,
      "ieren": 624,
      "sta": 625,
      "Ġpos": 626,
      "glie": 627,
      "reat": 628,
      "Ġgro": 629,
      "Ġnoch": 630,
      "ĠEU": 631,
      "ĠmuÃŁ": 632,
      "og": 633,
      "ĠThis": 634,
      "Ġpropos": 635,
      "ger": 636,
      "ike": 637,
      "oc": 638,
      "Ġinc": 639,
      "hl": 640,
      "lin": 641,
      "Ġpr": 642,
      "ight": 643,
      "Ġmore": 644,
      "zu": 645,
      "Ġpolit": 646,
      "cil": 647,
      "Ġsoll": 648,
      "Ġkann": 649,
      "Ġmein": 650,
      "rag": 651,
      "Ġgen": 652,
      "nah": 653,
      "Ġlike": 654,
      "ely": 655,
      "mer": 656,
      "ms": 657,
      "Ġzw": 658,
      "pt": 659,
      "Ġthese": 660,
      "Ġconc": 661,
      "ally": 662,
      "ĠReg": 663,
      "Ġspe": 664,
      "Ġcons": 665,
      "he": 666,
      "fen": 667,
      "Ġnur": 668,
      "Ġzum": 669,
      "Ġber": 670,
      "ĠEs": 671,
      "Ġfin": 672,
      "Ġdiesem": 673,
      "Ġ(": 674,
      "ĠMitglie": 675,
      "Ġneed": 676,
      "Ġma": 677,
      "lo": 678,
      "Ġimp": 679,
      "ĠFrau": 680,
      "oll": 681,
      "ance": 682,
      "olic": 683,
      "blem": 684,
      "ose": 685,
      "fore": 686,
      "Ġjed": 687,
      "gan": 688,
      "ress": 689,
      "ĠkÃ¶nnen": 690,
      "Ġwur": 691,
      "Ġpre": 692,
      "sten": 693,
      "ĠDas": 694,
      "Ã¼ck": 695,
      "Ġih": 696,
      "igkeit": 697,
      "aÃŁ": 698,
      "Ġra": 699,
      "gram": 700,
      "rie": 701,
      "yste": 702,
      "Ġother": 703,
      "glich": 704,
      "Ġbec": 705,
      "ktion": 706,
      "schen": 707,
      "uss": 708,
      "Ġwenn": 709,
      "hmen": 710,
      "ime": 711,
      "Ġbes": 712,
      "Ġoder": 713,
      "ments": 714,
      "Ġkein": 715,
      "Ġcont": 716,
      "Ġaber": 717,
      "Ġwho": 718,
      "Ġte": 719,
      "Ġsp": 720,
      "ĠCoun": 721,
      "Ġvery": 722,
      "ĠComm": 723,
      "Ġtheir": 724,
      "ffen": 725,
      "wer": 726,
      "ider": 727,
      "ĠCouncil": 728,
      "Ġno": 729,
      "sam": 730,
      "ap": 731,
      "olitik": 732,
      "Ġint": 733,
      "iert": 734,
      "tschaft": 735,
      "ced": 736,
      "Ġpolic": 737,
      "Ġpe": 738,
      "wo": 739,
      "Ġimport": 740,
      "ĠStates": 741,
      "ĠMitglied": 742,
      "000": 743,
      "ke": 744,
      "ative": 745,
      "Ġthey": 746,
      "are": 747,
      "sicht": 748,
      "Ġges": 749,
      "wick": 750,
      "Ġweit": 751,
      "ause": 752,
      "lic": 753,
      "ag": 754,
      "ject": 755,
      "ittel": 756,
      "au": 757,
      "Ġone": 758,
      "rat": 759,
      "ide": 760,
      "lieÃŁ": 761,
      "Ġwar": 762,
      "reich": 763,
      "Ġgegen": 764,
      "sib": 765,
      "Ġwork": 766,
      "stit": 767,
      "ark": 768,
      "ement": 769,
      "pport": 770,
      "Ġwhat": 771,
      "Ġup": 772,
      "ĠArbeit": 773,
      "lung": 774,
      "ention": 775,
      "Ġcountries": 776,
      "Ġsehr": 777,
      "one": 778,
      "Ġexp": 779,
      "Ã¤hr": 780,
      "ĠÃĦ": 781,
      "erv": 782,
      "rect": 783,
      "Ġout": 784,
      "Ġ199": 785,
      "Ġleg": 786,
      "ammen": 787,
      "ious": 788,
      "Ġihr": 789,
      "Ġabout": 790,
      "uropÃ¤": 791,
      "leich": 792,
      "ĠJahr": 793,
      "ri": 794,
      "velop": 795,
      "usammen": 796,
      "Ġhin": 797,
      "ĠMen": 798,
      "Ġmy": 799,
      "ĠKon": 800,
      "ugh": 801,
      "Ġeff": 802,
      "ĠMitgliedsta": 803,
      "Ġwo": 804,
      "ink": 805,
      "teil": 806,
      "mend": 807,
      "fÃ¼hr": 808,
      "che": 809,
      "utz": 810,
      "Ġif": 811,
      "ated": 812,
      "ĠDies": 813,
      "ĠUnter": 814,
      "Ġmo": 815,
      "ĠDe": 816,
      "erst": 817,
      "nung": 818,
      "ĠVorsch": 819,
      "Ġyear": 820,
      "atter": 821,
      "Ġacc": 822,
      "Ġeinem": 823,
      "ĠeuropÃ¤": 824,
      "Ġiss": 825,
      "Ġonly": 826,
      "Ġnew": 827,
      "Ã¤nd": 828,
      "ring": 829,
      "Ġdieses": 830,
      "Ġind": 831,
      "ice": 832,
      "Ġdec": 833,
      "ights": 834,
      "int": 835,
      "cess": 836,
      "cy": 837,
      "auf": 838,
      "ign": 839,
      "itu": 840,
      "assen": 841,
      "ĠMenschen": 842,
      "ities": 843,
      "Ġany": 844,
      "Ġhier": 845,
      "Ġdevelop": 846,
      "ople": 847,
      "Ã¼tz": 848,
      "Ġunser": 849,
      "Ġev": 850,
      "bar": 851,
      "mein": 852,
      "nder": 853,
      "onder": 854,
      "ase": 855,
      "Ġbecause": 856,
      "ility": 857,
      "Ġproposal": 858,
      "ever": 859,
      "Ġop": 860,
      "ĠRat": 861,
      "ĠÃĦnder": 862,
      "arbeit": 863,
      "ĠKolle": 864,
      "ong": 865,
      "ces": 866,
      "ĠFor": 867,
      "etzt": 868,
      "fe": 869,
      "iven": 870,
      "itÃ¤t": 871,
      "fahr": 872,
      "ism": 873,
      "lÃ¤": 874,
      "Ġtra": 875,
      "wend": 876,
      "chn": 877,
      "lear": 878,
      "Ã¤nder": 879,
      "Ġalle": 880,
      "ren": 881,
      "Ġmehr": 882,
      "tern": 883,
      "Ġpartic": 884,
      "halb": 885,
      "conom": 886,
      "lan": 887,
      "ĠMitgliedstaaten": 888,
      "ĠUm": 889,
      "Ġwicht": 890,
      "Ġsol": 891,
      "ĠGrund": 892,
      "Ġconcern": 893,
      "ree": 894,
      "igt": 895,
      "Ġtime": 896,
      "tet": 897,
      "ibt": 898,
      "Ġimportant": 899,
      "ĠDer": 900,
      "ĠAuf": 901,
      "iÃŁ": 902,
      "tre": 903,
      "ahl": 904,
      "irst": 905,
      "Ġpeople": 906,
      "Ġbereit": 907,
      "Ġagain": 908,
      "Ġintern": 909,
      "Ġnational": 910,
      "Ġper": 911,
      "Ġfe": 912,
      "Ġsub": 913,
      "ĠEntwick": 914,
      "Ġact": 915,
      "ular": 916,
      "ĠLe": 917,
      "Ġpolicy": 918,
      "unity": 919,
      "geb": 920,
      "wir": 921,
      "uman": 922,
      "xt": 923,
      "ild": 924,
      "Ġdam": 925,
      "llt": 926,
      "sche": 927,
      "fl": 928,
      "Ġjust": 929,
      "ittee": 930,
      "ĠSo": 931,
      "lag": 932,
      "alt": 933,
      "Ġwurde": 934,
      "ystem": 935,
      "los": 936,
      "Ġfact": 937,
      "Ġquest": 938,
      "ia": 939,
      "Ġtherefore": 940,
      "Ġtran": 941,
      "chts": 942,
      "mal": 943,
      "Ġvie": 944,
      "ĠVerb": 945,
      "lar": 946,
      "Ġdirect": 947,
      "ĠCh": 948,
      "halten": 949,
      "land": 950,
      "ĠRicht": 951,
      "wor": 952,
      "trÃ¤": 953,
      "Ġsome": 954,
      "ings": 955,
      "iden": 956,
      "Ġprov": 957,
      "ituation": 958,
      "Ġihre": 959,
      "ote": 960,
      "ite": 961,
      "Ġinv": 962,
      "ner": 963,
      "ĠFrage": 964,
      "ures": 965,
      "ĠGem": 966,
      "Ġkon": 967,
      "Ġsupport": 968,
      "Ġnow": 969,
      "lle": 970,
      "ives": 971,
      "Ġ3": 972,
      "Ġtake": 973,
      "amp": 974,
      "Ġins": 975,
      "nahmen": 976,
      "Ġdeb": 977,
      "pect": 978,
      "unkt": 979,
      "resent": 980,
      "Ġinto": 981,
      "ied": 982,
      "ĠZusammen": 983,
      "ack": 984,
      "schlieÃŁ": 985,
      "ĠTe": 986,
      "ire": 987,
      "kommen": 988,
      "ine": 989,
      "erung": 990,
      "Ġsay": 991,
      "fr": 992,
      "Ġrec": 993,
      "Ġproblem": 994,
      "ĠArt": 995,
      "fol": 996,
      "Ġeconom": 997,
      "isation": 998,
      "owever": 999,
      "ĠGemein": 1000,
      "zial": 1001,
      "ĠEuropa": 1002,
      "ĠSe": 1003,
      "Ġmake": 1004,
      "vern": 1005,
      "Ġdisc": 1006,
      "now": 1007,
      "Ġsuch": 1008,
      "pon": 1009,
      "Ġdiff": 1010,
      "ific": 1011,
      "ĠÃľ": 1012,
      "gel": 1013,
      "legen": 1014,
      "Ġprodu": 1015,
      "hand": 1016,
      "Ġviel": 1017,
      "Ġparticular": 1018,
      "Ġson": 1019,
      "rauch": 1020,
      "iti": 1021,
      "igung": 1022,
      "ken": 1023,
      "ors": 1024,
      "ans": 1025,
      "ĠAs": 1026,
      "ument": 1027,
      "ĠMaÃŁ": 1028,
      "Ġclear": 1029,
      "Ġway": 1030,
      "ĠEuropÃ¤ische": 1031,
      "ry": 1032,
      "led": 1033,
      "ĠÃľber": 1034,
      "nehmen": 1035,
      "fÃ¼r": 1036,
      "ov": 1037,
      "stÃ¼tz": 1038,
      "mit": 1039,
      "wie": 1040,
      "ame": 1041,
      "Ġgew": 1042,
      "Ã¤ch": 1043,
      "ĠZeit": 1044,
      "olog": 1045,
      "Ġrights": 1046,
      "Ġrel": 1047,
      "ĠÃĦnderungs": 1048,
      "Ġhuman": 1049,
      "Ġgr": 1050,
      "ween": 1051,
      "Ġbeing": 1052,
      "Ġwhen": 1053,
      "hÃ¶r": 1054,
      "Ġbetween": 1055,
      "iger": 1056,
      "ĠFin": 1057,
      "ision": 1058,
      "Ġbas": 1059,
      "Ġamend": 1060,
      "Ġdiesen": 1061,
      "Ġref": 1062,
      "get": 1063,
      "Ġjedoch": 1064,
      "zie": 1065,
      "kte": 1066,
      "ty": 1067,
      "ual": 1068,
      "Ġgibt": 1069,
      "Ġtak": 1070,
      "Ġmade": 1071,
      "Ġsondern": 1072,
      "Ġbest": 1073,
      "forder": 1074,
      "atz": 1075,
      "ues": 1076,
      "leg": 1077,
      "Ġfirst": 1078,
      "stitution": 1079,
      "sible": 1080,
      "formation": 1081,
      "issen": 1082,
      "ob": 1083,
      "ural": 1084,
      "Ġthan": 1085,
      "ĠAussch": 1086,
      "Ġmark": 1087,
      "eration": 1088,
      "zeit": 1089,
      "ereich": 1090,
      "Ġmich": 1091,
      "Ġpolitical": 1092,
      "hn": 1093,
      "Ġknow": 1094,
      "Ġoff": 1095,
      "iff": 1096,
      "bst": 1097,
      "Ġregard": 1098,
      "Ġeines": 1099,
      "ĠIh": 1100,
      "gin": 1101,
      "Ġdenn": 1102,
      "linie": 1103,
      "ange": 1104,
      "Ġemp": 1105,
      "Ġthem": 1106,
      "Ġdamit": 1107,
      "ĠHerrn": 1108,
      "tw": 1109,
      "Ġdann": 1110,
      "weise": 1111,
      "Ġar": 1112,
      "Ġthose": 1113,
      "Ġadd": 1114,
      "ĠgroÃŁ": 1115,
      "isten": 1116,
      "icher": 1117,
      "halt": 1118,
      "cept": 1119,
      "Ġover": 1120,
      "Ġpla": 1121,
      "Ġstr": 1122,
      "Ġwere": 1123,
      "ĠMein": 1124,
      "uen": 1125,
      "rei": 1126,
      "Ġzwischen": 1127,
      "Ġrep": 1128,
      "enz": 1129,
      "ĠBereich": 1130,
      "ĠGes": 1131,
      "day": 1132,
      "ĠBed": 1133,
      "Ġkeine": 1134,
      "Ġwel": 1135,
      "Ġconsider": 1136,
      "Ġthink": 1137,
      "ordnung": 1138,
      "str": 1139,
      "ĠHaus": 1140,
      "ĠLand": 1141,
      "Ġanderen": 1142,
      "isk": 1143,
      "ertain": 1144,
      "weit": 1145,
      "els": 1146,
      "erd": 1147,
      "Ġbereits": 1148,
      "Ġagre": 1149,
      "Ġeinz": 1150,
      "acht": 1151,
      "Ġganz": 1152,
      "wn": 1153,
      "Ġunder": 1154,
      "ised": 1155,
      "Ġrequ": 1156,
      "Ġrespon": 1157,
      "elbst": 1158,
      "ublic": 1159,
      "eschÃ¤": 1160,
      "ett": 1161,
      "Ġinternational": 1162,
      "tro": 1163,
      "Ġheute": 1164,
      "Ġquestion": 1165,
      "ĠCommissioner": 1166,
      "Ġsocial": 1167,
      "ater": 1168,
      "imin": 1169,
      "Ġass": 1170,
      "ĠeuropÃ¤ischen": 1171,
      "geord": 1172,
      "Ġissue": 1173,
      "Ġwithin": 1174,
      "Ġmarket": 1175,
      "ĠEntwicklung": 1176,
      "Ġpoint": 1177,
      "Ġhabe": 1178,
      "ld": 1179,
      "Ġac": 1180,
      "geordne": 1181,
      "ats": 1182,
      "ating": 1183,
      "Ġgemein": 1184,
      "gend": 1185,
      "Ġwhere": 1186,
      "ha": 1187,
      "Ġend": 1188,
      "Ġsowie": 1189,
      "Ġunsere": 1190,
      "pr": 1191,
      "Ġnat": 1192,
      "ĠSta": 1193,
      "Ġgreat": 1194,
      "Ġrem": 1195,
      "uro": 1196,
      "Ġro": 1197,
      "sel": 1198,
      "chten": 1199,
      "fall": 1200,
      "Ã¤l": 1201,
      "isen": 1202,
      "ĠCommittee": 1203,
      "ĠSte": 1204,
      "Ġho": 1205,
      "iron": 1206,
      "ĠwÃ¼r": 1207,
      "lagen": 1208,
      "Ġfund": 1209,
      "Ġstat": 1210,
      "Ġsee": 1211,
      "Ġcour": 1212,
      "read": 1213,
      "Ġmany": 1214,
      "ient": 1215,
      "ĠRechts": 1216,
      "ionen": 1217,
      "Ġbelie": 1218,
      "ragen": 1219,
      "rechen": 1220,
      "ĠBÃ¼r": 1221,
      "Ġprogram": 1222,
      "ene": 1223,
      "enden": 1224,
      "Ġfest": 1225,
      "ateg": 1226,
      "inc": 1227,
      "fin": 1228,
      "hin": 1229,
      "Ã¤ndern": 1230,
      "eschÃ¤ft": 1231,
      "icult": 1232,
      "lement": 1233,
      "viron": 1234,
      "Ġgeht": 1235,
      "very": 1236,
      "achen": 1237,
      "ved": 1238,
      "Ġright": 1239,
      "ĠParlaments": 1240,
      "Ġdoes": 1241,
      "vironment": 1242,
      "inis": 1243,
      "Ġweil": 1244,
      "Ġbeste": 1245,
      "ĠCon": 1246,
      "ĠAbgeordne": 1247,
      "Ġyears": 1248,
      "isl": 1249,
      "Ġcertain": 1250,
      "Ġla": 1251,
      "pro": 1252,
      "ulation": 1253,
      "loy": 1254,
      "amen": 1255,
      "ĠMrs": 1256,
      "ile": 1257,
      "entlich": 1258,
      "Ġdevelopment": 1259,
      "Ġ4": 1260,
      "Ġweiter": 1261,
      "ĠMaÃŁnahmen": 1262,
      "welt": 1263,
      "ĠVorschlag": 1264,
      "stÃ¤nd": 1265,
      "Ġdirective": 1266,
      "Ġcann": 1267,
      "erein": 1268,
      "setz": 1269,
      "Ġfar": 1270,
      "Ġcannot": 1271,
      "feren": 1272,
      "Ġwant": 1273,
      "Ġfre": 1274,
      "nis": 1275,
      "Ġher": 1276,
      "ope": 1277,
      "act": 1278,
      "Ġhand": 1279,
      "ĠInter": 1280,
      "Ġ5": 1281,
      "mittel": 1282,
      "ional": 1283,
      "Ġorder": 1284,
      "ĠRichtlinie": 1285,
      "ull": 1286,
      "Ġdebate": 1287,
      "arkt": 1288,
      "entr": 1289,
      "Ġeven": 1290,
      "ĠStr": 1291,
      "Ġmeas": 1292,
      "rimin": 1293,
      "ĠCommunity": 1294,
      "Ġcould": 1295,
      "Ġeffect": 1296,
      "icherheit": 1297,
      "llung": 1298,
      "vention": 1299,
      "Ġdra": 1300,
      "ward": 1301,
      "itz": 1302,
      "Ġagainst": 1303,
      "piel": 1304,
      "Ġhere": 1305,
      "ĠWh": 1306,
      "Ġprote": 1307,
      "stimm": 1308,
      "ĠKo": 1309,
      "Ġbis": 1310,
      "Ġwieder": 1311,
      "Ġlie": 1312,
      "ĠThere": 1313,
      "Ġadop": 1314,
      "Ġmatter": 1315,
      "kehr": 1316,
      "Ġincl": 1317,
      "schie": 1318,
      "fÃ¼": 1319,
      "Ġresol": 1320,
      "gesch": 1321,
      "Ġsollten": 1322,
      "Ġwichtig": 1323,
      "oth": 1324,
      "ac": 1325,
      "Ġdenen": 1326,
      "Ġdarauf": 1327,
      "ving": 1328,
      "ĠMittel": 1329,
      "les": 1330,
      "ĠGemeinschaft": 1331,
      "hne": 1332,
      "nahme": 1333,
      "Ġunserer": 1334,
      "vernment": 1335,
      "Ġwirk": 1336,
      "Ġsystem": 1337,
      "orte": 1338,
      "ĠKollegen": 1339,
      "fahren": 1340,
      "kl": 1341,
      "vor": 1342,
      "Ġtechn": 1343,
      "Ġappro": 1344,
      "ĠAl": 1345,
      "Ġbelieve": 1346,
      "ĠGro": 1347,
      "ahmen": 1348,
      "ĠKommiss": 1349,
      "Ġfinan": 1350,
      "Ġaut": 1351,
      "ffe": 1352,
      "ĠWie": 1353,
      "Ġlegisl": 1354,
      "Ġeconomic": 1355,
      "Ġallem": 1356,
      "ĠDa": 1357,
      "ĠRahmen": 1358,
      "Ġview": 1359,
      "ready": 1360,
      "ough": 1361,
      "erson": 1362,
      "Ġger": 1363,
      "Ġask": 1364,
      "Ġtoo": 1365,
      "Ġdiscuss": 1366,
      "Ġtwo": 1367,
      "richt": 1368,
      "Ġalready": 1369,
      "Ġlevel": 1370,
      "eth": 1371,
      "udget": 1372,
      "Ġvote": 1373,
      "Ġdoch": 1374,
      "ĠMe": 1375,
      "geben": 1376,
      "fÃ¤": 1377,
      "ict": 1378,
      "iber": 1379,
      "Ġimmer": 1380,
      "Ġyour": 1381,
      "Ġsame": 1382,
      "Ġmir": 1383,
      "Ġhal": 1384,
      "ĠKommissar": 1385,
      "Ġmost": 1386,
      "bens": 1387,
      "Ġpublic": 1388,
      "Ġens": 1389,
      "Ġetw": 1390,
      "Ġwell": 1391,
      "isse": 1392,
      "gab": 1393,
      "Ã¶glich": 1394,
      "Ġagreement": 1395,
      "Ã¤ÃŁ": 1396,
      "Ġzwe": 1397,
      "Ġsollte": 1398,
      "gehen": 1399,
      "Ġenvironment": 1400,
      "Ġpar": 1401,
      "utions": 1402,
      "incip": 1403,
      "Ġselbst": 1404,
      "Ġprincip": 1405,
      "ĠdafÃ¼r": 1406,
      "Ġsagen": 1407,
      "trÃ¤ge": 1408,
      "itiative": 1409,
      "Ġevery": 1410,
      "ĠGeb": 1411,
      "ss": 1412,
      "itiz": 1413,
      "ĠHin": 1414,
      "Ġmon": 1415,
      "Ġcourse": 1416,
      "cted": 1417,
      "Ġletz": 1418,
      "ischer": 1419,
      "kon": 1420,
      "Ġhad": 1421,
      "Ġgemeinsam": 1422,
      "ds": 1423,
      "Ġincre": 1424,
      "Ġspec": 1425,
      "Ġsituation": 1426,
      "ĠWenn": 1427,
      "ĠUmwelt": 1428,
      "Ġgood": 1429,
      "Ġthen": 1430,
      "Ġsozial": 1431,
      "essen": 1432,
      "Ġfo": 1433,
      "ĠNach": 1434,
      "ĠWirtschaft": 1435,
      "ĠBÃ¼rger": 1436,
      "ian": 1437,
      "Ġbin": 1438,
      "Ġhel": 1439,
      "Ġange": 1440,
      "trag": 1441,
      "rechte": 1442,
      "Ġgu": 1443,
      "Ġgleich": 1444,
      "ade": 1445,
      "isierung": 1446,
      "Ġsc": 1447,
      "ory": 1448,
      "Ġown": 1449,
      "Ġvom": 1450,
      "Ġconf": 1451,
      "Ġverb": 1452,
      "Ġpossible": 1453,
      "Ã¤re": 1454,
      "inn": 1455,
      "eral": 1456,
      "bes": 1457,
      "Ġbring": 1458,
      "ĠZu": 1459,
      "lish": 1460,
      "ĠZiel": 1461,
      "ĠFraktion": 1462,
      "ondere": 1463,
      "Ġmuch": 1464,
      "lage": 1465,
      "Ġexamp": 1466,
      "Ġprocess": 1467,
      "ority": 1468,
      "Ġtoday": 1469,
      "ĠPolitik": 1470,
      "okrat": 1471,
      "scheid": 1472,
      "Ġmay": 1473,
      "Ġpresent": 1474,
      "ĠHa": 1475,
      "ritt": 1476,
      "Ġstill": 1477,
      "Ġreal": 1478,
      "Ġcitiz": 1479,
      "ĠThem": 1480,
      "ĠProblem": 1481,
      "ited": 1482,
      "uer": 1483,
      "2000": 1484,
      "satz": 1485,
      "Ġ2000": 1486,
      "ĠIm": 1487,
      "lemen": 1488,
      "Ġuse": 1489,
      "ster": 1490,
      "cond": 1491,
      "Ã¶s": 1492,
      "ispiel": 1493,
      "Ġlo": 1494,
      "ĠSp": 1495,
      "Ġihrer": 1496,
      "Ġser": 1497,
      "Ġsaid": 1498,
      "Ã¤m": 1499,
      "ages": 1500,
      "ently": 1501,
      "Ġmeasures": 1502,
      "Ġter": 1503,
      "Ġcountry": 1504,
      "ĠEuro": 1505,
      "Ġnum": 1506,
      "Ġcur": 1507,
      "operation": 1508,
      "Ġele": 1509,
      "Ġhope": 1510,
      "ĠHowever": 1511,
      "Ġaid": 1512,
      "Ġcommon": 1513,
      "ful": 1514,
      "Ġthro": 1515,
      "Ġcontin": 1516,
      "Ġfra": 1517,
      "Ġhigh": 1518,
      "ason": 1519,
      "such": 1520,
      "Ġmeine": 1521,
      "ĠIhnen": 1522,
      "punkt": 1523,
      "ves": 1524,
      "ĠDem": 1525,
      "Ġhis": 1526,
      "hil": 1527,
      "wort": 1528,
      "Ġgesch": 1529,
      "bat": 1530,
      "Ġtransp": 1531,
      "Ġwen": 1532,
      "Ġserv": 1533,
      "Ġcase": 1534,
      "Ã¼ÃŁ": 1535,
      "Ġwurden": 1536,
      "arge": 1537,
      "io": 1538,
      "ting": 1539,
      "ĠÃ¶": 1540,
      "Ġhow": 1541,
      "Ġjetzt": 1542,
      "Ġrespect": 1543,
      "ĠOr": 1544,
      "way": 1545,
      "red": 1546,
      "ĠThat": 1547,
      "gangen": 1548,
      "Ġarea": 1549,
      "ĠDiese": 1550,
      "reit": 1551,
      "Ġtaken": 1552,
      "Ġput": 1553,
      "ĠProgram": 1554,
      "work": 1555,
      "Ã¼rlich": 1556,
      "Ġfut": 1557,
      "Ġlast": 1558,
      "luÃŁ": 1559,
      "ĠLÃ¤nder": 1560,
      "alk": 1561,
      "Ã¼hren": 1562,
      "halts": 1563,
      "zeug": 1564,
      "chie": 1565,
      "erstatter": 1566,
      "Ã¶l": 1567,
      "Ġdazu": 1568,
      "Ġfuture": 1569,
      "vers": 1570,
      "Ã¤lt": 1571,
      "Ġexample": 1572,
      "antrag": 1573,
      "Ġable": 1574,
      "Ġbudget": 1575,
      "Ġorgan": 1576,
      "Ġreason": 1577,
      "ĠHer": 1578,
      "ruck": 1579,
      "iberal": 1580,
      "zus": 1581,
      "erg": 1582,
      "bei": 1583,
      "omen": 1584,
      "Ġposition": 1585,
      "stru": 1586,
      "Ġwollen": 1587,
      "Ã¶glichkeit": 1588,
      "Ġpra": 1589,
      "Ġnun": 1590,
      "ail": 1591,
      "Ġinterest": 1592,
      "trib": 1593,
      "Ġthrough": 1594,
      "Ġobject": 1595,
      "Ġposit": 1596,
      "Ġbez": 1597,
      "genommen": 1598,
      "orteur": 1599,
      "Ġest": 1600,
      "pporteur": 1601,
      "ĠunterstÃ¼tz": 1602,
      "Ġcitizens": 1603,
      "ĠDes": 1604,
      "ically": 1605,
      "Ġgroup": 1606,
      "antwort": 1607,
      "Ġatt": 1608,
      "ĠBerichterstatter": 1609,
      "Ġamendments": 1610,
      "Ġohne": 1611,
      "wohl": 1612,
      "Ġboth": 1613,
      "Ġcar": 1614,
      "Ġfinancial": 1615,
      "Ġinvol": 1616,
      "Ġfind": 1617,
      "Ġeinige": 1618,
      "schieden": 1619,
      "arm": 1620,
      "aking": 1621,
      "Ġ1999": 1622,
      "ĠFinanz": 1623,
      "Ġinformation": 1624,
      "ability": 1625,
      "klÃ¤r": 1626,
      "Ġnumber": 1627,
      "ĠwÃ¼rde": 1628,
      "ĠmÃ¶glich": 1629,
      "ĠBut": 1630,
      "loyment": 1631,
      "uring": 1632,
      "Ġneuen": 1633,
      "Ġrapporteur": 1634,
      "tend": 1635,
      "Ġwhy": 1636,
      "Ġausge": 1637,
      "Ġschon": 1638,
      "ĠQ": 1639,
      "ĠSicherheit": 1640,
      "ices": 1641,
      "ĠVerein": 1642,
      "ouse": 1643,
      "Ġareas": 1644,
      "Ġachie": 1645,
      "ph": 1646,
      "ĠÃĦnderungsan": 1647,
      "Ġauth": 1648,
      "ĠAbstimm": 1649,
      "besondere": 1650,
      "itÃ¤": 1651,
      "ĠAu": 1652,
      "ĠMon": 1653,
      "Ġget": 1654,
      "omp": 1655,
      "Ġthank": 1656,
      "tellt": 1657,
      "Ġlegal": 1658,
      "fung": 1659,
      "Ġaction": 1660,
      "immt": 1661,
      "ĠIf": 1662,
      "gese": 1663,
      "Ġprev": 1664,
      "fra": 1665,
      "Ġstand": 1666,
      "heiten": 1667,
      "Ġmeiner": 1668,
      "ĠJahren": 1669,
      "Ã¶ÃŁ": 1670,
      "Ġneg": 1671,
      "zeich": 1672,
      "Ġensure": 1673,
      "derung": 1674,
      "ĠFl": 1675,
      "Ġcompet": 1676,
      "Ġ.": 1677,
      "ital": 1678,
      "urther": 1679,
      "ential": 1680,
      "licher": 1681,
      "Ġnecess": 1682,
      "ince": 1683,
      "Ġopin": 1684,
      "ĠÃĸ": 1685,
      "werb": 1686,
      "ĠGroup": 1687,
      "Ġbegr": 1688,
      "eln": 1689,
      "alth": 1690,
      "reichen": 1691,
      "air": 1692,
      "gest": 1693,
      "ĠY": 1694,
      "dem": 1695,
      "ablish": 1696,
      "Ġtun": 1697,
      "Ġmaj": 1698,
      "Ġsom": 1699,
      "Ġtr": 1700,
      "politik": 1701,
      "Ã¤tz": 1702,
      "unden": 1703,
      "stellen": 1704,
      "ĠkÃ¶nn": 1705,
      "ether": 1706,
      "Ġ200": 1707,
      "ount": 1708,
      "Ġplace": 1709,
      "ĠEntschlieÃŁ": 1710,
      "tegr": 1711,
      "ĠBeit": 1712,
      "Ġcooperation": 1713,
      "ĠAusschuÃŁ": 1714,
      "inister": 1715,
      "Ġallen": 1716,
      "ĠGebie": 1717,
      "ble": 1718,
      "Ġeinmal": 1719,
      "ĠBei": 1720,
      "Ġdiffer": 1721,
      "Ġdemoc": 1722,
      "ĠFragen": 1723,
      "Ġinsbesondere": 1724,
      "Ġetwas": 1725,
      "ret": 1726,
      "ĠAfr": 1727,
      "ismus": 1728,
      "ekt": 1729,
      "ktur": 1730,
      "Ġneue": 1731,
      "Ã¤ng": 1732,
      "Ġ6": 1733,
      "ĠKos": 1734,
      "Ġlong": 1735,
      "Ġwissen": 1736,
      "ĠwÃ¤re": 1737,
      "Ġandere": 1738,
      "affen": 1739,
      "ĠFall": 1740,
      "Ġmain": 1741,
      "ierungs": 1742,
      "Ġmeans": 1743,
      "Ġestablish": 1744,
      "assung": 1745,
      "ĠNamen": 1746,
      "grund": 1747,
      "ĠKosov": 1748,
      "ost": 1749,
      "Ġsim": 1750,
      "ften": 1751,
      "Ġgiven": 1752,
      "Ġbesch": 1753,
      "immen": 1754,
      "Ġlaw": 1755,
      "ĠAll": 1756,
      "ĠEntscheid": 1757,
      "ĠTeil": 1758,
      "fer": 1759,
      "Ã¤mp": 1760,
      "Ġgla": 1761,
      "Ġsicher": 1762,
      "own": 1763,
      "Ġur": 1764,
      "Ġparticularly": 1765,
      "aff": 1766,
      "Ġfull": 1767,
      "igten": 1768,
      "Ġform": 1769,
      "deut": 1770,
      "Ġworld": 1771,
      "Ġset": 1772,
      "Ġproced": 1773,
      "wÃ¤": 1774,
      "unft": 1775,
      "Ã¤uÃŁ": 1776,
      "ĠFre": 1777,
      "Ġentsp": 1778,
      "rÃ¼": 1779,
      "Ġgut": 1780,
      "ĠBet": 1781,
      "ollow": 1782,
      "Ġinclud": 1783,
      "Ġindust": 1784,
      "Ġproblems": 1785,
      "ettbe": 1786,
      "Ġdank": 1787,
      "inder": 1788,
      "Ġgest": 1789,
      "ium": 1790,
      "ĠTreat": 1791,
      "Ġtrans": 1792,
      "lossen": 1793,
      "Ġmor": 1794,
      "Ġbefore": 1795,
      "bal": 1796,
      "ĠHand": 1797,
      "Ġnotwend": 1798,
      "ĠRecht": 1799,
      "kunft": 1800,
      "Ġmachen": 1801,
      "ettbewerb": 1802,
      "ĠHouse": 1803,
      "ppen": 1804,
      "Ġrat": 1805,
      "falls": 1806,
      "ĠArbeits": 1807,
      "Ġopinion": 1808,
      "Ġwithout": 1809,
      "lichkeit": 1810,
      "ĠMembers": 1811,
      "ĠKosovo": 1812,
      "orities": 1813,
      "Ġseine": 1814,
      "ĠZusammenarbeit": 1815,
      "Ġresolution": 1816,
      "nisse": 1817,
      "Ġallow": 1818,
      "Ã¶lk": 1819,
      "Ġ8": 1820,
      "gele": 1821,
      "Ġnecessary": 1822,
      "lungs": 1823,
      "ality": 1824,
      "ĠMÃ¶glichkeit": 1825,
      "ace": 1826,
      "usses": 1827,
      "agt": 1828,
      "tra": 1829,
      "ĠVerbrauch": 1830,
      "Ġhowever": 1831,
      "Ġwirtschaft": 1832,
      "wirtschaft": 1833,
      "entral": 1834,
      "Ġreform": 1835,
      "ĠStand": 1836,
      "Ġimplement": 1837,
      "fter": 1838,
      "mÃ¤ÃŁ": 1839,
      "ately": 1840,
      "Ġke": 1841,
      "Ġworden": 1842,
      "Ġfollow": 1843,
      "ĠWas": 1844,
      "elf": 1845,
      "ichts": 1846,
      "Ġbetr": 1847,
      "Ġsect": 1848,
      "stan": 1849,
      "Ġexpress": 1850,
      "cing": 1851,
      "annt": 1852,
      "ible": 1853,
      "tens": 1854,
      "Ġcurr": 1855,
      "fÃ¼hrt": 1856,
      "Ġ%": 1857,
      "Ġbek": 1858,
      "half": 1859,
      "Ġzwar": 1860,
      "Ġrequire": 1861,
      "ortug": 1862,
      "ĠMeinung": 1863,
      "Ġgive": 1864,
      "Ġimpro": 1865,
      "hang": 1866,
      "Ġbehalf": 1867,
      "ird": 1868,
      "ĠWelt": 1869,
      "ĠSchutz": 1870,
      "zip": 1871,
      "ĠNo": 1872,
      "Ġissues": 1873,
      "Ġredu": 1874,
      "ĠHe": 1875,
      "Ġprotection": 1876,
      "von": 1877,
      "ĠDebat": 1878,
      "walt": 1879,
      "Ġdifferent": 1880,
      "ys": 1881,
      "Ġwhether": 1882,
      "illion": 1883,
      "Ġzwei": 1884,
      "Ġ7": 1885,
      "llschaft": 1886,
      "Ġklar": 1887,
      "ĠAbgeordneten": 1888,
      "ĠArtik": 1889,
      "ĠHaushalts": 1890,
      "Ġserious": 1891,
      "spro": 1892,
      "Ġconcerned": 1893,
      "ĠnatÃ¼rlich": 1894,
      "Ġprogramme": 1895,
      "Ġsm": 1896,
      "Ġpres": 1897,
      "gemein": 1898,
      "bleme": 1899,
      "Ġprom": 1900,
      "itions": 1901,
      "Ã¼b": 1902,
      "Ġterms": 1903,
      "Ġwes": 1904,
      "weisen": 1905,
      "utung": 1906,
      "ĠIntern": 1907,
      "abil": 1908,
      "Ġextre": 1909,
      "ĠAbstimmung": 1910,
      "Ġwish": 1911,
      "ĠUnterstÃ¼tz": 1912,
      "ĠStru": 1913,
      "man": 1914,
      "ĠAm": 1915,
      "ules": 1916,
      "Ġgel": 1917,
      "Ġconsum": 1918,
      "sibility": 1919,
      "ĠGer": 1920,
      "ordin": 1921,
      "Ġproduct": 1922,
      "gleich": 1923,
      "Ġsign": 1924,
      "ĠMad": 1925,
      "ents": 1926,
      "ĠDisk": 1927,
      "Ġkommen": 1928,
      "Ġseit": 1929,
      "ahre": 1930,
      "Ġviele": 1931,
      "ĠRegierung": 1932,
      "ĠFrauen": 1933,
      "Ġav": 1934,
      "ĠPrÃ¤sidentin": 1935,
      "Ġaccept": 1936,
      "erk": 1937,
      "Ġgeb": 1938,
      "Ġregional": 1939,
      "Ġprinciple": 1940,
      "Ġkomm": 1941,
      "spolitik": 1942,
      "ks": 1943,
      "Ġdeal": 1944,
      "Ġrepresent": 1945,
      "ĠStaaten": 1946,
      "ho": 1947,
      "Ġgef": 1948,
      "amental": 1949,
      "Ġproposals": 1950,
      "ĠUnterstÃ¼tzung": 1951,
      "stellung": 1952,
      "ĠdÃ¼r": 1953,
      "ĠnÃ¤m": 1954,
      "ĠWettbewerb": 1955,
      "ache": 1956,
      "strument": 1957,
      "ĠnÃ¤mlich": 1958,
      "ught": 1959,
      "flicht": 1960,
      "ginnen": 1961,
      "ferenz": 1962,
      "Ġmin": 1963,
      "199": 1964,
      "Ġvoll": 1965,
      "ĠÃĦnderungsantrÃ¤ge": 1966,
      "urs": 1967,
      "Ġdecision": 1968,
      "Ġbesteht": 1969,
      "undheit": 1970,
      "Ġinvest": 1971,
      "vour": 1972,
      "ence": 1973,
      "stand": 1974,
      "fit": 1975,
      "Ġwomen": 1976,
      "Ġbed": 1977,
      "ĠZusammenhang": 1978,
      "ĠArtikel": 1979,
      "isions": 1980,
      "ĠauÃŁ": 1981,
      "ĠzurÃ¼ck": 1982,
      "Ġdel": 1983,
      "rache": 1984,
      "ante": 1985,
      "Ġgeben": 1986,
      "Ġerforder": 1987,
      "Ã¼nd": 1988,
      "Ġproposed": 1989,
      "ĠUnternehmen": 1990,
      "lus": 1991,
      "ika": 1992,
      "ĠdarÃ¼ber": 1993,
      "Ġpoin": 1994,
      "Ġpolitischen": 1995,
      "markt": 1996,
      "lex": 1997,
      "ĠÃĦnderungsantrag": 1998,
      "Ġfol": 1999,
      "eld": 2000,
      "rif": 2001,
      "ierten": 2002,
      "rÃ¤n": 2003,
      "Ġ9": 2004,
      "Ġlang": 2005,
      "etzen": 2006,
      "ĠMadam": 2007,
      "come": 2008,
      "zept": 2009,
      "Ġcommun": 2010,
      "ĠThema": 2011,
      "ĠProbleme": 2012,
      "ĠMenschenrechte": 2013,
      "eding": 2014,
      "Ġstehen": 2015,
      "gung": 2016,
      "Ġlegislation": 2017,
      "Ġeing": 2018,
      "ĠOn": 2019,
      "ĠDeshalb": 2020,
      "ĠDebatte": 2021,
      "Ġdavon": 2022,
      "bene": 2023,
      "sequ": 2024,
      "fÃ¼hrung": 2025,
      "Ġsoc": 2026,
      "graph": 2027,
      "Ġlook": 2028,
      "lick": 2029,
      "Ġsince": 2030,
      "Ġdarf": 2031,
      "Ġcontro": 2032,
      "ided": 2033,
      "Ġcome": 2034,
      "Ġihren": 2035,
      "Ġwirklich": 2036,
      "Ġglau": 2037,
      "innen": 2038,
      "ĠgrÃ¶ÃŁ": 2039,
      "ktor": 2040,
      "ased": 2041,
      "ĠSituation": 2042,
      "ifft": 2043,
      "ĠAmend": 2044,
      "Ġwhole": 2045,
      "itor": 2046,
      "ĠMa": 2047,
      "ĠVorschlÃ¤": 2048,
      "Ġdifficult": 2049,
      "Ġfurther": 2050,
      "uge": 2051,
      "Ġsec": 2052,
      "Ġhelp": 2053,
      "Ġbess": 2054,
      "Ġstrateg": 2055,
      "Ġbetrifft": 2056,
      "entlichen": 2057,
      "raft": 2058,
      "Ġregulation": 2059,
      "lobal": 2060,
      "Ġbasis": 2061,
      "riften": 2062,
      "Ġdeut": 2063,
      "ĠLÃ¤ndern": 2064,
      "Ġbesonder": 2065,
      "une": 2066,
      "Ã¼cksicht": 2067,
      "gew": 2068,
      "ĠRates": 2069,
      "Ġdaher": 2070,
      "Ġinde": 2071,
      "ienst": 2072,
      "ĠVerbraucher": 2073,
      "01": 2074,
      "Ġcontrib": 2075,
      "ified": 2076,
      "ĠJahre": 2077,
      "ĠBede": 2078,
      "ĠAber": 2079,
      "liegen": 2080,
      "Ġmention": 2081,
      "ĠBes": 2082,
      "Ġsecond": 2083,
      "Ġnext": 2084,
      "Ġir": 2085,
      "Ġide": 2086,
      "Ġcommit": 2087,
      "Ġspecific": 2088,
      "ĠÃ¶ff": 2089,
      "ually": 2090,
      "ĠBest": 2091,
      "Ġseiner": 2092,
      "Ġletzten": 2093,
      "1999": 2094,
      "ning": 2095,
      "iety": 2096,
      "ĠGen": 2097,
      "Ġja": 2098,
      "ĠTreaty": 2099,
      "hol": 2100,
      "gricult": 2101,
      "stitutions": 2102,
      "ĠAt": 2103,
      "Ġfew": 2104,
      "ende": 2105,
      "Ġval": 2106,
      "Ġsimp": 2107,
      "ĠBedeutung": 2108,
      "Ġcre": 2109,
      "ĠMill": 2110,
      "ivil": 2111,
      "Ġsupp": 2112,
      "ĠWhat": 2113,
      "Ġopport": 2114,
      "hall": 2115,
      "agement": 2116,
      "mes": 2117,
      "Ġproject": 2118,
      "Ã¼nft": 2119,
      "ale": 2120,
      "Ġrecht": 2121,
      "Ġchild": 2122,
      "Ġcond": 2123,
      "Ġta": 2124,
      "ĠMan": 2125,
      "Ġrisk": 2126,
      "Ġword": 2127,
      "ife": 2128,
      "upt": 2129,
      "zieh": 2130,
      "hm": 2131,
      "racht": 2132,
      "Ġschw": 2133,
      "Ã¤rk": 2134,
      "ĠBesch": 2135,
      "amil": 2136,
      "fte": 2137,
      "Ġsubject": 2138,
      "par": 2139,
      "ĠPunkt": 2140,
      "Ġbestimm": 2141,
      "Ġpract": 2142,
      "Ġeigen": 2143,
      "Ġpl": 2144,
      "Ġeinzel": 2145,
      "mework": 2146,
      "Ġzweit": 2147,
      "ĠAuÃŁ": 2148,
      "Ġ19": 2149,
      "Ã¤chst": 2150,
      "overnment": 2151,
      "Ġequ": 2152,
      "ĠgegenÃ¼ber": 2153,
      "Ġhealth": 2154,
      "ĠÃ¤uÃŁ": 2155,
      "Ġeben": 2156,
      "icle": 2157,
      "Ġabs": 2158,
      "Ġcrit": 2159,
      "Ġvorgesch": 2160,
      "gress": 2161,
      "oint": 2162,
      "Ġaw": 2163,
      "leicht": 2164,
      "ĠSozial": 2165,
      "Ġshall": 2166,
      "ĠLÃ¶s": 2167,
      "ĠHil": 2168,
      "ĠVerantwort": 2169,
      "ĠAnsicht": 2170,
      "Ġquite": 2171,
      "Ġdone": 2172,
      "Ġplan": 2173,
      "gaben": 2174,
      "iben": 2175,
      "Ġgesagt": 2176,
      "Ġadopted": 2177,
      "als": 2178,
      "Ġmeet": 2179,
      "ĠbegrÃ¼ÃŁ": 2180,
      "Ġback": 2181,
      "Ġsens": 2182,
      "att": 2183,
      "iele": 2184,
      "fet": 2185,
      "Ġinstitutions": 2186,
      "rachten": 2187,
      "Ġresour": 2188,
      "ichte": 2189,
      "wendung": 2190,
      "tain": 2191,
      "inzip": 2192,
      "wirk": 2193,
      "Ġemployment": 2194,
      "ising": 2195,
      "urz": 2196,
      "wards": 2197,
      "ude": 2198,
      "Ġclearly": 2199,
      "prochen": 2200,
      "schied": 2201,
      "ines": 2202,
      "ĠVol": 2203,
      "ĠunterstÃ¼tzen": 2204,
      "Ġcost": 2205,
      "Ġcall": 2206,
      "Ġcolle": 2207,
      "other": 2208,
      "ierte": 2209,
      "Ġfavour": 2210,
      "dert": 2211,
      "Ġframework": 2212,
      "Ġextrem": 2213,
      "glichen": 2214,
      "ilt": 2215,
      "Ġstatt": 2216,
      "ĠBeschÃ¤ft": 2217,
      "oti": 2218,
      "pecial": 2219,
      "Ġkonk": 2220,
      "di": 2221,
      "kÃ¤mp": 2222,
      "Ġbrauch": 2223,
      "spr": 2224,
      "Ġunseren": 2225,
      "ep": 2226,
      "hÃ¤ng": 2227,
      "iar": 2228,
      "itt": 2229,
      "ĠFund": 2230,
      "Ġlassen": 2231,
      "ystems": 2232,
      "wert": 2233,
      "ĠInformation": 2234,
      "rieden": 2235,
      "ĠOrgan": 2236,
      "Ġ15": 2237,
      "Ġvorgeschlagen": 2238,
      "erien": 2239,
      "Ã¤hrend": 2240,
      "fety": 2241,
      "ĠfÃ¼hren": 2242,
      "Ġanges": 2243,
      "Ġverschieden": 2244,
      "Ġaccount": 2245,
      "Ġapproach": 2246,
      "hÃ¤lt": 2247,
      "lungen": 2248,
      "atives": 2249,
      "verkehr": 2250,
      "ively": 2251,
      "zeÃŁ": 2252,
      "Ġstellen": 2253,
      "vorsch": 2254,
      "druck": 2255,
      "ander": 2256,
      "Ġricht": 2257,
      "ards": 2258,
      "Ġbezug": 2259,
      "Ġsociety": 2260,
      "ĠFisch": 2261,
      "ĠAnge": 2262,
      "Ġrather": 2263,
      "arante": 2264,
      "emp": 2265,
      "ĠState": 2266,
      "gre": 2267,
      "ĠÃ¼b": 2268,
      "ffair": 2269,
      "ĠNe": 2270,
      "etzung": 2271,
      "Ġresult": 2272,
      "maÃŁ": 2273,
      "urity": 2274,
      "ica": 2275,
      "ĠgehÃ¶r": 2276,
      "ĠInstitution": 2277,
      "Ġgoing": 2278,
      "ĠUnd": 2279,
      "ĠUnited": 2280,
      "Ġagree": 2281,
      "Ġstru": 2282,
      "Ġdeshalb": 2283,
      "Ġworking": 2284,
      "gesehen": 2285,
      "Ġdefin": 2286,
      "ĠKontro": 2287,
      "ĠhÃ¤t": 2288,
      "Ġcap": 2289,
      "iesen": 2290,
      "ĠTages": 2291,
      "Ġnegoti": 2292,
      "onds": 2293,
      "ists": 2294,
      "Ġcr": 2295,
      "Ġrev": 2296,
      "ĠGleich": 2297,
      "Ġrules": 2298,
      "ĠProdu": 2299,
      "Ġadv": 2300,
      "Ġcommittee": 2301,
      "reffen": 2302,
      "Ġunderst": 2303,
      "Ġenvironmental": 2304,
      "ways": 2305,
      "Ġtalk": 2306,
      "Ġvar": 2307,
      "Ġstate": 2308,
      "Ġguarante": 2309,
      "vement": 2310,
      "Ġmil": 2311,
      "Ġander": 2312,
      "ropri": 2313,
      "Ġfinanz": 2314,
      "ĠDurch": 2315,
      "Ġ12": 2316,
      "ler": 2317,
      "Ġbro": 2318,
      "Ġintegr": 2319,
      "Ġbew": 2320,
      "Ġlim": 2321,
      "ĠThese": 2322,
      "Ġregions": 2323,
      "Ġsteht": 2324,
      "ĠKolleginnen": 2325,
      "ĠLebens": 2326,
      "Ġglaube": 2327,
      "fach": 2328,
      "ĠVertrag": 2329,
      "uft": 2330,
      "Ġrole": 2331,
      "ething": 2332,
      "Ġfood": 2333,
      "Ġtax": 2334,
      "osition": 2335,
      "Ġsafety": 2336,
      "ared": 2337,
      "treten": 2338,
      "ĠWeise": 2339,
      "Ġgovernment": 2340,
      "Ġaccess": 2341,
      "edom": 2342,
      "ĠBr": 2343,
      "Ġregul": 2344,
      "unÃ¤chst": 2345,
      "Ġerst": 2346,
      "Ġbetter": 2347,
      "Ġindustry": 2348,
      "gement": 2349,
      "Ġderen": 2350,
      "ĠRechte": 2351,
      "ĠEUR": 2352,
      "ĠQu": 2353,
      "Ġcontrol": 2354,
      "Ġumf": 2355,
      "ĠkÃ¶nnte": 2356,
      "gl": 2357,
      "Ġperson": 2358,
      "Ġcor": 2359,
      "ĠStra": 2360,
      "Ġresources": 2361,
      "eich": 2362,
      "Ġespecial": 2363,
      "hip": 2364,
      "Ġess": 2365,
      "Ġafter": 2366,
      "Ġimm": 2367,
      "Ġdaran": 2368,
      "Ġsomething": 2369,
      "Ġespecially": 2370,
      "fort": 2371,
      "arter": 2372,
      "Ġpow": 2373,
      "sprache": 2374,
      "Ġpri": 2375,
      "armon": 2376,
      "SE": 2377,
      "Ġdown": 2378,
      "Ġeinge": 2379,
      "folg": 2380,
      "Ġaddition": 2381,
      "sto": 2382,
      "miss": 2383,
      "ĠTran": 2384,
      "ffairs": 2385,
      "ek": 2386,
      "ĠVerordnung": 2387,
      "setzung": 2388,
      "ron": 2389,
      "ĠDi": 2390,
      "ivid": 2391,
      "recht": 2392,
      "rodu": 2393,
      "Ġread": 2394,
      "ĠInd": 2395,
      "wed": 2396,
      "Ġel": 2397,
      "ĠTur": 2398,
      "ĠeuropÃ¤ische": 2399,
      "genda": 2400,
      "aussch": 2401,
      "Ġitself": 2402,
      "ably": 2403,
      "Ġprogress": 2404,
      "Ġexist": 2405,
      "Ġprogrammes": 2406,
      "zw": 2407,
      "ĠAust": 2408,
      "amt": 2409,
      "Ġlarge": 2410,
      "ĠArticle": 2411,
      "kÃ¤mpfung": 2412,
      "Ġair": 2413,
      "ĠDar": 2414,
      "ension": 2415,
      "ĠZukunft": 2416,
      "gelegt": 2417,
      "Ġessential": 2418,
      "reten": 2419,
      "Ġmillion": 2420,
      "Ġsollen": 2421,
      "Ġspeak": 2422,
      "ĠAusschusses": 2423,
      "Ġinitiative": 2424,
      "ĠSeit": 2425,
      "ialog": 2426,
      "ogen": 2427,
      "pend": 2428,
      "ĠFe": 2429,
      "Ġdire": 2430,
      "Ġpoints": 2431,
      "vÃ¶lk": 2432,
      "Ġgent": 2433,
      "Ġused": 2434,
      "Ġbal": 2435,
      "Ġcl": 2436,
      "abe": 2437,
      "linien": 2438,
      "ify": 2439,
      "ĠBeispiel": 2440,
      "Ġgeneral": 2441,
      "erdings": 2442,
      "ĠdÃ¼rfen": 2443,
      "ath": 2444,
      "Ġtowards": 2445,
      "ases": 2446,
      "ĠAnd": 2447,
      "Ġcompetition": 2448,
      "Ġeach": 2449,
      "Ġze": 2450,
      "Ġservices": 2451,
      "term": 2452,
      "ervor": 2453,
      "Ġprovide": 2454,
      "Ġresponsibility": 2455,
      "Ġduring": 2456,
      "Ġpay": 2457,
      "Ġderzeit": 2458,
      "ĠMarkt": 2459,
      "Ġoper": 2460,
      "Ġliegt": 2461,
      "Ġsozialen": 2462,
      "Ġje": 2463,
      "adies": 2464,
      "Ġgovern": 2465,
      "Ġorganis": 2466,
      "Ġpositive": 2467,
      "Ġappropri": 2468,
      "ĠIhre": 2469,
      "Ġgentlemen": 2470,
      "wÃ¤r": 2471,
      "Ġlet": 2472,
      "legenheit": 2473,
      "Ġextremely": 2474,
      "ĠRed": 2475,
      "ĠEuropas": 2476,
      "ĠLage": 2477,
      "ĠStruktur": 2478,
      "gar": 2479,
      "mÃ¶": 2480,
      "ven": 2481,
      "ises": 2482,
      "Ġglobal": 2483,
      "ikan": 2484,
      "ĠThey": 2485,
      "ĠRegionen": 2486,
      "ĠgroÃŁen": 2487,
      "ĠPr": 2488,
      "ierungen": 2489,
      "ĠErgeb": 2490,
      "Ġcompan": 2491,
      "ried": 2492,
      "Ġfundamental": 2493,
      "ference": 2494,
      "ĠMehr": 2495,
      "ĠVorschlÃ¤ge": 2496,
      "iving": 2497,
      "ĠReform": 2498,
      "Ġallgemein": 2499,
      "Ġpolicies": 2500,
      "oney": 2501,
      "Ġhervor": 2502,
      "ĠPl": 2503,
      "ĠUms": 2504,
      "Ġsector": 2505,
      "gestellt": 2506,
      "igkeiten": 2507,
      "Ġhoffe": 2508,
      "Ġsowohl": 2509,
      "Ġdarin": 2510,
      "Ã¤tze": 2511,
      "Ġpriv": 2512,
      "ĠStandpunkt": 2513,
      "ĠIhr": 2514,
      "ĠLiberal": 2515,
      "though": 2516,
      "Ġsmall": 2517,
      "Ġnationalen": 2518,
      "ĠEntschlieÃŁung": 2519,
      "zÃ¼": 2520,
      "Ġans": 2521,
      "raum": 2522,
      "Ġgem": 2523,
      "verstÃ¤nd": 2524,
      "Ġjob": 2525,
      "ktionen": 2526,
      "Ġ1998": 2527,
      "fÃ¤h": 2528,
      "sid": 2529,
      "Ġ000": 2530,
      "Ġinner": 2531,
      "gether": 2532,
      "Ġless": 2533,
      "Ġeffort": 2534,
      "Ġdemocrat": 2535,
      "TO": 2536,
      "reg": 2537,
      "Ġchange": 2538,
      "aum": 2539,
      "ĠwÃ¤hrend": 2540,
      "ĠIs": 2541,
      "ĠRolle": 2542,
      "stehen": 2543,
      "ĠTagesordnung": 2544,
      "sweise": 2545,
      "old": 2546,
      "Ġgesam": 2547,
      "ĠZust": 2548,
      "ĠAussprache": 2549,
      "Ġinternal": 2550,
      "Ġnotwendig": 2551,
      "imes": 2552,
      "ktiv": 2553,
      "ĠUns": 2554,
      "ĠAuff": 2555,
      "oment": 2556,
      "Ġcontinue": 2557,
      "Ġak": 2558,
      "Ġagricult": 2559,
      "Ġseem": 2560,
      "ennt": 2561,
      "ativen": 2562,
      "Ġcult": 2563,
      "Ġstep": 2564,
      "Ġconcerns": 2565,
      "scheiden": 2566,
      "ĠEbene": 2567,
      "Ġeinigen": 2568,
      "Ġ-,": 2569,
      "Ġindivid": 2570,
      "unehmen": 2571,
      "ER": 2572,
      "rech": 2573,
      "ĠMinister": 2574,
      "ĠFran": 2575,
      "Ġprocedure": 2576,
      "Ġmoney": 2577,
      "elle": 2578,
      "Ġstart": 2579,
      "Ġstren": 2580,
      "Ġnichts": 2581,
      "Ġsei": 2582,
      "allen": 2583,
      "ccess": 2584,
      "Ġparl": 2585,
      "unde": 2586,
      "ĠAuch": 2587,
      "Ġreally": 2588,
      "Ġdabei": 2589,
      "Ġersten": 2590,
      "Ġlead": 2591,
      "Ġsuff": 2592,
      "Ġpost": 2593,
      "Ġgrow": 2594,
      "Ġwelcome": 2595,
      "blick": 2596,
      "iod": 2597,
      "ziel": 2598,
      "Ġzusammen": 2599,
      "ĠberÃ¼cksicht": 2600,
      "itÃ¤ten": 2601,
      "ahlen": 2602,
      "Ġconditions": 2603,
      "icial": 2604,
      "ĠBel": 2605,
      "Ġforward": 2606,
      "Ġimportance": 2607,
      "Ġunderstand": 2608,
      "ekte": 2609,
      "Ġdid": 2610,
      "ĠRegel": 2611,
      "Ġabsol": 2612,
      "ĠHilfe": 2613,
      "merk": 2614,
      "Ġaccord": 2615,
      "Ġtrade": 2616,
      "Ġactiv": 2617,
      "erdem": 2618,
      "aren": 2619,
      "Ġoffen": 2620,
      "urn": 2621,
      "esellschaft": 2622,
      "Ġbestehen": 2623,
      "Ġstruct": 2624,
      "ling": 2625,
      "arn": 2626,
      "Ġvo": 2627,
      "Ġaufge": 2628,
      "Ġ10": 2629,
      "schaften": 2630,
      "beding": 2631,
      "Ġbef": 2632,
      "ctions": 2633,
      "Ġleast": 2634,
      "Ġopen": 2635,
      "Ġvarious": 2636,
      "pflicht": 2637,
      "Ġaim": 2638,
      "Ġthree": 2639,
      "spect": 2640,
      "Ġprec": 2641,
      "ĠFol": 2642,
      "ĠFort": 2643,
      "Ġbene": 2644,
      "Ġbeispiel": 2645,
      "ĠPerson": 2646,
      "Ġwerde": 2647,
      "arta": 2648,
      "ufen": 2649,
      "ĠgewÃ¤hr": 2650,
      "Ġ20": 2651,
      "sichtlich": 2652,
      "Ġkurz": 2653,
      "Ġonce": 2654,
      "Ġmember": 2655,
      "Ġvi": 2656,
      "Ġloc": 2657,
      "ĠBevÃ¶lk": 2658,
      "Ġcomple": 2659,
      "weg": 2660,
      "Ġneeds": 2661,
      "iation": 2662,
      "Ġdrei": 2663,
      "ĠZus": 2664,
      "ĠErweit": 2665,
      "ĠGegen": 2666,
      "ĠEntwicklungs": 2667,
      "idency": 2668,
      "Ġtransport": 2669,
      "komm": 2670,
      "Ġbu": 2671,
      "icient": 2672,
      "Ġaller": 2673,
      "Ġinform": 2674,
      "Ġmaking": 2675,
      "ĠDemokrat": 2676,
      "Ġinterests": 2677,
      "ĠLÃ¶sung": 2678,
      "bau": 2679,
      "Ġdort": 2680,
      "Ġtot": 2681,
      "ĠPortug": 2682,
      "Ġperiod": 2683,
      "ĠÃ¼br": 2684,
      "ĠNat": 2685,
      "Ġdemand": 2686,
      "Ġeconomy": 2687,
      "Ġkommt": 2688,
      "Ġble": 2689,
      "ĠNot": 2690,
      "ĠVerantwortung": 2691,
      "wÃ¤rt": 2692,
      "ĠUmsetzung": 2693,
      "Ġalways": 2694,
      "Ġintrodu": 2695,
      "ĠRights": 2696,
      "ĠEnerg": 2697,
      "Ġpeace": 2698,
      "Ġremain": 2699,
      "Ġthird": 2700,
      "ĠEx": 2701,
      "ĠBem": 2702,
      "Ġpolitische": 2703,
      "Ġfreedom": 2704,
      "Ġincluding": 2705,
      "Ġakzept": 2706,
      "Ġwater": 2707,
      "Ġben": 2708,
      "ged": 2709,
      "Ġrefer": 2710,
      "Ġwelche": 2711,
      "Ġbringen": 2712,
      "Ġauthorities": 2713,
      "Ġentsprechen": 2714,
      "Ġinnerhalb": 2715,
      "Ġbecome": 2716,
      "llig": 2717,
      "ĠParte": 2718,
      "Ġfeel": 2719,
      "ĠEntscheidung": 2720,
      "Ġbesonders": 2721,
      "ller": 2722,
      "Ġenlar": 2723,
      "gabe": 2724,
      "Ġinvolved": 2725,
      "Ġgerade": 2726,
      "Ġdanken": 2727,
      "Ġopp": 2728,
      "Ġnor": 2729,
      "oting": 2730,
      "ustrie": 2731,
      "ĠForm": 2732,
      "iness": 2733,
      "Ġocc": 2734,
      "Ġmed": 2735,
      "umen": 2736,
      "weis": 2737,
      "Ġ11": 2738,
      "Ġgenau": 2739,
      "ĠRegierungs": 2740,
      "org": 2741,
      "Ġant": 2742,
      "schutz": 2743,
      "ĠWer": 2744,
      "ĠProj": 2745,
      "thing": 2746,
      "Ġapplic": 2747,
      "utet": 2748,
      "Ġproducts": 2749,
      "ĠAustri": 2750,
      "Ġbeispielsweise": 2751,
      "Ġanother": 2752,
      "ĠInstitutionen": 2753,
      "text": 2754,
      "ĠhÃ¶": 2755,
      "Ġnon": 2756,
      "Ġladies": 2757,
      "esse": 2758,
      "Ġtogether": 2759,
      "ildung": 2760,
      "ĠGesundheit": 2761,
      "sterreich": 2762,
      "ĠPat": 2763,
      "ders": 2764,
      "ĠKinder": 2765,
      "Ġkind": 2766,
      "Ġbased": 2767,
      "Ġsecurity": 2768,
      "Ġdeutlich": 2769,
      "wes": 2770,
      "ĠSystem": 2771,
      "Ġkle": 2772,
      "Ġschaffen": 2773,
      "asser": 2774,
      "Ġachieve": 2775,
      "ication": 2776,
      "ĠWeg": 2777,
      "Ġsolche": 2778,
      "Ġquestions": 2779,
      "Ġaware": 2780,
      "eits": 2781,
      "ĠUN": 2782,
      "ĠEine": 2783,
      "Ġwaren": 2784,
      "ĠErweiterung": 2785,
      "Ġfight": 2786,
      "Ġadm": 2787,
      "Ġrecog": 2788,
      "Ġhalte": 2789,
      "Ġcurrent": 2790,
      "ĠBinnen": 2791,
      "ĠWort": 2792,
      "Ġrelations": 2793,
      "ĠgroÃŁe": 2794,
      "Ġtechnolog": 2795,
      "Ġmonth": 2796,
      "Ġmot": 2797,
      "Ġdef": 2798,
      "Ġdet": 2799,
      "ield": 2800,
      "enzen": 2801,
      "Ġamendment": 2802,
      "ritte": 2803,
      "ĠLis": 2804,
      "Ġihnen": 2805,
      "idence": 2806,
      "Ġadopt": 2807,
      "Ġshort": 2808,
      "Ġmean": 2809,
      "ĠAusdruck": 2810,
      "Ġhandelt": 2811,
      "Ġmajority": 2812,
      "ĠInternet": 2813,
      "ĠVerfahren": 2814,
      "Ġdoc": 2815,
      "aps": 2816,
      "Ġdraft": 2817,
      "Ġincrease": 2818,
      "frage": 2819,
      "asing": 2820,
      "ĠFrei": 2821,
      "ĠGrÃ¼n": 2822,
      "ĠJahres": 2823,
      "ĠÃ¤uÃŁerst": 2824,
      "ĠSol": 2825,
      "Ġeinzelnen": 2826,
      "Ġgilt": 2827,
      "Ġrele": 2828,
      "Ġaspect": 2829,
      "Ġdemokrat": 2830,
      "Ġhinaus": 2831,
      "mals": 2832,
      "ĠAmendment": 2833,
      "ĠMillionen": 2834,
      "Ġbrauchen": 2835,
      "Ġindividual": 2836,
      "Ġcreat": 2837,
      "Ġerhalten": 2838,
      "ĠVerwalt": 2839,
      "Ġled": 2840,
      "Ġdocument": 2841,
      "rÃ¼ck": 2842,
      "inistr": 2843,
      "zuf": 2844,
      "Ġinstitution": 2845,
      "Ġnie": 2846,
      "ĠAsp": 2847,
      "ĠFirst": 2848,
      "ĠTransp": 2849,
      "urf": 2850,
      "Ġgroups": 2851,
      "ĠGebiet": 2852,
      "AF": 2853,
      "ĠAffairs": 2854,
      "Ġrece": 2855,
      "bereich": 2856,
      "ĠViel": 2857,
      "ifen": 2858,
      "Ġyet": 2859,
      "Ġresear": 2860,
      "Ġdarum": 2861,
      "ĠForsch": 2862,
      "Ġresearch": 2863,
      "ock": 2864,
      "usiness": 2865,
      "irm": 2866,
      "ĠauÃŁer": 2867,
      "ented": 2868,
      "unkte": 2869,
      "ĠnÃ¤ch": 2870,
      "ily": 2871,
      "Ġlea": 2872,
      "Ġcertainly": 2873,
      "verfahren": 2874,
      "Ġexce": 2875,
      "Ġsuccess": 2876,
      "Ġstatement": 2877,
      "Ġann": 2878,
      "eless": 2879,
      "erecht": 2880,
      "Ġdessen": 2881,
      "war": 2882,
      "ffentlich": 2883,
      "Ġ,": 2884,
      "schein": 2885,
      "zeitig": 2886,
      "ĠStellung": 2887,
      "hÃ¶": 2888,
      "ĠEmp": 2889,
      "ĠUS": 2890,
      "ĠZwe": 2891,
      "hnt": 2892,
      "ina": 2893,
      "ĠHo": 2894,
      "Ġgreater": 2895,
      "yp": 2896,
      "gegen": 2897,
      "Ã¤d": 2898,
      "Ġeindeut": 2899,
      "Ġreach": 2900,
      "sprÃ¤sident": 2901,
      "Ġalles": 2902,
      "Ġproper": 2903,
      "Ã¤hl": 2904,
      "ĠBekÃ¤mpfung": 2905,
      "ĠGemeinsam": 2906,
      "Ġhalten": 2907,
      "Ġprevent": 2908,
      "Ġmajor": 2909,
      "fonds": 2910,
      "ness": 2911,
      "andid": 2912,
      "Ġupon": 2913,
      "Ġobjectives": 2914,
      "fern": 2915,
      "Ġbo": 2916,
      "row": 2917,
      "letz": 2918,
      "Ġerste": 2919,
      "Ġopportunity": 2920,
      "zogen": 2921,
      "Ġpass": 2922,
      "Ġvorgesehen": 2923,
      "ĠJust": 2924,
      "Ġmind": 2925,
      "Ġern": 2926,
      "ĠVerhand": 2927,
      "Ġvorliegen": 2928,
      "Ġentscheiden": 2929,
      "setzen": 2930,
      "konferenz": 2931,
      "ĠWirtschafts": 2932,
      "Ġebenfalls": 2933,
      "net": 2934,
      "Ġclos": 2935,
      "ĠSitz": 2936,
      "Ġdenke": 2937,
      "CO": 2938,
      "ograph": 2939,
      "alle": 2940,
      "Ġbeim": 2941,
      "ĠInitiative": 2942,
      "Ġwaste": 2943,
      "ĠProdi": 2944,
      "chan": 2945,
      "Ġexc": 2946,
      "Ġcreate": 2947,
      "Ġerreichen": 2948,
      "Ġ13": 2949,
      "ĠGrundlage": 2950,
      "ziehen": 2951,
      "Ġavail": 2952,
      "Ġgemacht": 2953,
      "gang": 2954,
      "yl": 2955,
      "rechts": 2956,
      "Ġbegin": 2957,
      "ĠHier": 2958,
      "Ġwohl": 2959,
      "Ġwords": 2960,
      "Ġoften": 2961,
      "idar": 2962,
      "ĠErklÃ¤r": 2963,
      "Ġgrund": 2964,
      "ĠAbgeordnete": 2965,
      "ĠBinnenmarkt": 2966,
      "less": 2967,
      "Ġtable": 2968,
      "Ġfun": 2969,
      "ĠSub": 2970,
      "ĠWith": 2971,
      "ĠRÃ¼ck": 2972,
      "ifiz": 2973,
      "ĠheiÃŁ": 2974,
      "hilfen": 2975,
      "Ġchildren": 2976,
      "Ġeth": 2977,
      "ters": 2978,
      "grat": 2979,
      "igin": 2980,
      "Ġgegeben": 2981,
      "mitt": 2982,
      "ĠFinally": 2983,
      "Ġtaking": 2984,
      "racy": 2985,
      "ĠDienst": 2986,
      "Ġobjective": 2987,
      "Ġmentioned": 2988,
      "Ġcomplete": 2989,
      "Ġadministr": 2990,
      "Ġerne": 2991,
      "Ġdoub": 2992,
      "Ġeigenen": 2993,
      "hing": 2994,
      "Ġtreat": 2995,
      "Ġshow": 2996,
      "Ġenerg": 2997,
      "iÃŁb": 2998,
      "Ġsimply": 2999,
      "Ġbusiness": 3000,
      "Ġple": 3001,
      "einander": 3002,
      "ĠVertre": 3003,
      "ultur": 3004,
      "Ġaddress": 3005,
      "Ġweniger": 3006,
      "Ġviol": 3007,
      "ĠermÃ¶": 3008,
      "utzen": 3009,
      "Ġdemocratic": 3010,
      "abhÃ¤ng": 3011,
      "Ġcongrat": 3012,
      "Ġnehmen": 3013,
      "Ġschne": 3014,
      "Ã¤ren": 3015,
      "Ã¶rderung": 3016,
      "heb": 3017,
      "Ġeffective": 3018,
      "benso": 3019,
      "gangenen": 3020,
      "ĠAfrica": 3021,
      "Ġinn": 3022,
      "Ġgar": 3023,
      "Ġlack": 3024,
      "Ġquality": 3025,
      "Ġconclus": 3026,
      "ĠwÃ¼rden": 3027,
      "Ġenlargement": 3028,
      "bour": 3029,
      "ean": 3030,
      "ĠMy": 3031,
      "Ġversuch": 3032,
      "ppe": 3033,
      "ĠEnde": 3034,
      "aÃŁt": 3035,
      "Ġgemeinsamen": 3036,
      "Ġbesser": 3037,
      "Ġprojects": 3038,
      "ĠAuffassung": 3039,
      "Ġcongratul": 3040,
      "Ġinstrument": 3041,
      "Ġhatte": 3042,
      "Ġattention": 3043,
      "Ġtry": 3044,
      "ĠMed": 3045,
      "Ġhappen": 3046,
      "Ġbeiden": 3047,
      "Ġsprechen": 3048,
      "Ġweitere": 3049,
      "Ġvielleicht": 3050,
      "Ġerforderlich": 3051,
      "ix": 3052,
      "Ġsing": 3053,
      "reicht": 3054,
      "ĠErachten": 3055,
      "ationen": 3056,
      "Ġdecisions": 3057,
      "Ġrequest": 3058,
      "Ġfunds": 3059,
      "ĠHinblick": 3060,
      "ĠDiskuss": 3061,
      "ĠErachtens": 3062,
      "ined": 3063,
      "Ġmult": 3064,
      "Ġeig": 3065,
      "Ġpers": 3066,
      "gesetzt": 3067,
      "bereit": 3068,
      "ĠweiÃŁ": 3069,
      "Ġactually": 3070,
      "ĠCharta": 3071,
      "hilfe": 3072,
      "Ġbenefit": 3073,
      "Ġlocal": 3074,
      "here": 3075,
      "zen": 3076,
      "zahl": 3077,
      "ining": 3078,
      "Ġterr": 3079,
      "orn": 3080,
      "ĠFÃ¤": 3081,
      "Ġaufgrund": 3082,
      "Ġtext": 3083,
      "ĠgegenwÃ¤rt": 3084,
      "ĠArbeitsp": 3085,
      "ĠGemeinschafts": 3086,
      "Ġfollowing": 3087,
      "Ġcolleag": 3088,
      "Ġcompanies": 3089,
      "Ġrecogn": 3090,
      "leist": 3091,
      "ipf": 3092,
      "Ġverschiedenen": 3093,
      "Ġaff": 3094,
      "onger": 3095,
      "ĠVerkehr": 3096,
      "erseits": 3097,
      "Ġmanagement": 3098,
      "Ġentwick": 3099,
      "Ġfinden": 3100,
      "wach": 3101,
      "Ġmod": 3102,
      "Ġpop": 3103,
      "ĠTo": 3104,
      "isches": 3105,
      "Ġforce": 3106,
      "osed": 3107,
      "ĠBehÃ¶r": 3108,
      "Ġobl": 3109,
      "Ġspecial": 3110,
      "Ġmembers": 3111,
      "per": 3112,
      "Ġalthough": 3113,
      "ĠZiele": 3114,
      "ĠRep": 3115,
      "Ġorigin": 3116,
      "Ġinternationalen": 3117,
      "Ġmoment": 3118,
      "sterd": 3119,
      "riminal": 3120,
      "ĠYou": 3121,
      "affung": 3122,
      "Ġmorgen": 3123,
      "Ġimplementation": 3124,
      "sterdam": 3125,
      "lÃ¤ndern": 3126,
      "Ġtas": 3127,
      "its": 3128,
      "alen": 3129,
      "Ġcases": 3130,
      "gelung": 3131,
      "ommend": 3132,
      "Ġjeder": 3133,
      "Ġcontain": 3134,
      "ĠKosten": 3135,
      "ĠVereinigten": 3136,
      "ĠAmsterdam": 3137,
      "Ġsingle": 3138,
      "ĠMitte": 3139,
      "Ġliberal": 3140,
      "neh": 3141,
      "ĠAuswirk": 3142,
      "Ġregion": 3143,
      "Ġweiterhin": 3144,
      "orgen": 3145,
      "ritten": 3146,
      "Ġhinsichtlich": 3147,
      "Ġwichtige": 3148,
      "atsÃ¤ch": 3149,
      "Ġmatters": 3150,
      "Ġprevious": 3151,
      "Ġmen": 3152,
      "Ġqual": 3153,
      "Ġdisp": 3154,
      "Ġstellt": 3155,
      "02": 3156,
      "gern": 3157,
      "haps": 3158,
      "Ġeinfach": 3159,
      "ĠAnwendung": 3160,
      "Ġplay": 3161,
      "ĠBeding": 3162,
      "Ġparliament": 3163,
      "ĠRegierungskonferenz": 3164,
      "cen": 3165,
      "Ġmak": 3166,
      "Ġmight": 3167,
      "ĠvÃ¶": 3168,
      "ĠTÃ¼r": 3169,
      "Ġhaving": 3170,
      "fang": 3171,
      "wurf": 3172,
      "eder": 3173,
      "Ġerinn": 3174,
      "ĠAbkommen": 3175,
      "Ġothers": 3176,
      "Ġdiscrimin": 3177,
      "Ġservice": 3178,
      "Ġagenda": 3179,
      "Ġbehand": 3180,
      "ummit": 3181,
      "Ġdisk": 3182,
      "altung": 3183,
      "ĠBeitrag": 3184,
      "bon": 3185,
      "iten": 3186,
      "ross": 3187,
      "ĠNor": 3188,
      "annten": 3189,
      "ĠSchluÃŁ": 3190,
      "Ġenc": 3191,
      "ĠRegion": 3192,
      "prÃ¼": 3193,
      "Ġangenommen": 3194,
      "Ġseinen": 3195,
      "Ġmeines": 3196,
      "Ġkeinen": 3197,
      "ĠVerbess": 3198,
      "ĠInteresse": 3199,
      "iver": 3200,
      "isik": 3201,
      "Ġfree": 3202,
      "utes": 3203,
      "Ġsogar": 3204,
      "ĠSchaffung": 3205,
      "ification": 3206,
      "ĠDaher": 3207,
      "ator": 3208,
      "Ġpast": 3209,
      "ĠGeschÃ¤ft": 3210,
      "Ġversch": 3211,
      "aper": 3212,
      "ĠConvention": 3213,
      "itÃ¤ts": 3214,
      "enten": 3215,
      "Ġhon": 3216,
      "ĠKrit": 3217,
      "ĠVerpflicht": 3218,
      "ocol": 3219,
      "ĠWettbewerbs": 3220,
      "Ġavailable": 3221,
      "ule": 3222,
      "iellen": 3223,
      "Ġzus": 3224,
      "Ġvers": 3225,
      "Ġapply": 3226,
      "Ã¼nf": 3227,
      "fehl": 3228,
      "ĠWieder": 3229,
      "oten": 3230,
      "vest": 3231,
      "atast": 3232,
      "Ġcivil": 3233,
      "ĠMar": 3234,
      "ĠWoch": 3235,
      "Ġsug": 3236,
      "Ġprep": 3237,
      "Ġteil": 3238,
      "ĠProgramm": 3239,
      "Ġwirtschaftlichen": 3240,
      "Ġmilit": 3241,
      "voll": 3242,
      "ĠFrieden": 3243,
      "ĠAuswirkungen": 3244,
      "akt": 3245,
      "ĠGeld": 3246,
      "ĠschlieÃŁ": 3247,
      "haltung": 3248,
      "Ġwenig": 3249,
      "leis": 3250,
      "ĠHerren": 3251,
      "Ġpoll": 3252,
      "Ġrecommend": 3253,
      "ĠAls": 3254,
      "com": 3255,
      "erous": 3256,
      "stant": 3257,
      "Ġwhile": 3258,
      "oper": 3259,
      "ĠGesetz": 3260,
      "Ġincreasing": 3261,
      "atastrop": 3262,
      "dition": 3263,
      "alled": 3264,
      "stens": 3265,
      "ĠGesellschaft": 3266,
      "ĠZahl": 3267,
      "ĠStabil": 3268,
      "ĠCharter": 3269,
      "Ġvielen": 3270,
      "haft": 3271,
      "erb": 3272,
      "ides": 3273,
      "ĠerwÃ¤": 3274,
      "ĠItal": 3275,
      "Ġresponsible": 3276,
      "Ġmonitor": 3277,
      "ĠProgramme": 3278,
      "stimmen": 3279,
      "ĠFÃ¼r": 3280,
      "ĠVertra": 3281,
      "Ġmeinen": 3282,
      "Ġprotect": 3283,
      "ziehungen": 3284,
      "ĠBeschÃ¤ftigung": 3285,
      "ĠtatsÃ¤ch": 3286,
      "Ġharmon": 3287,
      "stum": 3288,
      "ĠWor": 3289,
      "ĠUhr": 3290,
      "fordert": 3291,
      "ĠÃ¶ffentlichen": 3292,
      "ĠheiÃŁt": 3293,
      "ont": 3294,
      "unter": 3295,
      "Ġcare": 3296,
      "imum": 3297,
      "Ġlife": 3298,
      "Ġago": 3299,
      "mut": 3300,
      "ĠMil": 3301,
      "ived": 3302,
      "chnolog": 3303,
      "schlieÃŁend": 3304,
      "Ġlegislative": 3305,
      "serv": 3306,
      "zug": 3307,
      "orrow": 3308,
      "Ġstates": 3309,
      "last": 3310,
      "Ġsure": 3311,
      "ĠDemokratie": 3312,
      "Ġthings": 3313,
      "urteil": 3314,
      "Ġchallen": 3315,
      "Ġjeden": 3316,
      "Ġfully": 3317,
      "ĠFischere": 3318,
      "Ġappropriate": 3319,
      "verstÃ¤ndlich": 3320,
      "ĠFortsch": 3321,
      "jen": 3322,
      "Ġsit": 3323,
      "ĠFest": 3324,
      "ĠkÃ¼nft": 3325,
      "ĠSocial": 3326,
      "Ġconflic": 3327,
      "kten": 3328,
      "Ã¶t": 3329,
      "ĠZug": 3330,
      "Ġsubsid": 3331,
      "ategie": 3332,
      "Ġagreements": 3333,
      "ĠInformationen": 3334,
      "isher": 3335,
      "tellen": 3336,
      "Ġhist": 3337,
      "Ġgehen": 3338,
      "Ġallerdings": 3339,
      "Ġschwer": 3340,
      "Ġstandards": 3341,
      "Ġanswer": 3342,
      "lassen": 3343,
      "Ġident": 3344,
      "rete": 3345,
      "Ġihrem": 3346,
      "Ġregarding": 3347,
      "ĠLandwirtschaft": 3348,
      "Ġguarantee": 3349,
      "ĠBevÃ¶lkerung": 3350,
      "ai": 3351,
      "Ġdist": 3352,
      "organ": 3353,
      "ĠAmer": 3354,
      "ĠUr": 3355,
      "ourt": 3356,
      "ĠSchw": 3357,
      "ĠInteressen": 3358,
      "Ġprinciples": 3359,
      "Ġbekannt": 3360,
      "Ġnegotiations": 3361,
      "Ġpower": 3362,
      "anden": 3363,
      "Ġjud": 3364,
      "ĠText": 3365,
      "selves": 3366,
      "Ġsoziale": 3367,
      "ĠhÃ¤tte": 3368,
      "ĠMehrheit": 3369,
      "ĠvÃ¶llig": 3370,
      "fragen": 3371,
      "ahn": 3372,
      "Ġ14": 3373,
      "spruch": 3374,
      "agen": 3375,
      "hab": 3376,
      "Ġdang": 3377,
      "Ġintend": 3378,
      "Ġpress": 3379,
      "use": 3380,
      "ĠFr": 3381,
      "indest": 3382,
      "hend": 3383,
      "Ã¼d": 3384,
      "elves": 3385,
      "Ġstress": 3386,
      "Ġnever": 3387,
      "Ġassist": 3388,
      "Ġ50": 3389,
      "Ġguid": 3390,
      "nehmer": 3391,
      "co": 3392,
      "Ã¼t": 3393,
      "ĠRei": 3394,
      "Ġcover": 3395,
      "Ġparticip": 3396,
      "folgen": 3397,
      "stances": 3398,
      "ausschuÃŁ": 3399,
      "drÃ¼ck": 3400,
      "round": 3401,
      "Ġcontext": 3402,
      "Ġgovernments": 3403,
      "ĠGeschÃ¤fts": 3404,
      "vious": 3405,
      "zunehmen": 3406,
      "Ġwahr": 3407,
      "Ġsur": 3408,
      "entliche": 3409,
      "iges": 3410,
      "Ġsehen": 3411,
      "enste": 3412,
      "ĠVoraus": 3413,
      "Ġenter": 3414,
      "Ġ30": 3415,
      "ĠConference": 3416,
      "Ġefforts": 3417,
      "bur": 3418,
      "Ġcent": 3419,
      "ĠBalk": 3420,
      "Ġrestr": 3421,
      "Ġihm": 3422,
      "Ġrecent": 3423,
      "Ġindeed": 3424,
      "merksam": 3425,
      "Ġvoted": 3426,
      "Ġthems": 3427,
      "Ġenthalten": 3428,
      "Ġstrong": 3429,
      "lexib": 3430,
      "ĠBedingungen": 3431,
      "Ġthemselves": 3432,
      "lÃ¤nder": 3433,
      "Ġsystems": 3434,
      "Ġfish": 3435,
      "ican": 3436,
      "ĠWÃ¤hr": 3437,
      "mehr": 3438,
      "ĠSchul": 3439,
      "Ġourselves": 3440,
      "Ġfarm": 3441,
      "ĠgehÃ¶rt": 3442,
      "Ġklein": 3443,
      "Ġfamil": 3444,
      "Ġeuro": 3445,
      "Ġtom": 3446,
      "Ġitem": 3447,
      "ĠerklÃ¤r": 3448,
      "ĠBerichts": 3449,
      "Ġevent": 3450,
      "ĠSecond": 3451,
      "Ġsignific": 3452,
      "ĠgefÃ¤hr": 3453,
      "mb": 3454,
      "ody": 3455,
      "immung": 3456,
      "Ġgestellt": 3457,
      "Ġconcerning": 3458,
      "twort": 3459,
      "ift": 3460,
      "Ġdring": 3461,
      "angen": 3462,
      "ichtet": 3463,
      "ĠSelbst": 3464,
      "Ġjoint": 3465,
      "Ġcoordin": 3466,
      "outh": 3467,
      "finden": 3468,
      "Ġgemeinsame": 3469,
      "Ġ2001": 3470,
      "fortun": 3471,
      "Ġwider": 3472,
      "Ġverbess": 3473,
      "ĠGree": 3474,
      "ĠGovernment": 3475,
      "ĠAntwort": 3476,
      "Ġcomes": 3477,
      "Ġsag": 3478,
      "Ġcommunication": 3479,
      "jenigen": 3480,
      "av": 3481,
      "ĠWasser": 3482,
      "que": 3483,
      "Ġdoing": 3484,
      "ritts": 3485,
      "Ġreasons": 3486,
      "ode": 3487,
      "rotz": 3488,
      "Ġgute": 3489,
      "Ġlonger": 3490,
      "Ġtraff": 3491,
      "ĠÃĸsterreich": 3492,
      "Ġmonths": 3493,
      "ĠDoch": 3494,
      "Ġunterschied": 3495,
      "Ġparties": 3496,
      "Ġdiscussion": 3497,
      "standen": 3498,
      "Ġschwier": 3499,
      "vorschriften": 3500,
      "Ġgrowth": 3501,
      "Ġtomorrow": 3502,
      "enken": 3503,
      "ĠFÃ¶rderung": 3504,
      "ĠstÃ¤rk": 3505,
      "Ġnothing": 3506,
      "Ġbisher": 3507,
      "Ġconsumer": 3508,
      "anu": 3509,
      "Ġbeit": 3510,
      "ims": 3511,
      "ĠDamen": 3512,
      "Ã¼sse": 3513,
      "aged": 3514,
      "Ġsolution": 3515,
      "Ġkeep": 3516,
      "Ġstrategy": 3517,
      "ĠTurke": 3518,
      "ĠnÃ¤chsten": 3519,
      "Ġdiscrimination": 3520,
      "ban": 3521,
      "itive": 3522,
      "Ġcaus": 3523,
      "Ġlab": 3524,
      "abon": 3525,
      "issabon": 3526,
      "Ġshe": 3527,
      "trÃ¤gen": 3528,
      "legation": 3529,
      "Ġemph": 3530,
      "Ġwirksam": 3531,
      "ĠTÃ¼rke": 3532,
      "Ġdiskut": 3533,
      "))": 3534,
      "mden": 3535,
      "inge": 3536,
      "Ġopt": 3537,
      "ĠSicht": 3538,
      "ĠCourt": 3539,
      "ĠVors": 3540,
      "Ġweiteren": 3541,
      "ĠDieser": 3542,
      "Ġdemocracy": 3543,
      "ĠKontrolle": 3544,
      "vant": 3545,
      "ination": 3546,
      "teid": 3547,
      "ĠKultur": 3548,
      "ĠRisik": 3549,
      "Ġconv": 3550,
      "ĠLissabon": 3551,
      "ĠInvest": 3552,
      "erence": 3553,
      "Ġidea": 3554,
      "ize": 3555,
      "ugen": 3556,
      "roffen": 3557,
      "Ġear": 3558,
      "Ġfair": 3559,
      "worten": 3560,
      "Ġdraw": 3561,
      "ĠOrganisation": 3562,
      "ĠTurkey": 3563,
      "ĠLuft": 3564,
      "ĠZweit": 3565,
      "Ġamong": 3566,
      "ĠGew": 3567,
      "Ġcontra": 3568,
      "ledge": 3569,
      "Ġagricultural": 3570,
      "ĠLisbon": 3571,
      "ĠReihe": 3572,
      "ĠKomp": 3573,
      "ĠGesch": 3574,
      "deutet": 3575,
      "ĠLet": 3576,
      "frist": 3577,
      "self": 3578,
      "Ġregulations": 3579,
      "ĠNotwend": 3580,
      "ĠTÃ¼rkei": 3581,
      "atis": 3582,
      "ÃŁen": 3583,
      "ĠTats": 3584,
      "Ġtechnical": 3585,
      "zustellen": 3586,
      "Ġethn": 3587,
      "Ġanal": 3588,
      "ingen": 3589,
      "Ġzie": 3590,
      "Ġerreicht": 3591,
      "lied": 3592,
      "Ġarbeit": 3593,
      "ĠKommissarin": 3594,
      "Ġfound": 3595,
      "Ġabsolute": 3596,
      "ĠSitzung": 3597,
      "ckt": 3598,
      "orted": 3599,
      "ĠBSE": 3600,
      "ilung": 3601,
      "ĠRaum": 3602,
      "Ġfore": 3603,
      "Ġdisast": 3604,
      "Ġindem": 3605,
      "Ġhumanit": 3606,
      "Ġfindet": 3607,
      "wÃ¼r": 3608,
      "cher": 3609,
      "Ġundert": 3610,
      "ĠVerfÃ¼": 3611,
      "Ġreports": 3612,
      "ĠÃľberein": 3613,
      "Ġseems": 3614,
      "ĠÃ¼brigen": 3615,
      "over": 3616,
      "orge": 3617,
      "ants": 3618,
      "Ġfour": 3619,
      "Ġofficial": 3620,
      "ittle": 3621,
      "uppen": 3622,
      "Ġunt": 3623,
      "ĠPre": 3624,
      "ĠKÃ¶n": 3625,
      "Ġlink": 3626,
      "ott": 3627,
      "ĠErzeug": 3628,
      "Ġenough": 3629,
      "Ġwichtigen": 3630,
      "Ġcurrently": 3631,
      "ĠDiskrimin": 3632,
      "Ġernst": 3633,
      "ches": 3634,
      "Ġbil": 3635,
      "ĠAktion": 3636,
      "Ġday": 3637,
      "Ġlittle": 3638,
      "ĠunterstÃ¼tzt": 3639,
      "ĠBerichterstatterin": 3640,
      "Ġenergy": 3641,
      "ĠfÃ¼nf": 3642,
      "Ġebenso": 3643,
      "ĠEC": 3644,
      "Ġbedeut": 3645,
      "ceed": 3646,
      "ĠBeziehungen": 3647,
      "ĠOp": 3648,
      "baren": 3649,
      "ĠBehÃ¶rden": 3650,
      "ners": 3651,
      "Ġmar": 3652,
      "ĠfÃ¶r": 3653,
      "Ġnet": 3654,
      "Ġzahl": 3655,
      "Ġret": 3656,
      "amb": 3657,
      "ĠGefahr": 3658,
      "Ġrac": 3659,
      "rieg": 3660,
      "Ġexperien": 3661,
      "ĠkÃ¶nnten": 3662,
      "RE": 3663,
      "llent": 3664,
      "ĠKl": 3665,
      "Ġdeveloping": 3666,
      "ĠVolks": 3667,
      "Ġactivities": 3668,
      "Ġguidel": 3669,
      "LAF": 3670,
      "ove": 3671,
      "lei": 3672,
      "ĠProzeÃŁ": 3673,
      "lands": 3674,
      "hens": 3675,
      "reiben": 3676,
      "Ġhim": 3677,
      "irc": 3678,
      "ĠDam": 3679,
      "Ġdep": 3680,
      "griff": 3681,
      "Ġground": 3682,
      "ĠRegierungen": 3683,
      "ringen": 3684,
      "rench": 3685,
      "prÃ¤": 3686,
      "ics": 3687,
      "Ġconsequ": 3688,
      "Ġrail": 3689,
      "gramm": 3690,
      "Ġactions": 3691,
      "Ġproduction": 3692,
      "ully": 3693,
      "Ġkey": 3694,
      "ĠAuÃŁerdem": 3695,
      "ĠVerhandlungen": 3696,
      "ĠSecondly": 3697,
      "ĠNotwendigkeit": 3698,
      "..": 3699,
      "oy": 3700,
      "uese": 3701,
      "Ġdue": 3702,
      "Ġpot": 3703,
      "Ġoft": 3704,
      "Ġbedeutet": 3705,
      "ĠPri": 3706,
      "ĠGipf": 3707,
      "Ġvertreten": 3708,
      "sehen": 3709,
      "ĠPresidency": 3710,
      "ĠVorschriften": 3711,
      "ĠGrundrechte": 3712,
      "Ġrelation": 3713,
      "aterial": 3714,
      "Ġconsumers": 3715,
      "hof": 3716,
      "ĠPortuguese": 3717,
      "Ġexcellent": 3718,
      "gÃ¤n": 3719,
      "Ġfran": 3720,
      "Ġcirc": 3721,
      "ffice": 3722,
      "verb": 3723,
      "ĠAntrag": 3724,
      "Ġshare": 3725,
      "immungen": 3726,
      "ĠAufgabe": 3727,
      "Ġinclude": 3728,
      "Ġbuild": 3729,
      "Ġencour": 3730,
      "ba": 3731,
      "lies": 3732,
      "ators": 3733,
      "Ġve": 3734,
      "Ġverw": 3735,
      "ĠLeit": 3736,
      "ĠPart": 3737,
      "ennung": 3738,
      "ĠPrÃ¤sidentschaft": 3739,
      "staat": 3740,
      "ĠHeraus": 3741,
      "ĠAuÃŁen": 3742,
      "Ġjobs": 3743,
      "Ġstrengt": 3744,
      "Ġtabled": 3745,
      "Ġmakes": 3746,
      "app": 3747,
      "ĠerfÃ¼": 3748,
      "Ġresul": 3749,
      "ĠProt": 3750,
      "utzung": 3751,
      "Ġperhaps": 3752,
      "ĠBeihilfen": 3753,
      ".)": 3754,
      "fully": 3755,
      "iffen": 3756,
      "Ġfall": 3757,
      "rael": 3758,
      "ĠDank": 3759,
      "ĠFrench": 3760,
      "Ġvern": 3761,
      "ĠOb": 3762,
      "atory": 3763,
      "ĠmÃ¼ÃŁ": 3764,
      "Ġvier": 3765,
      "Ġvict": 3766,
      "lling": 3767,
      "ommun": 3768,
      "ĠWach": 3769,
      "ĠParty": 3770,
      "Ġexpect": 3771,
      "forderungen": 3772,
      "Ġcosts": 3773,
      "Ġoblig": 3774,
      "Ġemphas": 3775,
      "Ġguidelines": 3776,
      "ativ": 3777,
      "anges": 3778,
      "Ġfield": 3779,
      "ĠDok": 3780,
      "ĠKommissions": 3781,
      "maÃŁnahmen": 3782,
      "Ġhonour": 3783,
      "burg": 3784,
      "ĠzunÃ¤chst": 3785,
      "Ġschnell": 3786,
      "Europ": 3787,
      "best": 3788,
      "government": 3789,
      "Ġsett": 3790,
      "orm": 3791,
      "ĠAgr": 3792,
      "weil": 3793,
      "Ġ25": 3794,
      "ĠKonfl": 3795,
      "Ġunserem": 3796,
      "ĠQual": 3797,
      "fÃ¤higkeit": 3798,
      "gliche": 3799,
      "low": 3800,
      "uc": 3801,
      "Ġpur": 3802,
      "ĠWo": 3803,
      "ĠGre": 3804,
      "ĠCo": 3805,
      "Ġcongratulate": 3806,
      "igungs": 3807,
      "Ġquick": 3808,
      "Ġmeinem": 3809,
      "Ġbestimmte": 3810,
      "ĠPrior": 3811,
      "governmental": 3812,
      "Ġbit": 3813,
      "Ġportug": 3814,
      "Ã¼cht": 3815,
      "ĠMin": 3816,
      "ĠBrit": 3817,
      "ĠRass": 3818,
      "ustain": 3819,
      "ĠNr": 3820,
      "Ġseen": 3821,
      "ĠOLAF": 3822,
      "Ġentire": 3823,
      "ĠRatsprÃ¤sident": 3824,
      "ĠAss": 3825,
      "Ġmaintain": 3826,
      "ĠberÃ¼cksichtigt": 3827,
      "Ġeigentlich": 3828,
      "Ġportugies": 3829,
      "wÃ¼n": 3830,
      "ĠlÃ¤nd": 3831,
      "Ġverst": 3832,
      "duc": 3833,
      "Ġcomprom": 3834,
      "Ġfinal": 3835,
      "Ġgesamten": 3836,
      "ĠEnergie": 3837,
      "Ġbre": 3838,
      "Ã¼h": 3839,
      "Ġvoting": 3840,
      "ichten": 3841,
      "Ã¤nde": 3842,
      "Ġamb": 3843,
      "Ġgener": 3844,
      "Ġprovided": 3845,
      "Ġkonn": 3846,
      "Ġagreed": 3847,
      "Ġeindeutig": 3848,
      "ĠVerbesserung": 3849,
      "zentr": 3850,
      "ĠfÃ¼hr": 3851,
      "ĠSchritt": 3852,
      "Ã¤tigkeit": 3853,
      "mitted": 3854,
      "ĠGemeinsamen": 3855,
      "hes": 3856,
      "lt": 3857,
      "ĠPal": 3858,
      "oss": 3859,
      "ĠverfÃ¼": 3860,
      "Ġerwar": 3861,
      "Ġsever": 3862,
      "cken": 3863,
      "schaftlichen": 3864,
      "ĠJanu": 3865,
      "ĠOur": 3866,
      "Ġeng": 3867,
      "Ġsolchen": 3868,
      "ĠBereichen": 3869,
      "richtung": 3870,
      "struct": 3871,
      "greifen": 3872,
      "Ġprepared": 3873,
      "fortunately": 3874,
      "ivers": 3875,
      "ond": 3876,
      "Ġbzw": 3877,
      "iglich": 3878,
      "ĠPunkte": 3879,
      "ĠKap": 3880,
      "Ġsex": 3881,
      "Ã¼ssel": 3882,
      "mitteln": 3883,
      "Ġcontinu": 3884,
      "Ġmer": 3885,
      "ĠTag": 3886,
      "illeg": 3887,
      "Ġgee": 3888,
      "orth": 3889,
      "Ġdemon": 3890,
      "Ġseinem": 3891,
      "Ġobvious": 3892,
      "Ġneeded": 3893,
      "arbeiten": 3894,
      "ĠStaats": 3895,
      "ĠMitteilung": 3896,
      "Ġiniti": 3897,
      "ĠME": 3898,
      "Ġgra": 3899,
      "ĠInform": 3900,
      "ither": 3901,
      "Ġimprove": 3902,
      "ĠPrinzip": 3903,
      "ĠForschung": 3904,
      "ĠDiskussion": 3905,
      "aut": 3906,
      "hnen": 3907,
      "side": 3908,
      "Ġty": 3909,
      "itim": 3910,
      "ĠBas": 3911,
      "Ġline": 3912,
      "Ġstar": 3913,
      "Ġstud": 3914,
      "ĠNahr": 3915,
      "uÃŁt": 3916,
      "ĠAustria": 3917,
      "stell": 3918,
      "Ġworkers": 3919,
      "Ġbasic": 3920,
      "Ġelect": 3921,
      "ĠPlen": 3922,
      "arf": 3923,
      "temp": 3924,
      "Ġeas": 3925,
      "sprechen": 3926,
      "anken": 3927,
      "Ġ1997": 3928,
      "ĠEntschlieÃŁungs": 3929,
      "Ġumfassen": 3930,
      "Ġlediglich": 3931,
      "Ġsignificant": 3932,
      "03": 3933,
      "pid": 3934,
      "Ġvergangenen": 3935,
      "Ġschein": 3936,
      "Ġpoor": 3937,
      "Ġrichtig": 3938,
      "Ġpopulation": 3939,
      "atisf": 3940,
      "AD": 3941,
      "imme": 3942,
      "ĠZum": 3943,
      "ĠWirk": 3944,
      "ĠOne": 3945,
      "ysteme": 3946,
      "ĠRichtung": 3947,
      "folgt": 3948,
      "Ġprocedures": 3949,
      "Ġlangu": 3950,
      "Ġanim": 3951,
      "Ġvis": 3952,
      "ĠDenn": 3953,
      "ĠKamp": 3954,
      "Ã¼rz": 3955,
      "ĠNicht": 3956,
      "Ġhatten": 3957,
      "Ġchanges": 3958,
      "Ġetwa": 3959,
      "Ġthroughout": 3960,
      "Ġgelten": 3961,
      "Ġvalues": 3962,
      "Ġcriter": 3963,
      "Ġsense": 3964,
      "umente": 3965,
      "ĠGrÃ¼nden": 3966,
      "ĠEmpfehl": 3967,
      "Ġuntil": 3968,
      "Ġnetwork": 3969,
      "most": 3970,
      "sÃ¤tz": 3971,
      "zÃ¶s": 3972,
      "Ġban": 3973,
      "entions": 3974,
      "Ġrein": 3975,
      "Ġlow": 3976,
      "Ġstark": 3977,
      "ĠÃĦnderung": 3978,
      "kontro": 3979,
      "Ġgleichzeitig": 3980,
      "ĠMÃ¶glichkeiten": 3981,
      "Ġcommitment": 3982,
      "ĠVolk": 3983,
      "Ġsustain": 3984,
      "Ġderart": 3985,
      "Ġrepe": 3986,
      "Ġdurchge": 3987,
      "plan": 3988,
      "yn": 3989,
      "Ġbeg": 3990,
      "cep": 3991,
      "Ġstop": 3992,
      "Ġpartners": 3993,
      "arbeitet": 3994,
      "ĠLeg": 3995,
      "legenheiten": 3996,
      "ĠThemen": 3997,
      "ffentlichkeit": 3998,
      "ĠNahrungs": 3999,
      "Ġdisch": 4000,
      "esen": 4001,
      "Ġeingehen": 4002,
      "ĠTod": 4003,
      "ĠWahl": 4004,
      "Ġland": 4005,
      "ĠgefÃ¼hrt": 4006,
      "oph": 4007,
      "laÃŁ": 4008,
      "ĠMitglieder": 4009,
      "Ġrad": 4010,
      "Ġraised": 4011,
      "ĠÃĸffentlichkeit": 4012,
      "ĠzusÃ¤tz": 4013,
      "ĠZweitens": 4014,
      "ĠAgrar": 4015,
      "by": 4016,
      "fert": 4017,
      "oren": 4018,
      "alten": 4019,
      "ĠAut": 4020,
      "imb": 4021,
      "Ġverhin": 4022,
      "Ġextend": 4023,
      "gebracht": 4024,
      "Ġgetan": 4025,
      "Ġtrue": 4026,
      "Ġexpressed": 4027,
      "gewiesen": 4028,
      "Ġzweite": 4029,
      "Ġangesichts": 4030,
      "Ġaspects": 4031,
      "ĠErklÃ¤rung": 4032,
      "bare": 4033,
      "cr": 4034,
      "inne": 4035,
      "ĠLeben": 4036,
      "Ġassess": 4037,
      "Ã¤ÃŁt": 4038,
      "ĠFremden": 4039,
      "Ġsagte": 4040,
      "Ġanalys": 4041,
      "ĠVerfÃ¼gung": 4042,
      "ana": 4043,
      "Ġeither": 4044,
      "Ġpa": 4045,
      "ĠMal": 4046,
      "ĠHuman": 4047,
      "Ġvorgelegt": 4048,
      "ĠAnt": 4049,
      "Ġrest": 4050,
      "Ġprovisions": 4051,
      "Ġemploy": 4052,
      "Ġcarried": 4053,
      "Ġfolgen": 4054,
      "Ġmeeting": 4055,
      "ĠAngelegenheit": 4056,
      "ĠPartei": 4057,
      "ĠFreiheit": 4058,
      "ĠWachstum": 4059,
      "Ġpurp": 4060,
      "aat": 4061,
      "fre": 4062,
      "Ġfive": 4063,
      "Ġnam": 4064,
      "ĠWill": 4065,
      "Ġappe": 4066,
      "Ġbetroffen": 4067,
      "Ġasked": 4068,
      "Ġestablished": 4069,
      "ĠEntscheidungen": 4070,
      "leistet": 4071,
      "ĠTatsache": 4072,
      "ĠDamit": 4073,
      "Ġtype": 4074,
      "Ġmacht": 4075,
      "alitÃ¤t": 4076,
      "Ġclar": 4077,
      "geleg": 4078,
      "Ġbeant": 4079,
      "ĠSache": 4080,
      "Ġihn": 4081,
      "Ġunseres": 4082,
      "fÃ¤lle": 4083,
      "Ġrequired": 4084,
      "ialogue": 4085,
      "ĠIra": 4086,
      "Ġche": 4087,
      "line": 4088,
      "arbeitung": 4089,
      "ĠSteuer": 4090,
      "Ġprakt": 4091,
      "Ġcontribution": 4092,
      "kommens": 4093,
      "Ġsuggest": 4094,
      "go": 4095,
      "Ġbor": 4096,
      "asch": 4097,
      "Ġlange": 4098,
      "Ġweek": 4099,
      "zulegen": 4100,
      "Ġwobei": 4101,
      "lemented": 4102,
      "Ġterm": 4103,
      "Ġachieved": 4104,
      "son": 4105,
      "edi": 4106,
      "igr": 4107,
      "Ġfail": 4108,
      "Ġeveryone": 4109,
      "Ġwesentlich": 4110,
      "ĠInformations": 4111,
      "nissen": 4112,
      "por": 4113,
      "aring": 4114,
      "ĠunabhÃ¤ng": 4115,
      "ĠDialog": 4116,
      "Ġstimmen": 4117,
      "ĠZunÃ¤chst": 4118,
      "Ġleider": 4119,
      "ielle": 4120,
      "istischen": 4121,
      "Ġchocol": 4122,
      "hlen": 4123,
      "Ġnature": 4124,
      "glÃ¼ck": 4125,
      "ĠStellungnahme": 4126,
      "Ġgrundlegen": 4127,
      "ĠArbeitspl": 4128,
      "ĠRassismus": 4129,
      "ison": 4130,
      "Ġsetzen": 4131,
      "iew": 4132,
      "Ġbitte": 4133,
      "ĠfrÃ¼": 4134,
      "ĠSerb": 4135,
      "stellt": 4136,
      "ĠEng": 4137,
      "ĠZeitpunkt": 4138,
      "ĠgroÃŁer": 4139,
      "Ġheraus": 4140,
      "gesellschaft": 4141,
      "Ġpresented": 4142,
      "pendent": 4143,
      "ĠZugang": 4144,
      "Ġdialogue": 4145,
      "ieten": 4146,
      "igte": 4147,
      "ĠPosition": 4148,
      "indung": 4149,
      "ĠAbschlieÃŁend": 4150,
      "okol": 4151,
      "gebung": 4152,
      "ĠSektor": 4153,
      "Ġconfidence": 4154,
      "Ġorganisations": 4155,
      "gu": 4156,
      "Ġeduc": 4157,
      "Ġwhose": 4158,
      "ĠHÃ¶": 4159,
      "Ġconne": 4160,
      "ĠAnfrage": 4161,
      "ĠRegional": 4162,
      "bildung": 4163,
      "pite": 4164,
      "rug": 4165,
      "uppe": 4166,
      "Ġcla": 4167,
      "Ġunemp": 4168,
      "Ġverg": 4169,
      "Ġcomb": 4170,
      "Ġhinweisen": 4171,
      "Ġdecided": 4172,
      "Ġcarry": 4173,
      "ĠSeite": 4174,
      "ĠtatsÃ¤chlich": 4175,
      "Ġresults": 4176,
      "gument": 4177,
      "Ġilleg": 4178,
      "unities": 4179,
      "ĠwÃ¼n": 4180,
      "ĠbeschÃ¤ft": 4181,
      "ĠIr": 4182,
      "ĠPra": 4183,
      "Ġverl": 4184,
      "Ġheut": 4185,
      "ĠBelg": 4186,
      "Ġtotal": 4187,
      "Ġchocolate": 4188,
      "ellen": 4189,
      "more": 4190,
      "Ġstage": 4191,
      "ĠIntegr": 4192,
      "Ġexam": 4193,
      "Ġ21": 4194,
      "cco": 4195,
      "reiche": 4196,
      "conomic": 4197,
      "ĠChina": 4198,
      "schlieÃŁlich": 4199,
      "Ġmarkets": 4200,
      "Ġremind": 4201,
      "ĠBeschluÃŁ": 4202,
      "Ġcorrect": 4203,
      "Ġallgemeinen": 4204,
      "enntnis": 4205,
      "ennen": 4206,
      "Ġakt": 4207,
      "ĠFern": 4208,
      "iding": 4209,
      "Ġsoon": 4210,
      "verty": 4211,
      "Ġerheb": 4212,
      "formen": 4213,
      "Ġ18": 4214,
      "Ġpoverty": 4215,
      "Ġfunding": 4216,
      "ĠDemoc": 4217,
      "ĠVertrags": 4218,
      "ĠErgebnis": 4219,
      "Ġdoubt": 4220,
      "ĠfranzÃ¶s": 4221,
      "Ġseveral": 4222,
      "imbab": 4223,
      "onen": 4224,
      "Ġthing": 4225,
      "tem": 4226,
      "ĠPer": 4227,
      "schluÃŁ": 4228,
      "Ġfast": 4229,
      "Ġcho": 4230,
      "ĠHaushalt": 4231,
      "Ġdelay": 4232,
      "Ġlimit": 4233,
      "Ġexisting": 4234,
      "ĠPersonen": 4235,
      "):": 4236,
      "of": 4237,
      "Ġdest": 4238,
      "Ġturn": 4239,
      "Ġhoch": 4240,
      "Ġcandid": 4241,
      "ĠMinder": 4242,
      "ĠDen": 4243,
      "ĠRes": 4244,
      "Ġbetreffen": 4245,
      "heben": 4246,
      "haupt": 4247,
      "Ġstrengthen": 4248,
      "ĠbefÃ¼r": 4249,
      "fft": 4250,
      "ĠVers": 4251,
      "rang": 4252,
      "Ġmodern": 4253,
      "Ġseek": 4254,
      "zeichne": 4255,
      "ĠIsrael": 4256,
      "cies": 4257,
      "atic": 4258,
      "ichen": 4259,
      "Ġfoc": 4260,
      "ĠVÃ¶lk": 4261,
      "Ġwegen": 4262,
      "ĠJu": 4263,
      "rief": 4264,
      "ĠStrategie": 4265,
      "ĠBeitritts": 4266,
      "Ġurg": 4267,
      "Ġbestimmten": 4268,
      "Ġbroad": 4269,
      "ĠDirect": 4270,
      "ĠNatur": 4271,
      "Ġassistance": 4272,
      "ested": 4273,
      "Ã¼lt": 4274,
      "Ġbeteil": 4275,
      "ĠSan": 4276,
      "ĠlÃ¤ÃŁt": 4277,
      "Ġyes": 4278,
      "ĠErstens": 4279,
      "ĠGelegenheit": 4280,
      "struktur": 4281,
      "Ġpromote": 4282,
      "Ġfolgt": 4283,
      "Ġaccording": 4284,
      "ĠFirstly": 4285,
      "ĠVertreter": 4286,
      "ĠKomprom": 4287,
      "Ġdischarge": 4288,
      "Ġspiel": 4289,
      "Ġtragen": 4290,
      "Ġtradition": 4291,
      "folge": 4292,
      "legung": 4293,
      "Ġoffer": 4294,
      "ĠVereinbar": 4295,
      "Ġcapital": 4296,
      "Ġmotion": 4297,
      "Ġpleased": 4298,
      "agraph": 4299,
      "ences": 4300,
      "Ġfisher": 4301,
      "arian": 4302,
      "Ġverein": 4303,
      "Ġbeha": 4304,
      "ĠMÃ¤r": 4305,
      "ĠzustÃ¤nd": 4306,
      "gency": 4307,
      "Ġko": 4308,
      "peten": 4309,
      "ulture": 4310,
      "Ġimplemented": 4311,
      "inki": 4312,
      "ĠDec": 4313,
      "langen": 4314,
      "elsinki": 4315,
      "ĠKoordin": 4316,
      "ĠFlÃ¼cht": 4317,
      "ĠbegrÃ¼ÃŁen": 4318,
      "Ġcompromise": 4319,
      "Ġcriteria": 4320,
      "Ġtour": 4321,
      "elten": 4322,
      "ĠRom": 4323,
      "ĠHelsinki": 4324,
      "Ġerziel": 4325,
      "Ġgenommen": 4326,
      "Ġtele": 4327,
      "teilen": 4328,
      "setzungen": 4329,
      "Ġpractice": 4330,
      "Ġprivate": 4331,
      "ĠFolgen": 4332,
      "Ġquickly": 4333,
      "Ġsatisf": 4334,
      "Ġbeh": 4335,
      "liches": 4336,
      "Ġkomp": 4337,
      "Ġfort": 4338,
      "Ġaufgenommen": 4339,
      "ĠSchokol": 4340,
      "Ġunterb": 4341,
      "iveness": 4342,
      "ĠRechtsvorschriften": 4343,
      "Ġheld": 4344,
      "Ġarbeiten": 4345,
      "ians": 4346,
      "oung": 4347,
      "Ġhold": 4348,
      "ĠPost": 4349,
      "ĠWTO": 4350,
      "Ġfordern": 4351,
      "ume": 4352,
      "ĠLE": 4353,
      "ĠRegelung": 4354,
      "Ġjedem": 4355,
      "ĠMitgliedstaat": 4356,
      "ĠMenschenrechts": 4357,
      "Ġtransparen": 4358,
      "Ġbeschlossen": 4359,
      "ĠGerman": 4360,
      "ĠbegrÃ¼ÃŁe": 4361,
      "Ġangesprochen": 4362,
      "ĠLebensmittel": 4363,
      "weden": 4364,
      "Ġbleiben": 4365,
      "uted": 4366,
      "stead": 4367,
      "Ġfacil": 4368,
      "Ġkeiner": 4369,
      "mitglie": 4370,
      "prinzip": 4371,
      "Ġlevels": 4372,
      "Ġangem": 4373,
      "Ġpriority": 4374,
      "Ġaffect": 4375,
      "wÃ¼rd": 4376,
      "ADER": 4377,
      "az": 4378,
      "nommen": 4379,
      "uff": 4380,
      "ĠSinne": 4381,
      "Ġlight": 4382,
      "Ġerster": 4383,
      "ĠLin": 4384,
      "gesamt": 4385,
      "gerungen": 4386,
      "Ġincor": 4387,
      "ĠKoh": 4388,
      "ĠFlug": 4389,
      "ĠBestimmungen": 4390,
      "Ġtalking": 4391,
      "Ġbalance": 4392,
      "Ġsuffer": 4393,
      "aden": 4394,
      "Ġph": 4395,
      "ĠFamil": 4396,
      "ĠKraft": 4397,
      "osla": 4398,
      "ests": 4399,
      "Ġprofit": 4400,
      "Ġdeterm": 4401,
      "ugosla": 4402,
      "griffen": 4403,
      "ĠAbsatz": 4404,
      "ĠEinfÃ¼hrung": 4405,
      "Ġindic": 4406,
      "Ġliegen": 4407,
      "geschlossen": 4408,
      "ĠGerichts": 4409,
      "ĠUSA": 4410,
      "Ġtask": 4411,
      "Ġsitting": 4412,
      "Ġforeign": 4413,
      "ĠLEADER": 4414,
      "NT": 4415,
      "dict": 4416,
      "iere": 4417,
      "Ġdat": 4418,
      "tell": 4419,
      "imension": 4420,
      "Ġsafe": 4421,
      "losigkeit": 4422,
      "Ġsaying": 4423,
      "pril": 4424,
      "Ġ40": 4425,
      "ĠGroÃŁ": 4426,
      "Ġreading": 4427,
      "ĠIndustrie": 4428,
      "chanis": 4429,
      "ĠermÃ¶glichen": 4430,
      "Ġinnov": 4431,
      "ikt": 4432,
      "Ġsorgen": 4433,
      "Ġinst": 4434,
      "Ġold": 4435,
      "Ġvol": 4436,
      "Ã¶sen": 4437,
      "Ġstaat": 4438,
      "Ġexcept": 4439,
      "wegen": 4440,
      "ĠAnsatz": 4441,
      "Ġyoung": 4442,
      "ĠAngelegenheiten": 4443,
      "ĠRede": 4444,
      "Ġcompletely": 4445,
      "Ġfocus": 4446,
      "pf": 4447,
      "legt": 4448,
      "Ġcriminal": 4449,
      "olution": 4450,
      "ĠTra": 4451,
      "Ġhead": 4452,
      "Ġnote": 4453,
      "Ġknowledge": 4454,
      "ĠBÃ¼rgern": 4455,
      "Ġverbunden": 4456,
      "ĠbewuÃŁt": 4457,
      "Ġhistor": 4458,
      "Ġabsolutely": 4459,
      "wand": 4460,
      "Ġblo": 4461,
      "leben": 4462,
      "ĠApril": 4463,
      "ĠPe": 4464,
      "ĠNos": 4465,
      "ĠNationen": 4466,
      "Ã¤nger": 4467,
      "ufig": 4468,
      "Ġobwohl": 4469,
      "Ġprepar": 4470,
      "Ġrefuge": 4471,
      "Ġspecif": 4472,
      "ĠSpan": 4473,
      "Ġimmedi": 4474,
      "abei": 4475,
      "Ġconflict": 4476,
      "organisation": 4477,
      "wan": 4478,
      "Ġcru": 4479,
      "ĠDabei": 4480,
      "nehm": 4481,
      "ĠAnst": 4482,
      "Ġparty": 4483,
      "Ġroad": 4484,
      "ethod": 4485,
      "Ġscient": 4486,
      "Ġhighl": 4487,
      "Ġwirtschaftliche": 4488,
      "Ġrelevant": 4489,
      "Ġcolleagues": 4490,
      "CP": 4491,
      "ieht": 4492,
      "Ġunver": 4493,
      "ĠPolic": 4494,
      "Ġmeisten": 4495,
      "ĠEntlast": 4496,
      "Ġgesprochen": 4497,
      "auer": 4498,
      "handlung": 4499,
      "Ġindustr": 4500,
      "ĠAmendments": 4501,
      "Ġelse": 4502,
      "imbabwe": 4503,
      "bt": 4504,
      "iop": 4505,
      "pre": 4506,
      "Ġcut": 4507,
      "Ġtop": 4508,
      "Ġbevor": 4509,
      "ĠVersch": 4510,
      "ĠInstrument": 4511,
      "laub": 4512,
      "Ġmove": 4513,
      "ĠRichtlinien": 4514,
      "ĠMeine": 4515,
      "Ġassoc": 4516,
      "ĠBemerk": 4517,
      "ĠDokument": 4518,
      "uclear": 4519,
      "KP": 4520,
      "ehen": 4521,
      "hung": 4522,
      "oz": 4523,
      "alu": 4524,
      "ĠHaltung": 4525,
      "ĠgemÃ¤ÃŁ": 4526,
      "ĠLes": 4527,
      "ienen": 4528,
      "Ġlegitim": 4529,
      "ĠKons": 4530,
      "Ġsolidar": 4531,
      "Ġjustice": 4532,
      "Ġrefle": 4533,
      "Ġirgend": 4534,
      "ikanischen": 4535,
      "ait": 4536,
      "Ġsan": 4537,
      "ĠSÃ¼d": 4538,
      "hrte": 4539,
      "Ġstability": 4540,
      "ending": 4541,
      "ĠArmut": 4542,
      "thiop": 4543,
      "Ġprovision": 4544,
      "Ġregards": 4545,
      "Ġincluded": 4546,
      "Ġsufficient": 4547,
      "ĠhÃ¶ch": 4548,
      "ĠVerwaltung": 4549,
      "ĠSchwier": 4550,
      "Ġracism": 4551,
      "ATO": 4552,
      "Ġthough": 4553,
      "orr": 4554,
      "gehend": 4555,
      "ĠINT": 4556,
      "ĠTat": 4557,
      "eind": 4558,
      "Ġattemp": 4559,
      "istic": 4560,
      "ĠErfahr": 4561,
      "Ġrapid": 4562,
      "ĠArbeitnehmer": 4563,
      "Ġproduc": 4564,
      "Ġakzeptieren": 4565,
      "Ġapplication": 4566,
      "ĠKampf": 4567,
      "vision": 4568,
      "anced": 4569,
      "Ġmis": 4570,
      "Ġhard": 4571,
      "Ġcause": 4572,
      "ĠSummit": 4573,
      "Ġrecon": 4574,
      "ĠDaten": 4575,
      "ĠDritt": 4576,
      "ession": 4577,
      "Ġcoher": 4578,
      "Ġschem": 4579,
      "ourcen": 4580,
      "Ġinteress": 4581,
      "Ġallein": 4582,
      "Ġeverything": 4583,
      "Ġbudgetary": 4584,
      "Ġrepresentatives": 4585,
      "ziehung": 4586,
      "ĠQuest": 4587,
      "ĠpersÃ¶n": 4588,
      "Ġhonourable": 4589,
      "Ġvergessen": 4590,
      "Ġtransparency": 4591,
      "Ġhapp": 4592,
      "ĠSchiff": 4593,
      "staaten": 4594,
      "ĠprÃ¼": 4595,
      "Ġexpla": 4596,
      "ĠKont": 4597,
      "wendet": 4598,
      "Ã¤ndert": 4599,
      "Ġconsidered": 4600,
      "Ġaccep": 4601,
      "ĠLiberalisierung": 4602,
      "zÃ¼glich": 4603,
      "Ġerinnern": 4604,
      "Ġfarmers": 4605,
      "gungen": 4606,
      "hem": 4607,
      "ko": 4608,
      "tent": 4609,
      "tragen": 4610,
      "isiert": 4611,
      "arenz": 4612,
      "Ġunbeding": 4613,
      "ĠSouth": 4614,
      "ĠBy": 4615,
      "ĠDinge": 4616,
      "Ġli": 4617,
      "ĠstÃ¤nd": 4618,
      "endit": 4619,
      "Ġabove": 4620,
      "Ġ16": 4621,
      "theless": 4622,
      "ighted": 4623,
      "Ġconcl": 4624,
      "Ġimpact": 4625,
      "ternal": 4626,
      "geln": 4627,
      "Ġgleichen": 4628,
      "Ġfraud": 4629,
      "Ġrequirements": 4630,
      "Ġnamely": 4631,
      "Ġdata": 4632,
      "erc": 4633,
      "Ġtar": 4634,
      "isely": 4635,
      "Ġfig": 4636,
      "ĠbeglÃ¼ck": 4637,
      "ĠKrieg": 4638,
      "Ã¶ff": 4639,
      "ĠGed": 4640,
      "ums": 4641,
      "Ġverab": 4642,
      "Ġrural": 4643,
      "Ġapplied": 4644,
      "Ġdistrib": 4645,
      "ĠDieses": 4646,
      "Ġendlich": 4647,
      "Ġapproved": 4648,
      "ĠSicherheits": 4649,
      "zeichnet": 4650,
      "Ġdanke": 4651,
      "Ġavo": 4652,
      "ĠhÃ¤tten": 4653,
      "ĠPatten": 4654,
      "Ġvictims": 4655,
      "ĠPolicy": 4656,
      "Os": 4657,
      "ding": 4658,
      "Ġtimes": 4659,
      "ĠACP": 4660,
      "Ġlist": 4661,
      "iers": 4662,
      "Ġerfolg": 4663,
      "Ġabge": 4664,
      "Ġunterst": 4665,
      "Ġappear": 4666,
      "Ġspezie": 4667,
      "ĠeuropÃ¤ischer": 4668,
      "handel": 4669,
      "Ġreference": 4670,
      "ĠGeneral": 4671,
      "ERRE": 4672,
      "Ġversuchen": 4673,
      "ĠVertrauen": 4674,
      "drÃ¼cklich": 4675,
      "ĠDemocrat": 4676,
      "ĠbeglÃ¼ckwÃ¼n": 4677,
      "ERREG": 4678,
      "ij": 4679,
      "Ġeinzu": 4680,
      "rachte": 4681,
      "rachen": 4682,
      "Ġleft": 4683,
      "okoll": 4684,
      "Ġdurchaus": 4685,
      "ĠStelle": 4686,
      "Ġreduce": 4687,
      "ĠvollstÃ¤nd": 4688,
      "Ġvalue": 4689,
      "ĠProdukt": 4690,
      "ĠStrukturfonds": 4691,
      "ĠTransparenz": 4692,
      "ĠDienstleist": 4693,
      "Ġpollution": 4694,
      "ĠOpfer": 4695,
      "oin": 4696,
      "under": 4697,
      "Ġsus": 4698,
      "ĠSc": 4699,
      "utter": 4700,
      "scht": 4701,
      "ĠWissen": 4702,
      "ĠFurther": 4703,
      "hern": 4704,
      "ĠNATO": 4705,
      "Ġleisten": 4706,
      "ured": 4707,
      "Ġcommunity": 4708,
      "Ġobserv": 4709,
      "ĠHandels": 4710,
      "ĠDurchfÃ¼hrung": 4711,
      "ĠProjekte": 4712,
      "ĠLeitlinien": 4713,
      "ĠINTERREG": 4714,
      "EN": 4715,
      "ars": 4716,
      "Ã¼gen": 4717,
      "uten": 4718,
      "trÃ¤cht": 4719,
      "schlieÃŁen": 4720,
      "Ġconsideration": 4721,
      "Ġresponse": 4722,
      "Ġreceived": 4723,
      "ĠDiskriminierung": 4724,
      "Ġinitiatives": 4725,
      "Ġspecifically": 4726,
      "part": 4727,
      "erweise": 4728,
      "Ġmethod": 4729,
      "leit": 4730,
      "ĠAKP": 4731,
      "icles": 4732,
      "terday": 4733,
      "ĠLast": 4734,
      "ĠInde": 4735,
      "laufen": 4736,
      "ifel": 4737,
      "ĠAnnahme": 4738,
      "Ġ17": 4739,
      "itionen": 4740,
      "velopment": 4741,
      "Ġgestimmt": 4742,
      "ĠInternational": 4743,
      "Ġbleibt": 4744,
      "ĠSchluÃŁfol": 4745,
      "Ã¼hungen": 4746,
      "Ġcandidate": 4747,
      "minister": 4748,
      "sicherheit": 4749,
      "Ġcentral": 4750,
      "Ġverantwort": 4751,
      "lauf": 4752,
      "ĠAbsicht": 4753,
      "Ã¤rm": 4754,
      "Ġcontent": 4755,
      "reiten": 4756,
      "Ġequal": 4757,
      "Ġcritic": 4758,
      "Ġreview": 4759,
      "ĠErgebnisse": 4760,
      "rechend": 4761,
      "ĠZusatz": 4762,
      "ĠAspekte": 4763,
      "Ġbehandelt": 4764,
      "dienst": 4765,
      "ĠMay": 4766,
      "abak": 4767,
      "Ġrun": 4768,
      "Ġrene": 4769,
      "Ġgebracht": 4770,
      "ĠGreece": 4771,
      "Ġbehind": 4772,
      "Ġunbedingt": 4773,
      "IP": 4774,
      "bru": 4775,
      "eg": 4776,
      "met": 4777,
      "sÃ¤tze": 4778,
      "erve": 4779,
      "Ġbl": 4780,
      "Ġpension": 4781,
      "Ġcalled": 4782,
      "ĠIde": 4783,
      "uter": 4784,
      "industrie": 4785,
      "ibe": 4786,
      "ĠOf": 4787,
      "Ġanything": 4788,
      "Ġdiscussions": 4789,
      "Ġpractical": 4790,
      "Ġanderer": 4791,
      "ĠGeschÃ¤ftsordnung": 4792,
      "Office": 4793,
      "isis": 4794,
      "leisten": 4795,
      "Ġtoba": 4796,
      "Ġeinheit": 4797,
      "ĠKr": 4798,
      "istische": 4799,
      "ĠErfolg": 4800,
      "ĠGrie": 4801,
      "zieht": 4802,
      "accept": 4803,
      "ĠAfrika": 4804,
      "Ġinvestment": 4805,
      "Ġzweiten": 4806,
      "Ġ198": 4807,
      "ĠgewÃ¤hrleisten": 4808,
      "ĠVerpflichtungen": 4809,
      "ĠVorsitz": 4810,
      "ĠfÃ¶rdern": 4811,
      "bahn": 4812,
      "iterr": 4813,
      "Ġought": 4814,
      "Ġpurs": 4815,
      "Ġunaccept": 4816,
      "ĠPaper": 4817,
      "ĠWel": 4818,
      "ĠWider": 4819,
      "ĠKenntnis": 4820,
      "ĠVergangen": 4821,
      "struction": 4822,
      "Ġcrisis": 4823,
      "ĠFebru": 4824,
      "Ġculture": 4825,
      "Ġconsequences": 4826,
      "ĠKompromiÃŁ": 4827,
      "Ġtobacco": 4828,
      "Ġweder": 4829,
      "Ġine": 4830,
      "Ġfl": 4831,
      "Ġune": 4832,
      "Ġvere": 4833,
      "ctural": 4834,
      "zehn": 4835,
      "Ġheard": 4836,
      "Ġmovement": 4837,
      "troffen": 4838,
      "ĠStructural": 4839,
      "bourg": 4840,
      "Ġmilitary": 4841,
      "ĠPartner": 4842,
      "Ġunemployment": 4843,
      "ĠIntegration": 4844,
      "ĠVÃ¶lker": 4845,
      "stre": 4846,
      "ĠWhen": 4847,
      "Ġlok": 4848,
      "ĠGar": 4849,
      "ĠÃ¼berhaupt": 4850,
      "ĠBeteil": 4851,
      "ĠmÃ¶chten": 4852,
      "Ġpropose": 4853,
      "ĠKonferenz": 4854,
      "ĠÃĦnderungen": 4855,
      "Ġtraining": 4856,
      "ĠGrundsatz": 4857,
      "Ġinsgesamt": 4858,
      "Ġrecently": 4859,
      "Ġoverall": 4860,
      "Ġwiederhol": 4861,
      "Ġintegration": 4862,
      "Ġvorliegenden": 4863,
      "ĠFischerei": 4864,
      "Ġdringend": 4865,
      "Ġpotential": 4866,
      "iterran": 4867,
      "lik": 4868,
      "lant": 4869,
      "Ġtrotz": 4870,
      "ĠPrÃ¤": 4871,
      "abel": 4872,
      "ĠNie": 4873,
      "ensicht": 4874,
      "pekt": 4875,
      "grenz": 4876,
      "aging": 4877,
      "Ġincreased": 4878,
      "Ġauthority": 4879,
      "ĠAugen": 4880,
      "Ġplans": 4881,
      "Ġkonkrete": 4882,
      "ĠZustimmung": 4883,
      "Ġprecisely": 4884,
      "ĠWoche": 4885,
      "Ġverbessern": 4886,
      "Ġcircum": 4887,
      "igration": 4888,
      "Ġeducation": 4889,
      "ĠSchwierigkeiten": 4890,
      "ĠVergangenheit": 4891,
      "Fra": 4892,
      "durch": 4893,
      "Ġcred": 4894,
      "ĠKom": 4895,
      "Ġgefordert": 4896,
      "Ġgetroffen": 4897,
      "Ġverk": 4898,
      "Ġleben": 4899,
      "quate": 4900,
      "Ġintervention": 4901,
      "Ġtell": 4902,
      "Ġhingewiesen": 4903,
      "Ġtakes": 4904,
      "sprozeÃŁ": 4905,
      "ĠFrank": 4906,
      "ĠArbeitsplÃ¤tze": 4907,
      "liz": 4908,
      "chter": 4909,
      "Ġinfl": 4910,
      "Ġmass": 4911,
      "etze": 4912,
      "Ġproceed": 4913,
      "ĠEntwurf": 4914,
      "Ġusing": 4915,
      "Ã¼nst": 4916,
      "ĠBereiche": 4917,
      "Ã¤mt": 4918,
      "zusetzen": 4919,
      "Ġsectors": 4920,
      "Ġwesentlichen": 4921,
      "ĠFehl": 4922,
      "bedingungen": 4923,
      "ĠNatÃ¼rlich": 4924,
      "Ġmodel": 4925,
      "Ġdangerous": 4926,
      "Ġbitten": 4927,
      "hesion": 4928,
      "Ġconnection": 4929,
      "ĠLesung": 4930,
      "ĠprÃ¼fen": 4931,
      "ĠGriechen": 4932,
      "Pro": 4933,
      "uber": 4934,
      "Ġbi": 4935,
      "Ġflexib": 4936,
      "ĠEast": 4937,
      "ĠMÃ¤n": 4938,
      "Ġgerecht": 4939,
      "ĠKatastrop": 4940,
      "Ġcondem": 4941,
      "ufact": 4942,
      "Ġcomments": 4943,
      "wogen": 4944,
      "Ġgeschaffen": 4945,
      "Ġimprovement": 4946,
      "hoben": 4947,
      "ĠBemÃ¼hungen": 4948,
      "Ġscheint": 4949,
      "gelegten": 4950,
      "bet": 4951,
      "fect": 4952,
      "mark": 4953,
      "isieren": 4954,
      "Ġsy": 4955,
      "Ġsound": 4956,
      "Ġentschieden": 4957,
      "Ġchar": 4958,
      "Ġzumindest": 4959,
      "Ġwichtigsten": 4960,
      "Ġauthor": 4961,
      "Ġrisks": 4962,
      "Ġgesamte": 4963,
      "Ġreferred": 4964,
      "ĠFortschritte": 4965,
      "Ġfishing": 4966,
      "ĠKoordinierung": 4967,
      "Ġincorpor": 4968,
      "Ġcrucial": 4969,
      "ĠFurthermore": 4970,
      "Ġunacceptable": 4971,
      "ux": 4972,
      "Ġoil": 4973,
      "denken": 4974,
      "ets": 4975,
      "ĠHow": 4976,
      "Ġmanufact": 4977,
      "Ġcounter": 4978,
      "teilt": 4979,
      "ĠIntergovernmental": 4980,
      "Ġformul": 4981,
      "Ġdemokratischen": 4982,
      "Ġconclusions": 4983,
      "Ġmonitoring": 4984,
      "ĠKÃ¶nig": 4985,
      "tember": 4986,
      "PE": 4987,
      "hÃ¤n": 4988,
      "ief": 4989,
      "Ġpat": 4990,
      "Ġhuge": 4991,
      "Ġdiejenigen": 4992,
      "Ġkrit": 4993,
      "Ġrate": 4994,
      "Ġvorsch": 4995,
      "uellen": 4996,
      "Ġmax": 4997,
      "ĠAufmerksam": 4998,
      "Ġdamage": 4999,
      "kennen": 5000,
      "Ġcrime": 5001,
      "Ġjeweil": 5002,
      "ĠberÃ¼cksichtigen": 5003,
      "Ġcoordination": 5004,
      "ĠBritish": 5005,
      "ĠfÃ¼hrt": 5006,
      "ĠSchokolade": 5007,
      "OM": 5008,
      "Ġtim": 5009,
      "atten": 5010,
      "iet": 5011,
      "teile": 5012,
      "Ġnutzen": 5013,
      "Ġuner": 5014,
      "ires": 5015,
      "Ġamount": 5016,
      "icking": 5017,
      "Ġhinter": 5018,
      "ĠKollege": 5019,
      "ffected": 5020,
      "ĠselbstverstÃ¤ndlich": 5021,
      "ĠNahrungsmittel": 5022,
      "ĠAufmerksamkeit": 5023,
      "ood": 5024,
      "tik": 5025,
      "Ġtack": 5026,
      "este": 5027,
      "Ġinspect": 5028,
      "Ġmess": 5029,
      "Ã¤ter": 5030,
      "stra": 5031,
      "ĠEisen": 5032,
      "rach": 5033,
      "zeugen": 5034,
      "ourn": 5035,
      "Ġcomment": 5036,
      "ĠGrenzen": 5037,
      "fÃ¼hren": 5038,
      "Ġsubstant": 5039,
      "Ġkonzentr": 5040,
      "Ġrelating": 5041,
      "ĠTherefore": 5042,
      "ĠHinsicht": 5043,
      "Ġdirection": 5044,
      "ĠFrance": 5045,
      "Ġstructural": 5046,
      "Ġcreating": 5047,
      "ĠProtokoll": 5048,
      "iterranean": 5049,
      "Fraktion": 5050,
      "nern": 5051,
      "raten": 5052,
      "Ġaround": 5053,
      "Ġaffected": 5054,
      "ĠTabak": 5055,
      "ĠFalle": 5056,
      "hren": 5057,
      "Ġverd": 5058,
      "Ġexport": 5059,
      "Ġextent": 5060,
      "Ġrule": 5061,
      "ucht": 5062,
      "Ġbecom": 5063,
      "ĠDevelopment": 5064,
      "ĠLandes": 5065,
      "ĠWhite": 5066,
      "Ġdiscussed": 5067,
      "Ġausgezeichne": 5068,
      "Ġpowers": 5069,
      "Ġcultural": 5070,
      "Ġnormal": 5071,
      "Ġcreated": 5072,
      "haben": 5073,
      "ĠWÃ¤hrung": 5074,
      "Ġexperience": 5075,
      "frei": 5076,
      "Ġpen": 5077,
      "ĠBarn": 5078,
      "ilar": 5079,
      "ĠVerteid": 5080,
      "chtung": 5081,
      "Ġgenet": 5082,
      "Ġconsult": 5083,
      "rifft": 5084,
      "Ġmob": 5085,
      "ĠÃĦnderungsantrÃ¤gen": 5086,
      "Ġopportunities": 5087,
      "Ġzeigt": 5088,
      "Ġfunktion": 5089,
      "ornograph": 5090,
      "ĠschlieÃŁlich": 5091,
      "Ġbilater": 5092,
      "ĠverstÃ¤r": 5093,
      "200": 5094,
      "Ġwoll": 5095,
      "ĠsÃ¤mt": 5096,
      "teen": 5097,
      "Ġever": 5098,
      "ĠPol": 5099,
      "ĠPPE": 5100,
      "Ġgiving": 5101,
      "ĠBank": 5102,
      "Ġdespite": 5103,
      "ĠIniti": 5104,
      "ĠNational": 5105,
      "Ġexact": 5106,
      "Ġnachhalt": 5107,
      "ierenden": 5108,
      "Ġjedes": 5109,
      "ĠbeschrÃ¤n": 5110,
      "wertung": 5111,
      "Ġdetail": 5112,
      "zufÃ¼hren": 5113,
      "Ġverhindern": 5114,
      "action": 5115,
      "ior": 5116,
      "Ġsinn": 5117,
      "anze": 5118,
      "ĠTour": 5119,
      "ĠKommun": 5120,
      "etary": 5121,
      "ĠRuss": 5122,
      "Ġconstit": 5123,
      "ĠAng": 5124,
      "Ġsieht": 5125,
      "ption": 5126,
      "Ġexpendit": 5127,
      "teilung": 5128,
      "Ġelections": 5129,
      "ĠFinanzierung": 5130,
      "Ġseriously": 5131,
      "mission": 5132,
      "Ġoccas": 5133,
      "Ġproducers": 5134,
      ").": 5135,
      "fs": 5136,
      "Ġthreat": 5137,
      "Ġfal": 5138,
      "arent": 5139,
      "rok": 5140,
      "Ġvan": 5141,
      "llos": 5142,
      "ĠWert": 5143,
      "Ġlive": 5144,
      "ĠEnvironment": 5145,
      "Ġregret": 5146,
      "Ġ24": 5147,
      "aret": 5148,
      "ĠUntersuch": 5149,
      "ĠForderung": 5150,
      "Ġdirectives": 5151,
      "ĠMonaten": 5152,
      "Ġkonkreten": 5153,
      "ĠFunds": 5154,
      "ĠStraÃŁ": 5155,
      "ĠWerte": 5156,
      "Ġliberalisation": 5157,
      "ĠQualitÃ¤t": 5158,
      "Ġpurpose": 5159,
      "ta": 5160,
      "Ġce": 5161,
      "emb": 5162,
      "ĠGene": 5163,
      "ĠVerÃ¤nder": 5164,
      "opp": 5165,
      "spe": 5166,
      "Ġcommer": 5167,
      "Ġoutside": 5168,
      "rift": 5169,
      "Ã¼tzen": 5170,
      "Ġfreue": 5171,
      "ĠFundamental": 5172,
      "Ġvorgeschlagenen": 5173,
      "Ġfinanziellen": 5174,
      "Ġerneut": 5175,
      "Ġintended": 5176,
      "Ġyesterday": 5177,
      "Ġsolidarity": 5178,
      "Ġexpenditure": 5179,
      "wh": 5180,
      "zel": 5181,
      "Ġbrit": 5182,
      "Ġbel": 5183,
      "ĠMore": 5184,
      "Ġreject": 5185,
      "Ġsogen": 5186,
      "vergen": 5187,
      "achten": 5188,
      "gesundheit": 5189,
      "auern": 5190,
      "lÃ¤ÃŁ": 5191,
      "stitutional": 5192,
      "Ġelekt": 5193,
      "Ġmorning": 5194,
      "ĠTransport": 5195,
      "ĠKriterien": 5196,
      "zif": 5197,
      "eres": 5198,
      "usion": 5199,
      "ĠKern": 5200,
      "Ġliving": 5201,
      "Ġprob": 5202,
      "Ġstated": 5203,
      "Ġdeath": 5204,
      "Ġjen": 5205,
      "Ġalloc": 5206,
      "ĠAusfÃ¼hr": 5207,
      "Ġquot": 5208,
      "ological": 5209,
      "ĠbestÃ¤t": 5210,
      "ĠHaupt": 5211,
      "Ġconclusion": 5212,
      "ĠJugend": 5213,
      "ĠKÃ¶nigreich": 5214,
      "wise": 5215,
      "ons": 5216,
      "Ġport": 5217,
      "Ġforms": 5218,
      "Ġstaff": 5219,
      "ĠBeam": 5220,
      "anzen": 5221,
      "Ġgenu": 5222,
      "Ġmyself": 5223,
      "ĠDez": 5224,
      "wirken": 5225,
      "ĠAsyl": 5226,
      "ĠStellen": 5227,
      "Ġgoods": 5228,
      "Ġguten": 5229,
      "Ġeinges": 5230,
      "ĠgehÃ¶ren": 5231,
      "Ġziehen": 5232,
      "pflich": 5233,
      "Ġrenew": 5234,
      "ptember": 5235,
      "Ġmet": 5236,
      "statt": 5237,
      "Ġzustimmen": 5238,
      "ĠLassen": 5239,
      "Ġextens": 5240,
      "ously": 5241,
      "Ġpossibility": 5242,
      "Ġspee": 5243,
      "langt": 5244,
      "ĠSeptember": 5245,
      "ĠUnsere": 5246,
      "ĠRegeln": 5247,
      "Ġentsprechenden": 5248,
      "ĠFÃ¤llen": 5249,
      "ĠGipfel": 5250,
      "ĠKommissionsmitglie": 5251,
      "ĠdurchgefÃ¼hrt": 5252,
      "ĠQuestion": 5253,
      "AL": 5254,
      "nungs": 5255,
      "so": 5256,
      "ĠÃ¤": 5257,
      "tel": 5258,
      "Ġcamp": 5259,
      "ĠEind": 5260,
      "igaret": 5261,
      "Ġalmost": 5262,
      "ĠWeiÃŁb": 5263,
      "ureau": 5264,
      "rieben": 5265,
      "Ġeffects": 5266,
      "Ġparagraph": 5267,
      "ĠBetrug": 5268,
      "stoffe": 5269,
      "Ġaccordance": 5270,
      "Ġreached": 5271,
      "Ġmensch": 5272,
      "Ġdisaster": 5273,
      "ĠPlenum": 5274,
      "Ġsustainable": 5275,
      "Ġheutigen": 5276,
      "ĠEntlastung": 5277,
      "ensichtlich": 5278,
      "where": 5279,
      "zÃ¶": 5280,
      "Ġthus": 5281,
      "Ġvital": 5282,
      "ĠTÃ¤tigkeit": 5283,
      "ĠRess": 5284,
      "Ġsour": 5285,
      "ands": 5286,
      "ĠerhÃ¶": 5287,
      "Ġdev": 5288,
      "ĠZivil": 5289,
      "Ġschl": 5290,
      "Ġfehl": 5291,
      "Ġdebt": 5292,
      "Ġplann": 5293,
      "Ġtotally": 5294,
      "Ġtrying": 5295,
      "ĠgegenwÃ¤rtig": 5296,
      "Ġchallenge": 5297,
      "ĠKonflikt": 5298,
      "ophob": 5299,
      "nungen": 5300,
      "seit": 5301,
      "Ġwelt": 5302,
      "Ġsix": 5303,
      "Ġbrief": 5304,
      "Ġmaterial": 5305,
      "Ġnuclear": 5306,
      "Ġzentral": 5307,
      "Ġcoming": 5308,
      "Ġcombat": 5309,
      "ĠenthÃ¤lt": 5310,
      "Ġface": 5311,
      "Ġacross": 5312,
      "ĠFraktionen": 5313,
      "ĠauÃŁerdem": 5314,
      "Ġpriorities": 5315,
      "missions": 5316,
      "Ġclose": 5317,
      "Ġexclus": 5318,
      "iÃŁbrauch": 5319,
      "Ġrestrict": 5320,
      "Ġtrafficking": 5321,
      "ĠlÃ¤ndlichen": 5322,
      "af": 5323,
      "afr": 5324,
      "handen": 5325,
      "wenden": 5326,
      "chs": 5327,
      "itation": 5328,
      "Ġanwes": 5329,
      "Ġunge": 5330,
      "ĠII": 5331,
      "Ġgab": 5332,
      "Ġverstehen": 5333,
      "Ã¤nden": 5334,
      "pected": 5335,
      "Ġord": 5336,
      "rank": 5337,
      "Ġapplies": 5338,
      "ĠGewalt": 5339,
      "ĠAufgaben": 5340,
      "Ġeinzige": 5341,
      "Ġmeasure": 5342,
      "Ġconfirm": 5343,
      "ĠGebiete": 5344,
      "Ġsupported": 5345,
      "verkehrs": 5346,
      "Ġlimited": 5347,
      "ĠbenÃ¶t": 5348,
      "ĠvernÃ¼nft": 5349,
      "Ġcheck": 5350,
      "Ġcircumstances": 5351,
      "ĠFrankreich": 5352,
      "ĠAusfÃ¼hrungen": 5353,
      "ĠWeiÃŁbuch": 5354,
      "feind": 5355,
      "enophob": 5356,
      "Ġdut": 5357,
      "igungen": 5358,
      "Ġreag": 5359,
      "ĠKar": 5360,
      "Ġdadurch": 5361,
      "ĠVon": 5362,
      "abkommen": 5363,
      "Ġweak": 5364,
      "ĠAnder": 5365,
      "Ġgoes": 5366,
      "Ġspok": 5367,
      "barkeit": 5368,
      "Ġresolutions": 5369,
      "Ġscope": 5370,
      "ĠHandel": 5371,
      "Ġinvestig": 5372,
      "Ġagriculture": 5373,
      "ĠGesundheits": 5374,
      "Ġinstruments": 5375,
      "Ġbeitragen": 5376,
      "Ġdemonstr": 5377,
      "onnen": 5378,
      "atik": 5379,
      "orgung": 5380,
      "ĠAchtung": 5381,
      "ĠMiÃŁ": 5382,
      "ĠWahr": 5383,
      "ilitÃ¤t": 5384,
      "ĠVermitt": 5385,
      "gruppen": 5386,
      "Ġhear": 5387,
      "eschrÃ¤n": 5388,
      "Ġihres": 5389,
      "fahrens": 5390,
      "ĠGesamt": 5391,
      "Ġconsiderable": 5392,
      "Ġhoffen": 5393,
      "Ġbrought": 5394,
      "Ġaccepted": 5395,
      "ique": 5396,
      "Ġung": 5397,
      "indern": 5398,
      "Ġgern": 5399,
      "ĠBildung": 5400,
      "uly": 5401,
      "ilities": 5402,
      "otes": 5403,
      "Ġgewor": 5404,
      "Ġprof": 5405,
      "Ġasyl": 5406,
      "lare": 5407,
      "ounts": 5408,
      "ublik": 5409,
      "Ġstets": 5410,
      "ciliation": 5411,
      "ĠTechnolog": 5412,
      "ĠMeiner": 5413,
      "produ": 5414,
      "Ġthanks": 5415,
      "ĠZustÃ¤nd": 5416,
      "ĠJustiz": 5417,
      "Ġentwickeln": 5418,
      "oul": 5419,
      "xis": 5420,
      "Ġbillion": 5421,
      "Ġemer": 5422,
      "ĠEl": 5423,
      "rahmen": 5424,
      "iday": 5425,
      "ĠGra": 5426,
      "Ġverurteil": 5427,
      "Ġneuer": 5428,
      "fence": 5429,
      "Ġfeststellen": 5430,
      "ĠAllerdings": 5431,
      "ĠBeschl": 5432,
      "Ġaccession": 5433,
      "ĠRegelungen": 5434,
      "Ġproperly": 5435,
      "Ġparliamentary": 5436,
      "ĠBalkan": 5437,
      "Ġreturn": 5438,
      "ĠMEP": 5439,
      "Ġelektron": 5440,
      "aktor": 5441,
      "Ġx": 5442,
      "Ġpack": 5443,
      "entwick": 5444,
      "Ġeiniger": 5445,
      "ĠDo": 5446,
      "derungen": 5447,
      "Ġzug": 5448,
      "Ġalong": 5449,
      "Ġverpflich": 5450,
      "Ġjur": 5451,
      "Ġexerc": 5452,
      "Ġnochmals": 5453,
      "Ġfinally": 5454,
      "Ġ1996": 5455,
      "Ġeffiz": 5456,
      "ĠDeut": 5457,
      "Ġliebe": 5458,
      "Ġcurren": 5459,
      "ĠGebieten": 5460,
      "Ġcapac": 5461,
      "ĠParteien": 5462,
      "ĠPatent": 5463,
      "Ġcondemn": 5464,
      "AN": 5465,
      "FR": 5466,
      "bel": 5467,
      "gÃ¼lt": 5468,
      "jahr": 5469,
      "polit": 5470,
      "will": 5471,
      "unktion": 5472,
      "atisch": 5473,
      "ĠPflicht": 5474,
      "Ġganze": 5475,
      "ĠBudget": 5476,
      "amber": 5477,
      "ctive": 5478,
      "ĠHarmon": 5479,
      "ĠThird": 5480,
      "ĠVerwendung": 5481,
      "Ġprice": 5482,
      "werk": 5483,
      "acio": 5484,
      "ĠDazu": 5485,
      "Ġgering": 5486,
      "Ġdiscussing": 5487,
      "zusch": 5488,
      "ĠSolidar": 5489,
      "Ġadministrative": 5490,
      "Ġveh": 5491,
      "ĠPalacio": 5492,
      "Ġerwarten": 5493,
      "ĠMinderheiten": 5494,
      "Ġrefugees": 5495,
      "Ġasylum": 5496,
      "bringen": 5497,
      "hnung": 5498,
      "Ġsent": 5499,
      "Ġbur": 5500,
      "arily": 5501,
      "ĠAktiv": 5502,
      "ulf": 5503,
      "hrist": 5504,
      "ĠVerhÃ¤lt": 5505,
      "Ġcohesion": 5506,
      "werte": 5507,
      "Ġefficient": 5508,
      "ĠÃľberwach": 5509,
      "achtung": 5510,
      "Ġfestgelegt": 5511,
      "Ġsomit": 5512,
      "Ġentsprechend": 5513,
      "Ġminimum": 5514,
      "Ġeingere": 5515,
      "Ġrecognise": 5516,
      "Ġundertak": 5517,
      "Ġscientific": 5518,
      "ĠSchluÃŁfolgerungen": 5519,
      "Ġaway": 5520,
      "isp": 5521,
      "undert": 5522,
      "Ġtook": 5523,
      "ĠAd": 5524,
      "ĠSy": 5525,
      "Ġergreifen": 5526,
      "iken": 5527,
      "Ġdeveloped": 5528,
      "ategor": 5529,
      "zeugt": 5530,
      "Ġnotwendigen": 5531,
      "Ġannual": 5532,
      "Ġkleinen": 5533,
      "Ġsetting": 5534,
      "Ġweltweit": 5535,
      "GC": 5536,
      "ma": 5537,
      "sum": 5538,
      "ying": 5539,
      "ĠÃ¤ndern": 5540,
      "ister": 5541,
      "Ġself": 5542,
      "rehens": 5543,
      "Ġhome": 5544,
      "Ġcross": 5545,
      "Ġunan": 5546,
      "ĠPlan": 5547,
      "ĠWar": 5548,
      "ĠGM": 5549,
      "ĠNations": 5550,
      "Ġsepar": 5551,
      "ĠÃ¼berw": 5552,
      "ĠProz": 5553,
      "Ġdarstellt": 5554,
      "Ġobtain": 5555,
      "ression": 5556,
      "Ġgrant": 5557,
      "Ġnatural": 5558,
      "Ġrightly": 5559,
      "ĠMex": 5560,
      "ĠHerkunft": 5561,
      "Ġestablishing": 5562,
      "Ġallowed": 5563,
      "Ġadditional": 5564,
      "ĠIhrer": 5565,
      "Ġentsprechende": 5566,
      "Ġlabour": 5567,
      "European": 5568,
      "ĠKapital": 5569,
      "kontrolle": 5570,
      "ĠAnstren": 5571,
      "dom": 5572,
      "lier": 5573,
      "ĠEconomic": 5574,
      "ĠIGC": 5575,
      "ĠBar": 5576,
      "ĠWeit": 5577,
      "Ġlot": 5578,
      "Ġdiesbe": 5579,
      "Ġprot": 5580,
      "ungsan": 5581,
      "lieÃŁen": 5582,
      "Ġproduce": 5583,
      "ĠÃľbergang": 5584,
      "Ġreduction": 5585,
      "attle": 5586,
      "ĠProjekt": 5587,
      "Ġurgent": 5588,
      "Ġprobably": 5589,
      "Ġxenophob": 5590,
      "Ġill": 5591,
      "Ġtreffen": 5592,
      "iell": 5593,
      "Ġmiss": 5594,
      "used": 5595,
      "Ġeinbe": 5596,
      "ications": 5597,
      "Ġdays": 5598,
      "ĠNow": 5599,
      "ensions": 5600,
      "ĠErika": 5601,
      "Ġenable": 5602,
      "Ġspir": 5603,
      "Ġpolice": 5604,
      "Ġwarum": 5605,
      "Ġdirectly": 5606,
      "Ã¤mpfen": 5607,
      "Ġreforms": 5608,
      "Ġpresidency": 5609,
      "Ġindependent": 5610,
      "ĠBeschÃ¤ftigungs": 5611,
      "Ġinstitutional": 5612,
      "Ġverpflichtet": 5613,
      "20": 5614,
      "In": 5615,
      "fassung": 5616,
      "kraft": 5617,
      "ins": 5618,
      "Ġten": 5619,
      "ales": 5620,
      "ĠhÃ¤": 5621,
      "Ġherr": 5622,
      "ĠPrÃ¼": 5623,
      "Ġkulture": 5624,
      "Ġdesign": 5625,
      "ĠNun": 5626,
      "ĠjÃ¼n": 5627,
      "fordern": 5628,
      "ibility": 5629,
      "Ġshown": 5630,
      "Ġbesten": 5631,
      "cyc": 5632,
      "ĠZeitraum": 5633,
      "Ġeffectively": 5634,
      "ĠPolitiken": 5635,
      "ĠmÃ¶glichst": 5636,
      "Ġimplementing": 5637,
      "Ġbestehenden": 5638,
      "ĠVerkehrs": 5639,
      "ĠkÃ¼nftig": 5640,
      "ĠLinie": 5641,
      "Ġavoid": 5642,
      "ĠEisenbahn": 5643,
      "30": 5644,
      "erungen": 5645,
      "Ġwr": 5646,
      "icien": 5647,
      "Ġgere": 5648,
      "Ġlog": 5649,
      "trary": 5650,
      "Ġexternal": 5651,
      "meer": 5652,
      "ĠBerlin": 5653,
      "ternative": 5654,
      "Ġwichtiger": 5655,
      "ĠSec": 5656,
      "forderung": 5657,
      "Ġstatus": 5658,
      "Ġ80": 5659,
      "Ġspeakers": 5660,
      "Ġmedium": 5661,
      "odell": 5662,
      "Ġcaused": 5663,
      "Ġtourism": 5664,
      "Ġsanctions": 5665,
      "ĠIndeed": 5666,
      "lÃ¼ck": 5667,
      "zul": 5668,
      "zub": 5669,
      "Ġdr": 5670,
      "unkten": 5671,
      "itors": 5672,
      "Ġfragen": 5673,
      "Ġanzu": 5674,
      "ĠDruck": 5675,
      "schlossen": 5676,
      "ĠCan": 5677,
      "Ġstra": 5678,
      "Ġ100": 5679,
      "Ġeffekt": 5680,
      "lÃ¤gt": 5681,
      "gelt": 5682,
      "Ġstrict": 5683,
      "ĠGesprÃ¤": 5684,
      "Ġganzen": 5685,
      "Ġstandard": 5686,
      "Ġlangfrist": 5687,
      "Ġbessere": 5688,
      "Ġfunction": 5689,
      "ĠGesetzgebung": 5690,
      "ĠInvestitionen": 5691,
      "Ġfisheries": 5692,
      "Ġangemessen": 5693,
      "ool": 5694,
      "oden": 5695,
      "ĠMio": 5696,
      "Ġgekommen": 5697,
      "spar": 5698,
      "ungsverfahren": 5699,
      "ĠBef": 5700,
      "ĠSchl": 5701,
      "ĠPrÃ¤sidenten": 5702,
      "rated": 5703,
      "Ġhohen": 5704,
      "Ġdefend": 5705,
      "Ġobviously": 5706,
      "ĠEntschlieÃŁungsantrag": 5707,
      "ĠGerichtshof": 5708,
      "ĠAnstrengungen": 5709,
      "Ġwrong": 5710,
      "DA": 5711,
      "bÃ¼r": 5712,
      "iance": 5713,
      "krÃ¤": 5714,
      "Ġdate": 5715,
      "Ġsort": 5716,
      "atch": 5717,
      "Ġflo": 5718,
      "Ġnimmt": 5719,
      "Ġumgesetzt": 5720,
      "behÃ¶r": 5721,
      "Ġdarstellen": 5722,
      "ĠBerichte": 5723,
      "utzt": 5724,
      "Ġremember": 5725,
      "Ġsimilar": 5726,
      "ausschusses": 5727,
      "Ġbald": 5728,
      "wesen": 5729,
      "Ġtechnology": 5730,
      "allel": 5731,
      "Ġbusinesses": 5732,
      "ĠWiederauf": 5733,
      "ĠWorld": 5734,
      "Ġhumanitarian": 5735,
      "ĠDirective": 5736,
      "ĠSolidaritÃ¤t": 5737,
      "ĠjÃ¼ng": 5738,
      "HO": 5739,
      "system": 5740,
      "change": 5741,
      "ietet": 5742,
      "Ã¶st": 5743,
      "ĠNiel": 5744,
      "quis": 5745,
      "Ġsup": 5746,
      "Ġunternehmen": 5747,
      "Ġbetonen": 5748,
      "Ġbetrachte": 5749,
      "Ġspeaking": 5750,
      "ĠDelegation": 5751,
      "itude": 5752,
      "Ġdevelopments": 5753,
      "Ġfirstly": 5754,
      "strÃ¶": 5755,
      "Ġremark": 5756,
      "ĠTreaties": 5757,
      "Ġcommunities": 5758,
      "Ã¤rkung": 5759,
      "Ġactivity": 5760,
      "orgnis": 5761,
      "Ġpressure": 5762,
      "Ġliability": 5763,
      "ournal": 5764,
      "ĠÃ¤hn": 5765,
      "Ġgeworden": 5766,
      "Ġcapacity": 5767,
      "kung": 5768,
      "min": 5769,
      "inden": 5770,
      "Ġbod": 5771,
      "Ġintens": 5772,
      "Ã¼glich": 5773,
      "amm": 5774,
      "zeuge": 5775,
      "sec": 5776,
      "Ġexplo": 5777,
      "Ġoffensichtlich": 5778,
      "Ġrequires": 5779,
      "ĠArbeitslosigkeit": 5780,
      "ĠFolge": 5781,
      "ĠJustice": 5782,
      "Ġethnic": 5783,
      "ĠVolksgesundheit": 5784,
      "ĠmÃ¼ÃŁte": 5785,
      "ĠPrioritÃ¤ten": 5786,
      "bs": 5787,
      "dra": 5788,
      "rep": 5789,
      "Ġinstead": 5790,
      "gemÃ¤ÃŁ": 5791,
      "ĠAgenda": 5792,
      "ĠPublic": 5793,
      "schreit": 5794,
      "ĠTier": 5795,
      "Ġdagegen": 5796,
      "Ġforces": 5797,
      "Ġcontrary": 5798,
      "achtet": 5799,
      "ĠVertrÃ¤ge": 5800,
      "ĠÃ¼bernehmen": 5801,
      "ience": 5802,
      "rittens": 5803,
      "Ġberu": 5804,
      "reichend": 5805,
      "ĠJahrh": 5806,
      "Ġperfect": 5807,
      "Ġfell": 5808,
      "Ġhalf": 5809,
      "ĠbezÃ¼glich": 5810,
      "grundlage": 5811,
      "Ġdifficulties": 5812,
      "ĠMilliar": 5813,
      "ĠbeglÃ¼ckwÃ¼nschen": 5814,
      "aign": 5815,
      "frieden": 5816,
      "ox": 5817,
      "Ġbem": 5818,
      "ury": 5819,
      "Ġverfolgen": 5820,
      "Ġdeep": 5821,
      "esses": 5822,
      "Ġneu": 5823,
      "ĠjÃ¤hr": 5824,
      "ĠVorbereit": 5825,
      "ĠAbschluÃŁ": 5826,
      "Ã¤renz": 5827,
      "okraten": 5828,
      "ussels": 5829,
      "iedr": 5830,
      "ired": 5831,
      "Ġgewesen": 5832,
      "Ġensuring": 5833,
      "Ġreality": 5834,
      "Ġorganisation": 5835,
      "ĠHeute": 5836,
      "Ġcommitments": 5837,
      "Ġtreatment": 5838,
      "ĠermÃ¶gl": 5839,
      "Ġanalysis": 5840,
      "Ġpaid": 5841,
      "Ġmessage": 5842,
      "ĠHarmonisierung": 5843,
      "wel": 5844,
      "Ġign": 5845,
      "Ã¤us": 5846,
      "Ġbekommen": 5847,
      "ĠSorge": 5848,
      "imate": 5849,
      "ĠRand": 5850,
      "ĠlÃ¶sen": 5851,
      "ĠVerhalten": 5852,
      "Ġvorhanden": 5853,
      "istisch": 5854,
      "Ġquant": 5855,
      "assungen": 5856,
      "Ġmag": 5857,
      "Ġintention": 5858,
      "Ġfestgestellt": 5859,
      "gestimmt": 5860,
      "Ġsicherlich": 5861,
      "Ġcreation": 5862,
      "ĠBrussels": 5863,
      "ĠStraf": 5864,
      "ĠZweifel": 5865,
      "Ġadministration": 5866,
      "Ġdiskutieren": 5867,
      "Ġofficials": 5868,
      "ĠfrÃ¼her": 5869,
      "ĠSanktionen": 5870,
      "ĠermÃ¶glicht": 5871,
      "pl": 5872,
      "yse": 5873,
      "iter": 5874,
      "rec": 5875,
      "ĠSince": 5876,
      "Ġzul": 5877,
      "ĠTerr": 5878,
      "ĠKu": 5879,
      "ierter": 5880,
      "ĠThank": 5881,
      "Ġersch": 5882,
      "Ġrise": 5883,
      "Ġvorher": 5884,
      "ĠAusbildung": 5885,
      "gerung": 5886,
      "Ġincin": 5887,
      "Ġprim": 5888,
      "Ġimpos": 5889,
      "ĠStaat": 5890,
      "ĠMitteln": 5891,
      "Ġ60": 5892,
      "ĠBrÃ¼ssel": 5893,
      "Ġdocuments": 5894,
      "mittag": 5895,
      "ĠWochen": 5896,
      "ĠstÃ¤rker": 5897,
      "Ġexactly": 5898,
      "Ġcurrency": 5899,
      "Ġunanim": 5900,
      "Ġbodies": 5901,
      "ging": 5902,
      "yond": 5903,
      "erzeug": 5904,
      "chnung": 5905,
      "Ġsl": 5906,
      "ature": 5907,
      "Ġbill": 5908,
      "Ġeher": 5909,
      "ĠSome": 5910,
      "Ġgran": 5911,
      "ĠBÃ¶": 5912,
      "schn": 5913,
      "ĠgeÃ¤uÃŁ": 5914,
      "ĠNov": 5915,
      "Ġschle": 5916,
      "Ġenorm": 5917,
      "ĠAufnahme": 5918,
      "Ġkontro": 5919,
      "Ġinternationale": 5920,
      "ĠHaider": 5921,
      "Ġadvant": 5922,
      "ĠDarÃ¼ber": 5923,
      "Ġdirekt": 5924,
      "ĠMediterranean": 5925,
      "ĠMarch": 5926,
      "Ġparticipation": 5927,
      "ĠSchulden": 5928,
      "Ġnetworks": 5929,
      "Ġrepeat": 5930,
      "Ġpartnership": 5931,
      "Ġcampaign": 5932,
      "haus": 5933,
      "mÃ¶glichkeit": 5934,
      "itives": 5935,
      "reck": 5936,
      "Ġhour": 5937,
      "ĠIre": 5938,
      "ĠBu": 5939,
      "ulierung": 5940,
      "Ġgeleistet": 5941,
      "ĠInhalt": 5942,
      "Ġleicht": 5943,
      "ĠStud": 5944,
      "Ġschool": 5945,
      "udge": 5946,
      "ĠEinhaltung": 5947,
      "ĠMaÃŁe": 5948,
      "ology": 5949,
      "hÃ¶ren": 5950,
      "Ġcolleague": 5951,
      "ĠGriechenland": 5952,
      "ĠEindruck": 5953,
      "Ġanwesend": 5954,
      "erungs": 5955,
      "Ġdiv": 5956,
      "Ġade": 5957,
      "Ġwait": 5958,
      "urance": 5959,
      "Ġgrat": 5960,
      "Ġkl": 5961,
      "indet": 5962,
      "Ġ1995": 5963,
      "Ġdeclar": 5964,
      "fallen": 5965,
      "Ġuseful": 5966,
      "Ġurge": 5967,
      "Ġmoral": 5968,
      "Ġpointed": 5969,
      "ifellos": 5970,
      "ekten": 5971,
      "Ġdemands": 5972,
      "Ġfamily": 5973,
      "ĠerfÃ¼llen": 5974,
      "Ġportugiesischen": 5975,
      "ĠMÃ¤rz": 5976,
      "ĠRessourcen": 5977,
      "ĠNielson": 5978,
      "bed": 5979,
      "bank": 5980,
      "gere": 5981,
      "pret": 5982,
      "Ġdom": 5983,
      "Ġside": 5984,
      "Ġvotes": 5985,
      "ĠAktionen": 5986,
      "ĠMacht": 5987,
      "Ġred": 5988,
      "Ġzufrieden": 5989,
      "Ġlearn": 5990,
      "Ġship": 5991,
      "uded": 5992,
      "ĠEinbe": 5993,
      "Ã¶ren": 5994,
      "ĠspÃ¤ter": 5995,
      "Ġgestern": 5996,
      "sibilities": 5997,
      "renz": 5998,
      "ĠLandwir": 5999,
      "Ġviews": 6000,
      "Ġgeschehen": 6001,
      "Ġsmok": 6002,
      "Ġacceptable": 6003,
      "ĠAustrian": 6004,
      "ĠZweck": 6005,
      "ĠSubsid": 6006,
      "ĠBalkans": 6007,
      "Ġkonnte": 6008,
      "Ġlanguage": 6009,
      "ĠIreland": 6010,
      "iled": 6011,
      "setzt": 6012,
      "vis": 6013,
      "itial": 6014,
      "Ġsum": 6015,
      "ieben": 6016,
      "leisch": 6017,
      "Ġbeyond": 6018,
      "ĠWorte": 6019,
      "Ġconcept": 6020,
      "Ġdealt": 6021,
      "opol": 6022,
      "ĠZw": 6023,
      "ĠZur": 6024,
      "ĠAusgaben": 6025,
      "Ġproport": 6026,
      "ĠEinsch": 6027,
      "Ġaccident": 6028,
      "ĠAbgeordneter": 6029,
      "iarity": 6030,
      "Ġmilk": 6031,
      "ĠAspekt": 6032,
      "Ġgrounds": 6033,
      "ĠIraq": 6034,
      "ĠNovember": 6035,
      "just": 6036,
      "ought": 6037,
      "tes": 6038,
      "entwurf": 6039,
      "Ã¼g": 6040,
      "Ġbein": 6041,
      "Ġgre": 6042,
      "ĠBan": 6043,
      "ĠWes": 6044,
      "uls": 6045,
      "lying": 6046,
      "ĠLom": 6047,
      "ustr": 6048,
      "sper": 6049,
      "spekt": 6050,
      "ĠEinsatz": 6051,
      "ĠEinzel": 6052,
      "Ġgenannten": 6053,
      "riend": 6054,
      "Ġoperation": 6055,
      "Ġgemeinschaftlichen": 6056,
      "Ġparts": 6057,
      "konom": 6058,
      "Ġhighly": 6059,
      "Ġpositiv": 6060,
      "gewicht": 6061,
      "Ġletter": 6062,
      "ĠauÃŁerord": 6063,
      "andidaten": 6064,
      "Ġversucht": 6065,
      "Ġassessment": 6066,
      "ĠPraxis": 6067,
      "Ġpursu": 6068,
      "ĠVerteidigung": 6069,
      "RB": 6070,
      "Ġdise": 6071,
      "Ġworth": 6072,
      "Ġsk": 6073,
      "reff": 6074,
      "icherung": 6075,
      "Ġbad": 6076,
      "arder": 6077,
      "uth": 6078,
      "Ġalone": 6079,
      "Ġdead": 6080,
      "Ġnear": 6081,
      "Ġwithdra": 6082,
      "ĠSchlieÃŁ": 6083,
      "auen": 6084,
      "auft": 6085,
      "ĠChamber": 6086,
      "Ġ37": 6087,
      "Ġempf": 6088,
      "Ġdrawn": 6089,
      "etheless": 6090,
      "abilitÃ¤t": 6091,
      "ĠMai": 6092,
      "Ġcommitted": 6093,
      "Ġpersonal": 6094,
      "Ġanti": 6095,
      "ĠSolana": 6096,
      "Ġbeginning": 6097,
      "ĠerwÃ¤hnt": 6098,
      "Ġschwerwie": 6099,
      "Ġearlier": 6100,
      "Ġzahlreiche": 6101,
      "ĠEmpfehlung": 6102,
      "Ġsafegu": 6103,
      "Ġassoci": 6104,
      "ĠInitiativen": 6105,
      "ĠEinbeziehung": 6106,
      "zust": 6107,
      "Ġinitial": 6108,
      "Ġet": 6109,
      "Ġanerk": 6110,
      "ĠSpiel": 6111,
      "ĠWahlen": 6112,
      "ĠKat": 6113,
      "ĠRa": 6114,
      "Ġgek": 6115,
      "Ġdelegation": 6116,
      "ĠStat": 6117,
      "Ġcomprehens": 6118,
      "Ġexplan": 6119,
      "ĠOrt": 6120,
      "ĠVorschlÃ¤gen": 6121,
      "abelling": 6122,
      "ĠÃ¼brig": 6123,
      "ĠNieder": 6124,
      "uern": 6125,
      "itious": 6126,
      "Ġsend": 6127,
      "Ġsage": 6128,
      "Ġbody": 6129,
      "aler": 6130,
      "Ġbear": 6131,
      "ush": 6132,
      "ĠRules": 6133,
      "Ġerk": 6134,
      "ĠNever": 6135,
      "Ġexchange": 6136,
      "liegt": 6137,
      "Ġvoraus": 6138,
      "Ġ23": 6139,
      "ĠForderungen": 6140,
      "ĠUmfang": 6141,
      "Ġargument": 6142,
      "ĠSprache": 6143,
      "Ġ2002": 6144,
      "mÃ¤ÃŁig": 6145,
      "Ġdealing": 6146,
      "Ġsimple": 6147,
      "sprÃ¼n": 6148,
      "ĠGegenteil": 6149,
      "ĠPortugal": 6150,
      "Ġremains": 6151,
      "Ġleave": 6152,
      "ĠfranzÃ¶sischen": 6153,
      "Ġindustrial": 6154,
      "ĠSÃ¼dafr": 6155,
      "Ġfellow": 6156,
      "RBAN": 6157,
      "blemen": 6158,
      "ehm": 6159,
      "Ġthought": 6160,
      "Ġsummit": 6161,
      "arch": 6162,
      "Ġnah": 6163,
      "Ġunfortunately": 6164,
      "Ġbeein": 6165,
      "ĠIran": 6166,
      "etimes": 6167,
      "Ġcode": 6168,
      "ĠSchwe": 6169,
      "range": 6170,
      "Ã¶rt": 6171,
      "ĠKollegin": 6172,
      "ĠHauses": 6173,
      "ĠAfrican": 6174,
      "Ġerforderlichen": 6175,
      "Ġsuccessful": 6176,
      "Ġerneuer": 6177,
      "Ġschwierig": 6178,
      "Ġspielen": 6179,
      "ĠVerÃ¤nderungen": 6180,
      "ĠMilliarden": 6181,
      "ĠSubsidiar": 6182,
      "Ġwid": 6183,
      "Ġwonder": 6184,
      "ĠwÃ¤ren": 6185,
      "Ġmut": 6186,
      "ĠprÃ¤": 6187,
      "entscheid": 6188,
      "Ġname": 6189,
      "Ã¤her": 6190,
      "Ã¤ss": 6191,
      "Ġanders": 6192,
      "ĠAlle": 6193,
      "schuld": 6194,
      "verstanden": 6195,
      "ĠVerletz": 6196,
      "ĠReformen": 6197,
      "Ã¤ne": 6198,
      "ĠÃ¼berzeugt": 6199,
      "zeigt": 6200,
      "Ġconcentr": 6201,
      "Ġkeines": 6202,
      "Ġperspect": 6203,
      "Ġsubmitted": 6204,
      "Ġproviding": 6205,
      "istence": 6206,
      "schiede": 6207,
      "Ġhelfen": 6208,
      "ĠMont": 6209,
      "Ġimproving": 6210,
      "Ġ90": 6211,
      "Ġlooking": 6212,
      "Ġderzeitigen": 6213,
      "ĠUnser": 6214,
      "Ġpostal": 6215,
      "letzt": 6216,
      "Ġsubsidiarity": 6217,
      "ĠAktionsp": 6218,
      "Ġkonzentrieren": 6219,
      "ĠAktivitÃ¤ten": 6220,
      "ĠBuiten": 6221,
      "FE": 6222,
      "ex": 6223,
      "jÃ¤hr": 6224,
      "oted": 6225,
      "inced": 6226,
      "Ġsitu": 6227,
      "Ġehr": 6228,
      "Ġniedr": 6229,
      "Ġcle": 6230,
      "Ġunmittel": 6231,
      "Ġbeginnen": 6232,
      "Ġzunehmen": 6233,
      "ĠMos": 6234,
      "Ġgives": 6235,
      "ĠAbfall": 6236,
      "Ġapprec": 6237,
      "Ġgesetzt": 6238,
      "aufen": 6239,
      "Ġevents": 6240,
      "Ġactual": 6241,
      "ĠVerbindung": 6242,
      "Ġvielmehr": 6243,
      "ĠBedenken": 6244,
      "strumente": 6245,
      "ĠendgÃ¼lt": 6246,
      "Ġtransparent": 6247,
      "Ġreasonable": 6248,
      "Ġmainly": 6249,
      "Ġwishes": 6250,
      "Ġoccur": 6251,
      "Ġgarant": 6252,
      "ĠÃľbereinkommen": 6253,
      "ĠJanuary": 6254,
      "ĠBeteiligung": 6255,
      "je": 6256,
      "val": 6257,
      "enary": 6258,
      "urd": 6259,
      "ĠSinn": 6260,
      "rak": 6261,
      "ĠFahr": 6262,
      "ĠKinn": 6263,
      "ĠGlobal": 6264,
      "ĠUK": 6265,
      "ĠURBAN": 6266,
      "Ġverste": 6267,
      "ĠLI": 6268,
      "anner": 6269,
      "ĠStad": 6270,
      "weist": 6271,
      "ĠBeweis": 6272,
      "esehen": 6273,
      "Ġentgegen": 6274,
      "Ġdivers": 6275,
      "ĠGrunde": 6276,
      "Ġdisapp": 6277,
      "ĠGrundsÃ¤tze": 6278,
      "Ġactive": 6279,
      "Ġnegative": 6280,
      "ĠBeitritt": 6281,
      "ĠÃ¶ffentliche": 6282,
      "Ġplenary": 6283,
      "ĠPriv": 6284,
      "Ġreceive": 6285,
      "Ġclosely": 6286,
      "ĠgrundsÃ¤tz": 6287,
      "coming": 6288,
      "ĠOrganisationen": 6289,
      "Ġencourage": 6290,
      "ĠDecember": 6291,
      "ĠKinnock": 6292,
      "50": 6293,
      "vere": 6294,
      "zed": 6295,
      "Ġwan": 6296,
      "ĠAgricult": 6297,
      "ĠBl": 6298,
      "ĠLux": 6299,
      "Ġdefence": 6300,
      "oples": 6301,
      "ĠNutzung": 6302,
      "Ġreserv": 6303,
      "Ġ28": 6304,
      "Ġmehrere": 6305,
      "Ġrespond": 6306,
      "Ġautom": 6307,
      "Ġorganised": 6308,
      "zeichnen": 6309,
      "Ġregionalen": 6310,
      "ĠIhren": 6311,
      "ĠVerwaltungs": 6312,
      "prÃ¼ft": 6313,
      "ĠVerpflichtung": 6314,
      "Ġconvinced": 6315,
      "ĠGeschichte": 6316,
      "ĠLegal": 6317,
      "Ġreflect": 6318,
      "ĠErfahrungen": 6319,
      "acy": 6320,
      "mand": 6321,
      "rennung": 6322,
      "to": 6323,
      "Ġbar": 6324,
      "Ġfear": 6325,
      "Ġfrei": 6326,
      "Ã¤st": 6327,
      "Ã¤fen": 6328,
      "Ġforget": 6329,
      "Ġverm": 6330,
      "iveau": 6331,
      "ĠAnges": 6332,
      "steller": 6333,
      "uchen": 6334,
      "ording": 6335,
      "Ġsagt": 6336,
      "Ġgenug": 6337,
      "Ġbesondere": 6338,
      "samm": 6339,
      "Ã¼tzt": 6340,
      "ĠChar": 6341,
      "Ġsonst": 6342,
      "legungen": 6343,
      "ĠHinter": 6344,
      "ĠmÃ¶glicherweise": 6345,
      "ĠursprÃ¼n": 6346,
      "wÃ¤ss": 6347,
      "Ġzehn": 6348,
      "Ġviolence": 6349,
      "ĠerklÃ¤rt": 6350,
      "Ġearly": 6351,
      "ĠHerausforderungen": 6352,
      "ĠHerausforderung": 6353,
      "Ġmerely": 6354,
      "ĠKohÃ¤renz": 6355,
      "Ġimmediately": 6356,
      "ĠWissenschaft": 6357,
      "Ġjeweiligen": 6358,
      "Ġsubstantial": 6359,
      "ĠbemÃ¼": 6360,
      "The": 6361,
      "cel": 6362,
      "reign": 6363,
      "ĠfÃ¤": 6364,
      "Ġelement": 6365,
      "asse": 6366,
      "asbourg": 6367,
      "ĠEtik": 6368,
      "ommer": 6369,
      "ĠFÃ¼hr": 6370,
      "Ġlater": 6371,
      "Ġformer": 6372,
      "Ġcondu": 6373,
      "Ġerschein": 6374,
      "ĠNur": 6375,
      "ĠSto": 6376,
      "cknow": 6377,
      "ĠAnfang": 6378,
      "ĠGruppe": 6379,
      "Ġconsist": 6380,
      "ollar": 6381,
      "fluÃŁ": 6382,
      "wortet": 6383,
      "ginn": 6384,
      "Ġadditives": 6385,
      "itzen": 6386,
      "Ġinvolving": 6387,
      "erkennung": 6388,
      "ĠSeiten": 6389,
      "ĠRepublik": 6390,
      "Ġharmonisation": 6391,
      "Ġchallenges": 6392,
      "Ġanimal": 6393,
      "Ġeingesetzt": 6394,
      "QU": 6395,
      "VO": 6396,
      "ef": 6397,
      "chst": 6398,
      "unch": 6399,
      "Ġfirm": 6400,
      "Ġec": 6401,
      "Ġunable": 6402,
      "Ġunivers": 6403,
      "ĠEreign": 6404,
      "ĠEQU": 6405,
      "Ġbeige": 6406,
      "ĠIst": 6407,
      "Ġgesehen": 6408,
      "ĠBot": 6409,
      "ĠDrittens": 6410,
      "Ġconstant": 6411,
      "Ġdescr": 6412,
      "Ġdepend": 6413,
      "ĠRechn": 6414,
      "ĠschÃ¼tzen": 6415,
      "Ġpolitisch": 6416,
      "Ġjede": 6417,
      "Ġprefer": 6418,
      "Ġevalu": 6419,
      "Ġsolutions": 6420,
      "losen": 6421,
      "ĠTele": 6422,
      "ĠMaÃŁnahme": 6423,
      "Ġways": 6424,
      "Ġentspricht": 6425,
      "Ġstrategic": 6426,
      "Ġcontribute": 6427,
      "Ġsteps": 6428,
      "Ġstructures": 6429,
      "Ġintroduced": 6430,
      "ĠStabilitÃ¤t": 6431,
      "Ġfigures": 6432,
      "Ġcommercial": 6433,
      "ĠDezember": 6434,
      "ĠMEPs": 6435,
      "Ġvehicles": 6436,
      "Ġburden": 6437,
      "Ġspirit": 6438,
      "Ġwanted": 6439,
      "ĠEQUAL": 6440,
      "),": 6441,
      "kÃ¼nd": 6442,
      "sk": 6443,
      "Ġage": 6444,
      "Ġacknow": 6445,
      "ĠAfter": 6446,
      "igran": 6447,
      "ĠSuch": 6448,
      "ette": 6449,
      "ĠHause": 6450,
      "verse": 6451,
      "Ġergriffen": 6452,
      "Ġaufzu": 6453,
      "ĠUnfortunately": 6454,
      "Ġjene": 6455,
      "ford": 6456,
      "ĠÃ¼berein": 6457,
      "ĠausfÃ¼hr": 6458,
      "Ġhandeln": 6459,
      "Ġgleiche": 6460,
      "Ġbringt": 6461,
      "010": 6462,
      "vorschlag": 6463,
      "Ġaddressed": 6464,
      "ĠWettbewerbsfÃ¤higkeit": 6465,
      "ĠmilitÃ¤r": 6466,
      "ĠFriday": 6467,
      "ĠverfÃ¼gen": 6468,
      "ĠJanuar": 6469,
      "grenzung": 6470,
      "Ġeffizient": 6471,
      "ĠNevertheless": 6472,
      "ĠLuxem": 6473,
      "EC": 6474,
      "iens": 6475,
      "mÃ¶glich": 6476,
      "making": 6477,
      "ric": 6478,
      "inational": 6479,
      "Ġtyp": 6480,
      "isc": 6481,
      "Ġbig": 6482,
      "llschaften": 6483,
      "either": 6484,
      "oler": 6485,
      "Ġkaum": 6486,
      "ffiz": 6487,
      "ffnung": 6488,
      "Ġaufmerksam": 6489,
      "Ġneigh": 6490,
      "opoul": 6491,
      "ĠNord": 6492,
      "Ġvorlegen": 6493,
      "rÃ¤ge": 6494,
      "erences": 6495,
      "Ġchance": 6496,
      "Ġspeed": 6497,
      "Ġsays": 6498,
      "ĠFinn": 6499,
      "Ġrepla": 6500,
      "Ġtechnischen": 6501,
      "Ġsometimes": 6502,
      "Ġtransition": 6503,
      "Ġkommenden": 6504,
      "ĠgrÃ¶ÃŁere": 6505,
      "ĠRepublic": 6506,
      "Ġradio": 6507,
      "Ġbecoming": 6508,
      "udgets": 6509,
      "ĠLIFE": 6510,
      "ĠAngesichts": 6511,
      "Ġneighbour": 6512,
      "kolog": 6513,
      "unsch": 6514,
      "Ġwach": 6515,
      "Ġinten": 6516,
      "Ġinfra": 6517,
      "ĠFunktion": 6518,
      "ĠChe": 6519,
      "ĠLud": 6520,
      "ĠAnerkennung": 6521,
      "Ġheart": 6522,
      "Ġentstehen": 6523,
      "Ġenfor": 6524,
      "Ġunternommen": 6525,
      "ĠRats": 6526,
      "ĠRechtsgrundlage": 6527,
      "ĠStrasbourg": 6528,
      "Ġadopting": 6529,
      "ĠHaarder": 6530,
      "Ġgeschlossen": 6531,
      "afft": 6532,
      "Ġdefinition": 6533,
      "Ġabsolut": 6534,
      "Ġleaders": 6535,
      "COS": 6536,
      "ĠErklÃ¤rungen": 6537,
      "Ġqualifiz": 6538,
      "ĠKritik": 6539,
      "ĠVoraussetzung": 6540,
      "ĠerklÃ¤ren": 6541,
      "Ġcoherence": 6542,
      "Ġsinnvoll": 6543,
      "ĠThirdly": 6544,
      "Ġkontroll": 6545,
      "ave": 6546,
      "orre": 6547,
      "Ġbr": 6548,
      "Ġnennen": 6549,
      "Ġvess": 6550,
      "ĠSpe": 6551,
      "Ġeinverstanden": 6552,
      "Ġgain": 6553,
      "Ġlik": 6554,
      "ĠVoll": 6555,
      "absicht": 6556,
      "Ġerweit": 6557,
      "Ġsea": 6558,
      "rÃ¤gt": 6559,
      "ĠBehandlung": 6560,
      "Ġprovides": 6561,
      "Ġoffice": 6562,
      "gendes": 6563,
      "Ġausgewogen": 6564,
      "Ġcompetit": 6565,
      "sprogramm": 6566,
      "Ġstattfinden": 6567,
      "ĠTurk": 6568,
      "Ġmedia": 6569,
      "ĠFestlegung": 6570,
      "Ġwidersp": 6571,
      "Ġbuilding": 6572,
      "Ġambitious": 6573,
      "Ġbeteiligt": 6574,
      "ĠFamilien": 6575,
      "ĠGarant": 6576,
      "ĠPolize": 6577,
      "ĠMoreover": 6578,
      "Ġspeech": 6579,
      "ĠhÃ¤ufig": 6580,
      "ĠSchlieÃŁlich": 6581,
      "ec": 6582,
      "eben": 6583,
      "ober": 6584,
      "wart": 6585,
      "wiesen": 6586,
      "Ġdienen": 6587,
      "inter": 6588,
      "anten": 6589,
      "Ġhig": 6590,
      "omb": 6591,
      "ĠSh": 6592,
      "ĠMindest": 6593,
      "iment": 6594,
      "ĠFonds": 6595,
      "uropa": 6596,
      "Ġforth": 6597,
      "Ġjoin": 6598,
      "ĠBeginn": 6599,
      "grÃ¼nd": 6600,
      "Ġraise": 6601,
      "Ġgesetz": 6602,
      "ĠDefin": 6603,
      "ĠUmst": 6604,
      "Ġfinancing": 6605,
      "Ġgeschieht": 6606,
      "Ġattack": 6607,
      "Ġreducing": 6608,
      "Ġadoption": 6609,
      "ĠauÃŁerhalb": 6610,
      "scheinlich": 6611,
      "ĠStabilitÃ¤ts": 6612,
      "Ġkonnten": 6613,
      "Ġbetroffenen": 6614,
      "Ġblock": 6615,
      "ĠPeople": 6616,
      "Ġhappy": 6617,
      "Ġmaximum": 6618,
      "Ġduty": 6619,
      "Ġxenophobia": 6620,
      "SP": 6621,
      "aution": 6622,
      "apt": 6623,
      "iate": 6624,
      "zlich": 6625,
      "anen": 6626,
      "ancen": 6627,
      "Ġfallen": 6628,
      "tei": 6629,
      "Ġbefinden": 6630,
      "ĠImp": 6631,
      "ĠSach": 6632,
      "Ġeinsetzen": 6633,
      "ulated": 6634,
      "bericht": 6635,
      "ĠGVO": 6636,
      "ĠCentral": 6637,
      "Ġverurs": 6638,
      "Ġstimme": 6639,
      "ikation": 6640,
      "Ġprices": 6641,
      "Ġspent": 6642,
      "handels": 6643,
      "ĠMittelmeer": 6644,
      "Ġestablishment": 6645,
      "ĠHealth": 6646,
      "ĠGleichzeitig": 6647,
      "Ġzeigen": 6648,
      "Ġappropriations": 6649,
      "Ġakzeptiert": 6650,
      "Ġmultinational": 6651,
      "Ġversich": 6652,
      "Ġincreasingly": 6653,
      "ĠAmerican": 6654,
      "ĠerfÃ¼llt": 6655,
      "ynam": 6656,
      "ĠHÃ¶he": 6657,
      "Ġkeinerlei": 6658,
      "Ġverehrte": 6659,
      "ĠÃľberwachung": 6660,
      "Ġbetrachtet": 6661,
      "Ġhigher": 6662,
      "Be": 6663,
      "Gen": 6664,
      "eks": 6665,
      "fiz": 6666,
      "falt": 6667,
      "ser": 6668,
      "ypr": 6669,
      "Ġtrag": 6670,
      "Ġthous": 6671,
      "atically": 6672,
      "Ġmill": 6673,
      "Ġmanner": 6674,
      "tete": 6675,
      "Ġem": 6676,
      "Ġvir": 6677,
      "ĠMark": 6678,
      "imately": 6679,
      "olid": 6680,
      "Ġweeks": 6681,
      "Ġverfolgt": 6682,
      "ĠerlÃ¤": 6683,
      "ittees": 6684,
      "ĠJun": 6685,
      "ĠErwÃ¤": 6686,
      "ĠBerÃ¼cksicht": 6687,
      "rÃ¤sent": 6688,
      "ĠMitarbeit": 6689,
      "ished": 6690,
      "Ġnoise": 6691,
      "ĠChance": 6692,
      "ampere": 6693,
      "Ġproduced": 6694,
      "Ġrelig": 6695,
      "Ġart": 6696,
      "Ġasking": 6697,
      "fÃ¤llen": 6698,
      "ĠSpain": 6699,
      "ĠÃ¶kolog": 6700,
      "ĠVereinten": 6701,
      "ront": 6702,
      "ronic": 6703,
      "ifying": 6704,
      "Ġbefassen": 6705,
      "Ġannoun": 6706,
      "Ġcontains": 6707,
      "Ã¼tze": 6708,
      "Ġcovered": 6709,
      "Ġtraffic": 6710,
      "Ġeasy": 6711,
      "Ġanimals": 6712,
      "ĠVereinbarung": 6713,
      "embly": 6714,
      "General": 6715,
      "Ġbietet": 6716,
      "Ġharm": 6717,
      "ĠEing": 6718,
      "ĠEven": 6719,
      "ĠAcc": 6720,
      "ĠBÃ¼": 6721,
      "ĠDann": 6722,
      "dere": 6723,
      "ĠFaktor": 6724,
      "ots": 6725,
      "respon": 6726,
      "Ġged": 6727,
      "aka": 6728,
      "annte": 6729,
      "Ġrig": 6730,
      "gesetz": 6731,
      "urely": 6732,
      "ĠSchritte": 6733,
      "ĠBereit": 6734,
      "angs": 6735,
      "ĠGruppen": 6736,
      "Ġcomplex": 6737,
      "Ġdecide": 6738,
      "hafte": 6739,
      "ventionen": 6740,
      "Ġattitude": 6741,
      "Ġgefunden": 6742,
      "Ġminorities": 6743,
      "ĠBestand": 6744,
      "Ġverschiedene": 6745,
      "ĠNew": 6746,
      "ĠhÃ¶her": 6747,
      "ĠMedien": 6748,
      "ĠgegenwÃ¤rtigen": 6749,
      "Ġkompliz": 6750,
      "bÃ¼rger": 6751,
      "ĠauÃŁerordentlich": 6752,
      "Ġcomprehensive": 6753,
      "Ġcompetitiveness": 6754,
      "bor": 6755,
      "mutzung": 6756,
      "va": 6757,
      "unsten": 6758,
      "Ġfla": 6759,
      "ĠTampere": 6760,
      "ĠKing": 6761,
      "Ġverme": 6762,
      "Ġextra": 6763,
      "ĠGrÃ¼": 6764,
      "Ġproposes": 6765,
      "Ġincome": 6766,
      "Ġfinde": 6767,
      "Ġnationale": 6768,
      "ĠgewÃ¤hl": 6769,
      "Ġknown": 6770,
      "Ġletzte": 6771,
      "Ġtransfer": 6772,
      "Ġrichtige": 6773,
      "maÃŁen": 6774,
      "ĠKontrollen": 6775,
      "ĠPersonal": 6776,
      "Ġinformed": 6777,
      "ĠNormen": 6778,
      "Ġenterpr": 6779,
      "ĠRisiken": 6780,
      "Ġstaatlichen": 6781,
      "ĠSÃ¼dafrika": 6782,
      "Ġsituations": 6783,
      "ĠRechnungs": 6784,
      "ĠLudford": 6785,
      "mon": 6786,
      "Ġwit": 6787,
      "ĠBild": 6788,
      "olz": 6789,
      "Ġzudem": 6790,
      "ĠLa": 6791,
      "ĠZimbabwe": 6792,
      "ival": 6793,
      "Ġsechs": 6794,
      "ausch": 6795,
      "Ġumwelt": 6796,
      "ĠausschlieÃŁlich": 6797,
      "Ġdoct": 6798,
      "ĠProced": 6799,
      "Ã¼nden": 6800,
      "linge": 6801,
      "Ġreply": 6802,
      "stimmung": 6803,
      "Ġgestalten": 6804,
      "Ġkomme": 6805,
      "Ġfinanzielle": 6806,
      "Ġcompany": 6807,
      "Ġhervorge": 6808,
      "Ġportugiesische": 6809,
      "Ġillegal": 6810,
      "Ġmanufactur": 6811,
      "ĠAngol": 6812,
      "ĠStraÃŁburg": 6813,
      "feindlichkeit": 6814,
      "Ġgranted": 6815,
      "ĠBuitenweg": 6816,
      "jected": 6817,
      "Ġinfrastruct": 6818,
      "ĠProcedure": 6819,
      "aktion": 6820,
      "Ġfulf": 6821,
      "ĠBlick": 6822,
      "ĠFreit": 6823,
      "Ġlabelling": 6824,
      "Ġconstruct": 6825,
      "Ġauszu": 6826,
      "Ġausreichend": 6827,
      "ĠEnts": 6828,
      "Ġcharter": 6829,
      "ĠConsum": 6830,
      "ĠAlthough": 6831,
      "ĠAlban": 6832,
      "richtungen": 6833,
      "suchen": 6834,
      "ĠAuft": 6835,
      "Ġlaws": 6836,
      "ĠdÃ¼rfte": 6837,
      "Ġbedarf": 6838,
      "ĠLÃ¶sungen": 6839,
      "ĠFriedens": 6840,
      "ailed": 6841,
      "Ġcentury": 6842,
      "ĠPreis": 6843,
      "gÃ¤nz": 6844,
      "ĠToday": 6845,
      "Ġborders": 6846,
      "Ġattempt": 6847,
      "Ġpenalt": 6848,
      "ĠsÃ¤mtliche": 6849,
      "ĠZustÃ¤ndigkeit": 6850,
      "iciency": 6851,
      "reffend": 6852,
      "ĠGlobalisierung": 6853,
      "ĠEtikett": 6854,
      "ĠTurkish": 6855,
      "ĠBerÃ¼cksichtigung": 6856,
      "zone": 6857,
      "orgt": 6858,
      "Ġmist": 6859,
      "Ġemb": 6860,
      "Ã¤den": 6861,
      "Ã¤um": 6862,
      "Ġbezieht": 6863,
      "Ġzut": 6864,
      "Ġlives": 6865,
      "ĠGo": 6866,
      "Ġgeograph": 6867,
      "ĠInst": 6868,
      "Ġexcess": 6869,
      "Ġmitt": 6870,
      "ĠBezug": 6871,
      "ĠVorhaben": 6872,
      "sektor": 6873,
      "Ġ27": 6874,
      "ĠGrenz": 6875,
      "werber": 6876,
      "Ã¤hrung": 6877,
      "Ġsubstances": 6878,
      "ĠÃľberzeug": 6879,
      "Ġzweifellos": 6880,
      "Ġnunmehr": 6881,
      "frastruktur": 6882,
      "Ġdeliver": 6883,
      "ĠgrÃ¶ÃŁten": 6884,
      "ĠBesorgnis": 6885,
      "Ġhappened": 6886,
      "ĠFÃ¤lle": 6887,
      "Ġrecognised": 6888,
      "Ġbedeuten": 6889,
      "ĠDennoch": 6890,
      "ĠFremdenfeindlichkeit": 6891,
      "ĠBeamten": 6892,
      "Ġrenewable": 6893,
      "bild": 6894,
      "vo": 6895,
      "zut": 6896,
      "Ġangeb": 6897,
      "Ã¤cht": 6898,
      "Ġbeabsicht": 6899,
      "ĠSweden": 6900,
      "Ġeinf": 6901,
      "ĠeinschlieÃŁlich": 6902,
      "Ġgrenz": 6903,
      "ĠKindern": 6904,
      "ĠKaka": 6905,
      "issens": 6906,
      "einen": 6907,
      "Ġerfahren": 6908,
      "ĠRevision": 6909,
      "ĠRechnung": 6910,
      "akter": 6911,
      "Ġvorge": 6912,
      "ĠJune": 6913,
      "ĠSchaden": 6914,
      "ĠProblemen": 6915,
      "Ġregime": 6916,
      "Ġ26": 6917,
      "Ġinterv": 6918,
      "Ġpeoples": 6919,
      "ĠFormen": 6920,
      "Ġthinking": 6921,
      "Ġapproval": 6922,
      "Ġgerne": 6923,
      "Ġinvolve": 6924,
      "Ġachieving": 6925,
      "sprogram": 6926,
      "Ġcondition": 6927,
      "Ġeigene": 6928,
      "ĠProdukte": 6929,
      "ĠRedner": 6930,
      "ĠBevÃ¶lkerungs": 6931,
      "ĠWÃ¤hrungs": 6932,
      "ĠRisiko": 6933,
      "ugoslaw": 6934,
      "Ġconclude": 6935,
      "ĠFehler": 6936,
      "Ġgenuine": 6937,
      "ĠAgriculture": 6938,
      "ĠAccording": 6939,
      "21": 6940,
      "AP": 6941,
      "AT": 6942,
      "MU": 6943,
      "uelle": 6944,
      "reaten": 6945,
      "ande": 6946,
      "Ġehem": 6947,
      "ĠanschlieÃŁen": 6948,
      "ingt": 6949,
      "ederal": 6950,
      "ĠMir": 6951,
      "ulieren": 6952,
      "Ġverwendet": 6953,
      "ktors": 6954,
      "laus": 6955,
      "schaftliche": 6956,
      "lines": 6957,
      "ĠÃľberprÃ¼": 6958,
      "ologie": 6959,
      "ziplin": 6960,
      "Ġsensitive": 6961,
      "Ġcalling": 6962,
      "Ġrelationship": 6963,
      "ĠListe": 6964,
      "Ġdiskutiert": 6965,
      "Ġoptim": 6966,
      "Ġemphasise": 6967,
      "ĠWohl": 6968,
      "ĠKontin": 6969,
      "ĠDemocrats": 6970,
      "Ġsafeguard": 6971,
      "ĠKingdom": 6972,
      "bung": 6973,
      "fÃ¤hr": 6974,
      "ĠtÃ¤t": 6975,
      "Ġtarge": 6976,
      "Ġwants": 6977,
      "rochen": 6978,
      "ĠSw": 6979,
      "ĠPunkten": 6980,
      "Ġverteid": 6981,
      "Ġwilling": 6982,
      "ĠCommissioners": 6983,
      "Ġabstimmen": 6984,
      "ĠBegriff": 6985,
      "Ġ29": 6986,
      "Ġamt": 6987,
      "Ġbetrachten": 6988,
      "Ġproposing": 6989,
      "Ġconcrete": 6990,
      "uropÃ¤ischen": 6991,
      "acter": 6992,
      "ĠSprachen": 6993,
      "Ġelements": 6994,
      "ĠBetrie": 6995,
      "ĠÃ¤uÃŁern": 6996,
      "Ġkonkret": 6997,
      "Ġvorgesehenen": 6998,
      "Ġentwickelt": 6999,
      "Ġoriginal": 7000,
      "Ġunterschiedliche": 7001,
      "Ġcontradict": 7002,
      "ĠmÃ¼ÃŁten": 7003,
      "Ġelectronic": 7004,
      "ĠEmpfehlungen": 7005,
      "Ġchoice": 7006,
      "Ġexplain": 7007,
      "ĠunterstÃ¼tze": 7008,
      "ĠDienstleistungen": 7009,
      "Ġwollte": 7010,
      "itet": 7011,
      "ĠMc": 7012,
      "ĠPh": 7013,
      "ĠInsel": 7014,
      "ĠInstrumente": 7015,
      "ĠZentral": 7016,
      "enswert": 7017,
      "Ġgoal": 7018,
      "ized": 7019,
      "Ġexper": 7020,
      "Ġrelated": 7021,
      "ĠÃ¶sterreich": 7022,
      "ĠProgramms": 7023,
      "zeichnung": 7024,
      "Ġincludes": 7025,
      "Ġweshalb": 7026,
      "Ġvorgeschlagene": 7027,
      "Ġimmigration": 7028,
      "Ġintroduce": 7029,
      "Ġrecommendation": 7030,
      "Ġstudy": 7031,
      "ĠKatastrophe": 7032,
      "lÃ¤ÃŁlich": 7033,
      "ĠVermittlungs": 7034,
      "Ġexercise": 7035,
      "Ġenormous": 7036,
      "ĠDefinition": 7037,
      "Ġvermeiden": 7038,
      "Ġehemal": 7039,
      "body": 7040,
      "kret": 7041,
      "nel": 7042,
      "rupt": 7043,
      "Ġtest": 7044,
      "alien": 7045,
      "Ġfriend": 7046,
      "Ġannehmen": 7047,
      "geber": 7048,
      "ĠEv": 7049,
      "ĠSen": 7050,
      "ĠSonder": 7051,
      "ĠPap": 7052,
      "Ġgesellschaft": 7053,
      "schÃ¤d": 7054,
      "Ġwhom": 7055,
      "Ġklare": 7056,
      "ĠGest": 7057,
      "Ġformal": 7058,
      "ump": 7059,
      "Ġveran": 7060,
      "ĠNAF": 7061,
      "amentar": 7062,
      "Ġrasch": 7063,
      "ĠAnp": 7064,
      "Ġabzu": 7065,
      "ĠUnions": 7066,
      "Ġcompeten": 7067,
      "ĠEinfluÃŁ": 7068,
      "ierende": 7069,
      "werten": 7070,
      "Ġtechnische": 7071,
      "Ġ...": 7072,
      "Ã¤rkten": 7073,
      "Ġlimits": 7074,
      "Ġopposed": 7075,
      "ĠVielen": 7076,
      "hÃ¶hung": 7077,
      "Ġexcl": 7078,
      "Ġqualified": 7079,
      "Ġbehandeln": 7080,
      "Ġrecommendations": 7081,
      "ĠItaly": 7082,
      "ĠWorten": 7083,
      "ĠECHO": 7084,
      "ĠPrioritÃ¤t": 7085,
      "Ġcontinuing": 7086,
      "Ġlanguages": 7087,
      "Ġbehaup": 7088,
      "ĠzustÃ¤ndigen": 7089,
      "ĠGermany": 7090,
      "chanismen": 7091,
      "wanderung": 7092,
      "ĠpersÃ¶nlich": 7093,
      "ĠstÃ¤ndig": 7094,
      "Ġwiederholen": 7095,
      "ĠBarnier": 7096,
      "ĠKommissionsmitglied": 7097,
      "Ġeingereicht": 7098,
      "ĠÃ¼brigens": 7099,
      "ĠJuni": 7100,
      "ĠFreitag": 7101,
      "ees": 7102,
      "wing": 7103,
      "Ġthreaten": 7104,
      "isziplin": 7105,
      "reib": 7106,
      "ares": 7107,
      "ĠAk": 7108,
      "ĠAud": 7109,
      "ĠGel": 7110,
      "ĠVerstÃ¤nd": 7111,
      "ĠVergleich": 7112,
      "Ġsele": 7113,
      "Ġsehe": 7114,
      "akte": 7115,
      "ĠCommissions": 7116,
      "Ġchair": 7117,
      "stag": 7118,
      "Ġspezif": 7119,
      "ĠMensch": 7120,
      "Ġsolcher": 7121,
      "ĠLeist": 7122,
      "ĠgrÃ¼nd": 7123,
      "Ġequality": 7124,
      "Ġanderes": 7125,
      "Ġstatements": 7126,
      "Ġtasks": 7127,
      "Ġparliaments": 7128,
      "ĠUrs": 7129,
      ")).": 7130,
      "ĠTodes": 7131,
      "ĠzusÃ¤tzliche": 7132,
      "Ġappeal": 7133,
      "ĠbeschÃ¤ftigen": 7134,
      "Ġcharacter": 7135,
      "Ġreagieren": 7136,
      "ĠDeutsch": 7137,
      "Ġignor": 7138,
      "called": 7139,
      "len": 7140,
      "Ġafr": 7141,
      "Ġmand": 7142,
      "ari": 7143,
      "Ġcame": 7144,
      "urally": 7145,
      "ĠMor": 7146,
      "Ġrecyc": 7147,
      "schet": 7148,
      "ĠFlexib": 7149,
      "ĠlÃ¤nger": 7150,
      "Ġalternative": 7151,
      "Ġproof": 7152,
      "Ġerr": 7153,
      "ĠVerl": 7154,
      "Ġmittel": 7155,
      "ĠAnal": 7156,
      "ĠAnspruch": 7157,
      "stelle": 7158,
      "Ġability": 7159,
      "Ġausges": 7160,
      "ĠausdrÃ¼cklich": 7161,
      "Ġ22": 7162,
      "Ġinterin": 7163,
      "ĠEinige": 7164,
      "ĠChancen": 7165,
      "Ġdram": 7166,
      "ĠHaft": 7167,
      "ĠYet": 7168,
      "Ġreduced": 7169,
      "Ġcontributions": 7170,
      "Ġcalls": 7171,
      "Ġanderem": 7172,
      "ĠGrÃ¼nde": 7173,
      "ĠHohen": 7174,
      "unternehmen": 7175,
      "ĠunabhÃ¤ngig": 7176,
      "ĠEngagement": 7177,
      "ĠBemerkungen": 7178,
      "ĠGedanken": 7179,
      "Ġinfluen": 7180,
      "Ġzugunsten": 7181,
      "Ġperfectly": 7182,
      "Ġhours": 7183,
      "Ġadequate": 7184,
      "sammlung": 7185,
      "ĠerlÃ¤ut": 7186,
      "schetschen": 7187,
      "ifor": 7188,
      "wuÃŁ": 7189,
      "ances": 7190,
      "Ã¼ter": 7191,
      "ĠMoz": 7192,
      "Ġeinsch": 7193,
      "imat": 7194,
      "Ġreden": 7195,
      "ĠTr": 7196,
      "ĠKÃ¼": 7197,
      "Ġsofort": 7198,
      "Ġerfolgen": 7199,
      "Ġstock": 7200,
      "Ġdeg": 7201,
      "ĠStÃ¤rkung": 7202,
      "Ġabgeschlossen": 7203,
      "ĠAuss": 7204,
      "ĠVorgehen": 7205,
      "Ġcompens": 7206,
      "Ġpolitischer": 7207,
      "Ġimpression": 7208,
      "Ġotherwise": 7209,
      "Ġspace": 7210,
      "ĠLeider": 7211,
      "Ġdennoch": 7212,
      "trol": 7213,
      "Ġelected": 7214,
      "Ġideas": 7215,
      "Ġsupplement": 7216,
      "Ġguarantees": 7217,
      "Ġpersons": 7218,
      "Ġprior": 7219,
      "ĠDienste": 7220,
      "Ġclass": 7221,
      "Ġstructure": 7222,
      "COD": 7223,
      "Ġshows": 7224,
      "Ġbenefits": 7225,
      "Ġsubsidies": 7226,
      "Ġjudicial": 7227,
      "Ġobligations": 7228,
      "chanisms": 7229,
      "Ġspeziell": 7230,
      "Ġausgezeichneten": 7231,
      "Ġpackage": 7232,
      "Ġsuperv": 7233,
      "strÃ¶m": 7234,
      "mÃ¶glichkeiten": 7235,
      "fÃ¤lt": 7236,
      "uct": 7237,
      "viel": 7238,
      "volle": 7239,
      "ente": 7240,
      "enze": 7241,
      "Ġbank": 7242,
      "ĠMoment": 7243,
      "schw": 7244,
      "Ġlisten": 7245,
      "Ġlines": 7246,
      "ĠZyp": 7247,
      "ĠNG": 7248,
      "Ġcoco": 7249,
      "Ġmechanisms": 7250,
      "Ġaussprechen": 7251,
      "ĠBewertung": 7252,
      "ĠVorred": 7253,
      "Ã¶rdert": 7254,
      "ĠÃĦr": 7255,
      "Ġhinzu": 7256,
      "Ġmoder": 7257,
      "Ġarm": 7258,
      "Ġhohe": 7259,
      "Ġputting": 7260,
      "Ġimproved": 7261,
      "sequently": 7262,
      "Ġbraucht": 7263,
      "Ġairport": 7264,
      "Ġterritor": 7265,
      "Ġfalls": 7266,
      "organisationen": 7267,
      "Ġscheme": 7268,
      "ĠLandwirte": 7269,
      "Ġschwerwiegen": 7270,
      "ffizien": 7271,
      "Ġintends": 7272,
      "Ġcocoa": 7273,
      "br": 7274,
      "Ġult": 7275,
      "Ġaffairs": 7276,
      "ones": 7277,
      "unt": 7278,
      "Ġhor": 7279,
      "ĠDimension": 7280,
      "ĠWunsch": 7281,
      "Ã¼rk": 7282,
      "ĠRoth": 7283,
      "ĠNutzen": 7284,
      "Ġcoast": 7285,
      "Ġcooper": 7286,
      "Ġentit": 7287,
      "Ġfacing": 7288,
      "Ġusw": 7289,
      "ĠEinrichtung": 7290,
      "ĠMitglieds": 7291,
      "ĠKonsequ": 7292,
      "Ġevidence": 7293,
      "Ġsubmit": 7294,
      "Ġkonstru": 7295,
      "Ġ300": 7296,
      "Ġrecord": 7297,
      "Ġgewisse": 7298,
      "Ġeinzus": 7299,
      "Ġbegrenz": 7300,
      "Ġ197": 7301,
      "ĠGleichgewicht": 7302,
      "Ġaufgefordert": 7303,
      "ĠItalien": 7304,
      "Ġhistory": 7305,
      "Ġwahrscheinlich": 7306,
      "ĠSpanien": 7307,
      "ĠvollstÃ¤ndig": 7308,
      "Ġbritischen": 7309,
      "Ġsogenannten": 7310,
      "ĠVerhÃ¤ltnis": 7311,
      "ĠWeiter": 7312,
      "ĠVorbereitung": 7313,
      "ĠPrivat": 7314,
      "feld": 7315,
      "sized": 7316,
      "Ġdimension": 7317,
      "Ġpub": 7318,
      "Ġpaper": 7319,
      "Ġhop": 7320,
      "Ġvig": 7321,
      "ĠSystems": 7322,
      "ĠMalt": 7323,
      "ĠTSE": 7324,
      "Ġones": 7325,
      "Ġgebe": 7326,
      "ĠVerzÃ¶": 7327,
      "Ġneues": 7328,
      "ĠZahlen": 7329,
      "ĠStimme": 7330,
      "Ġvorzulegen": 7331,
      "ĠAnteil": 7332,
      "ielt": 7333,
      "tedly": 7334,
      "ĠSchwer": 7335,
      "gruppe": 7336,
      "uell": 7337,
      "ĠEinw": 7338,
      "Ġsupporting": 7339,
      "Ġ31": 7340,
      "Ġresponsibilities": 7341,
      "Ġremov": 7342,
      "Ġherzlich": 7343,
      "Ġlost": 7344,
      "geleitet": 7345,
      "Ġpromoting": 7346,
      "Ġdelighted": 7347,
      "Ġplant": 7348,
      "Ġcritical": 7349,
      "ĠMinisters": 7350,
      "ĠerwÃ¤hn": 7351,
      "ĠErzeugnisse": 7352,
      "Ġgenerally": 7353,
      "Ġreinfor": 7354,
      "ĠWillen": 7355,
      "ugoslav": 7356,
      "Ġcriticism": 7357,
      "yprus": 7358,
      "Ġfulfil": 7359,
      "ĠgrenzÃ¼ber": 7360,
      "ĠZypern": 7361,
      "PT": 7362,
      "craft": 7363,
      "iot": 7364,
      "iable": 7365,
      "iform": 7366,
      "van": 7367,
      "ya": 7368,
      "Ġu": 7369,
      "Ġtw": 7370,
      "ĠtÃ¼rk": 7371,
      "Ġbureau": 7372,
      "leiten": 7373,
      "Ġneither": 7374,
      "ĠEthiop": 7375,
      "otion": 7376,
      "ĠCyprus": 7377,
      "ĠUnabhÃ¤ng": 7378,
      "Ġjetz": 7379,
      "qualitÃ¤t": 7380,
      "ibet": 7381,
      "ungsver": 7382,
      "Ġabend": 7383,
      "ĠSchweden": 7384,
      "bekÃ¤mpfung": 7385,
      "ĠErhÃ¶hung": 7386,
      "Ġimplic": 7387,
      "Ġprevention": 7388,
      "obin": 7389,
      "ĠWhy": 7390,
      "Ġapprove": 7391,
      "ĠMeeres": 7392,
      "ĠUmweltschutz": 7393,
      "ĠUmweltfragen": 7394,
      "Ġcars": 7395,
      "ĠYugoslav": 7396,
      "greif": 7397,
      "Ġparlamentar": 7398,
      "Ġintroduction": 7399,
      "ĠForschungs": 7400,
      "Ġcarefully": 7401,
      "Ġumfassende": 7402,
      "Ġhighlight": 7403,
      "ĠSchiffe": 7404,
      "Ġvorschlagen": 7405,
      "taaten": 7406,
      "ĠBeschlÃ¼sse": 7407,
      "ĠgeÃ¤uÃŁert": 7408,
      "ĠKatifor": 7409,
      "ĠMozamb": 7410,
      "ĠKatiforis": 7411,
      "DE": 7412,
      "uerung": 7413,
      "Ġachten": 7414,
      "Ġaktiv": 7415,
      "ona": 7416,
      "estens": 7417,
      "Ġfr": 7418,
      "ara": 7419,
      "Ġhol": 7420,
      "ĠSa": 7421,
      "ĠMeth": 7422,
      "ĠMold": 7423,
      "olon": 7424,
      "ĠDan": 7425,
      "ĠDim": 7426,
      "ĠWicht": 7427,
      "Ġlay": 7428,
      "osen": 7429,
      "Ġconference": 7430,
      "open": 7431,
      "ungsbe": 7432,
      "tzen": 7433,
      "Ġinterpret": 7434,
      "Ġadapt": 7435,
      "Ġcommittees": 7436,
      "Ġlaid": 7437,
      "ĠVorschlags": 7438,
      "ĠAlters": 7439,
      "Ġattach": 7440,
      "Ġextreme": 7441,
      "lexible": 7442,
      "Ġglauben": 7443,
      "Ġadvoc": 7444,
      "zwischen": 7445,
      "Ġtechnologies": 7446,
      "Ġdemokratische": 7447,
      "COM": 7448,
      "Ġstrongly": 7449,
      "Ġcontract": 7450,
      "ĠErzeuger": 7451,
      "ĠRoman": 7452,
      "Ġfacilit": 7453,
      "ĠWiderspruch": 7454,
      "Ġflexibility": 7455,
      "Ġtackle": 7456,
      "freiheit": 7457,
      "ĠWarum": 7458,
      "ĠPrÃ¼fung": 7459,
      "border": 7460,
      "ffizienz": 7461,
      "Ġdon": 7462,
      "ĠbetrÃ¤cht": 7463,
      "Ġbeef": 7464,
      "Ã¶der": 7465,
      "Ġdauer": 7466,
      "ĠChrist": 7467,
      "Ġaufzunehmen": 7468,
      "Ġstimmt": 7469,
      "ĠLauf": 7470,
      "ĠVerfahrens": 7471,
      "ĠInfrastruktur": 7472,
      "atever": 7473,
      "rÃ¤ft": 7474,
      "ĠschlÃ¤gt": 7475,
      "Ġamer": 7476,
      "Ġenj": 7477,
      "Ġcompla": 7478,
      "Ġbetont": 7479,
      "assend": 7480,
      "ĠRegulation": 7481,
      "head": 7482,
      "Ġprem": 7483,
      "Ġoutcome": 7484,
      "lÃ¤tzen": 7485,
      "Ġperman": 7486,
      "Ġinteresting": 7487,
      "ĠMonate": 7488,
      "ĠMonetary": 7489,
      "Ġrepresents": 7490,
      "sequent": 7491,
      "Ġbesonderen": 7492,
      "ĠÃ¶ffentlich": 7493,
      "Ġelimin": 7494,
      "Ġaircraft": 7495,
      "Ġoperations": 7496,
      "ĠgewÃ¤hrleistet": 7497,
      "Ġopposition": 7498,
      "airo": 7499,
      "ĠAssembly": 7500,
      "ĠIrland": 7501,
      "Ġdestro": 7502,
      "Ġerzielt": 7503,
      "Ġinstance": 7504,
      "Ġschemes": 7505,
      "Ġsuspend": 7506,
      "Ġpatent": 7507,
      "ĠÃľbergangs": 7508,
      "Ġadvantage": 7509,
      "Ġperspective": 7510,
      "zedon": 7511,
      "Ġwitness": 7512,
      "gibt": 7513,
      "licht": 7514,
      "nimmt": 7515,
      "ound": 7516,
      "ino": 7517,
      "Ġtut": 7518,
      "iste": 7519,
      "Ġbeziehen": 7520,
      "ĠTrotz": 7521,
      "Ġauft": 7522,
      "Ġerkennen": 7523,
      "ateful": 7524,
      "Ġvorbereit": 7525,
      "ĠAnliegen": 7526,
      "ĠAnforderungen": 7527,
      "Ġentschlossen": 7528,
      "ruh": 7529,
      "Ġ1994": 7530,
      "Ġweiterer": 7531,
      "richten": 7532,
      "Ġwenigen": 7533,
      "iode": 7534,
      "Ġinvolves": 7535,
      "tendlich": 7536,
      "ĠFlugh": 7537,
      "Ġcompetitive": 7538,
      "licherweise": 7539,
      "ĠÃĸl": 7540,
      "Ġexpression": 7541,
      "ĠzurÃ¼ckge": 7542,
      "Ġeinger": 7543,
      "ĠFischler": 7544,
      "ĠKontroll": 7545,
      "Ġandererseits": 7546,
      "Ġintegrated": 7547,
      "Ġglobalisation": 7548,
      "ĠLiberalen": 7549,
      "Ġprecaution": 7550,
      "zufÃ¼gen": 7551,
      "Ã¤hlen": 7552,
      "Ġdispla": 7553,
      "ĠMilch": 7554,
      "ĠGreek": 7555,
      "Ġderartige": 7556,
      "Ġclaim": 7557,
      "ĠBemerkung": 7558,
      "Ġimpossible": 7559,
      "ĠRechnungshof": 7560,
      "Ġpublish": 7561,
      "KOM": 7562,
      "mm": 7563,
      "Ġtemp": 7564,
      "iting": 7565,
      "altet": 7566,
      "roht": 7567,
      "Ġtold": 7568,
      "oms": 7569,
      "llaf": 7570,
      "ilst": 7571,
      "ĠKre": 7572,
      "ĠEuropol": 7573,
      "ĠgeÃ¤ndert": 7574,
      "Ġgezeigt": 7575,
      "Ġstabil": 7576,
      "ĠVerf": 7577,
      "Ġseien": 7578,
      "Ġsuc": 7579,
      "ĠAngriff": 7580,
      "halte": 7581,
      "Ġrespekt": 7582,
      "gested": 7583,
      "ĠEnd": 7584,
      "Ġmanaged": 7585,
      "Ġenor": 7586,
      "reichung": 7587,
      "ĠUnterschiede": 7588,
      "front": 7589,
      "ĠSellaf": 7590,
      "Ġinternationaler": 7591,
      "haften": 7592,
      "Ġangeht": 7593,
      "reitung": 7594,
      "Ġpositions": 7595,
      "ĠArbeitszeit": 7596,
      "ĠgrÃ¶ÃŁte": 7597,
      "ĠSozialdem": 7598,
      "Ġaims": 7599,
      "Ġbenach": 7600,
      "ĠSubject": 7601,
      "Ġhappening": 7602,
      "Ġteilweise": 7603,
      "Ġunterschiedlichen": 7604,
      "ĠRegionalpolitik": 7605,
      "Ġerfolgreich": 7606,
      "ĠPartnerschaft": 7607,
      "Ġconsultation": 7608,
      "Ġquotas": 7609,
      "ĠTechnologien": 7610,
      "ĠGMOs": 7611,
      "Ġeinbezogen": 7612,
      "ĠprÃ¤z": 7613,
      "igrants": 7614,
      "ĠÃľberprÃ¼fung": 7615,
      "Staaten": 7616,
      "jekt": 7617,
      "Ġtro": 7618,
      "Ġtreten": 7619,
      "itory": 7620,
      "ĠhÃ¤lt": 7621,
      "Ġcal": 7622,
      "Ã¼ben": 7623,
      "stuff": 7624,
      "ĠEvery": 7625,
      "icip": 7626,
      "Ġrejected": 7627,
      "Ã¶hn": 7628,
      "ĠRu": 7629,
      "Ġconvention": 7630,
      "Ġergeben": 7631,
      "ĠÃ¼bertragen": 7632,
      "istan": 7633,
      "ĠJed": 7634,
      "Ġgenere": 7635,
      "fÃ¼hrten": 7636,
      "flanzen": 7637,
      "Ġinsurance": 7638,
      "gelassen": 7639,
      "Ġknows": 7640,
      "Ġoffiz": 7641,
      "Ġarrange": 7642,
      "Ġadded": 7643,
      "Ã¤lter": 7644,
      "Ġfreien": 7645,
      "ĠHinweis": 7646,
      "Ġserve": 7647,
      "ĠOrd": 7648,
      "Ġpositiven": 7649,
      "ĠBetrifft": 7650,
      "Ġrepresentative": 7651,
      "ĠMany": 7652,
      "ĠDarum": 7653,
      "Ġbalanced": 7654,
      "ĠStrukturen": 7655,
      "Ġstarting": 7656,
      "zielle": 7657,
      "Ġnonetheless": 7658,
      "Ġbound": 7659,
      "Ġdanger": 7660,
      "Ġsurpr": 7661,
      "ĠSelbstverstÃ¤ndlich": 7662,
      "Europe": 7663,
      "ĠKonflik": 7664,
      "ĠWirklichkeit": 7665,
      "ĠIrak": 7666,
      "Ġplanning": 7667,
      "eschrÃ¤nkt": 7668,
      "ĠfÃ¤llt": 7669,
      "Ġforthcoming": 7670,
      "ĠConsumer": 7671,
      "ĠÃľberzeugung": 7672,
      "ĠMozambique": 7673,
      "ĠSellafield": 7674,
      "EU": 7675,
      "IT": 7676,
      "hre": 7677,
      "ĠčĊ": 7678,
      "reben": 7679,
      "regel": 7680,
      "Ġbase": 7681,
      "Ġbieten": 7682,
      "ĠfÃ¼": 7683,
      "Ġflexible": 7684,
      "geiz": 7685,
      "ĠSysteme": 7686,
      "Ġgave": 7687,
      "ĠKrÃ¤": 7688,
      "ĠkÃ¼rz": 7689,
      "ĠHoch": 7690,
      "Ġgelangen": 7691,
      "Ġsoeben": 7692,
      "oses": 7693,
      "versch": 7694,
      "ĠIns": 7695,
      "spolit": 7696,
      "Ġexem": 7697,
      "ensus": 7698,
      "Ġsuchen": 7699,
      "Ġvorbe": 7700,
      "ĠAnlaÃŁ": 7701,
      "erring": 7702,
      "Ġattend": 7703,
      "anging": 7704,
      "ĠMitgliedern": 7705,
      "Ġefficiency": 7706,
      "Ġ35": 7707,
      "Ġwelcom": 7708,
      "Ġfrage": 7709,
      "Ġklaren": 7710,
      "Ġminority": 7711,
      "ĠgrÃ¶ÃŁeren": 7712,
      "Ġterritory": 7713,
      "ĠVoraussetzungen": 7714,
      "ĠHÃ¶chst": 7715,
      "ĠRoma": 7716,
      "Ġdistribution": 7717,
      "ĠFebruar": 7718,
      "ĠFebruary": 7719,
      "Ġuneing": 7720,
      "ĠGrÃ¼nen": 7721,
      "ĠAuditors": 7722,
      "ĠDeutschland": 7723,
      "04": 7724,
      "NS": 7725,
      "SV": 7726,
      "lÃ¤nd": 7727,
      "uz": 7728,
      "Ġminister": 7729,
      "ĠmÃ¼nd": 7730,
      "Ġfrag": 7731,
      "Ġunc": 7732,
      "Ġbeide": 7733,
      "uses": 7734,
      "ĠMob": 7735,
      "Ġrech": 7736,
      "Ġlate": 7737,
      "ĠViele": 7738,
      "osal": 7739,
      "ĠLat": 7740,
      "Ġneben": 7741,
      "lau": 7742,
      "inding": 7743,
      "Ġmiteinander": 7744,
      "ĠKommissionsprÃ¤sident": 7745,
      "ĠErn": 7746,
      "ĠPresse": 7747,
      "nahm": 7748,
      "Ġfinance": 7749,
      "Ġwarten": 7750,
      "lÃ¤ss": 7751,
      "Ġnationaler": 7752,
      "Ġ32": 7753,
      "Ġdebates": 7754,
      "ĠÃľberlegungen": 7755,
      "Ġgewalt": 7756,
      "Ġassure": 7757,
      "ĠControl": 7758,
      "richtlinie": 7759,
      "Ġseries": 7760,
      "Ġgetting": 7761,
      "gemeinschaft": 7762,
      "Ġ95": 7763,
      "Ġstehenden": 7764,
      "Ġoperators": 7765,
      "Ġdetailed": 7766,
      "Ġcloser": 7767,
      "riminalitÃ¤t": 7768,
      "Ġlinked": 7769,
      "Ġgradu": 7770,
      "ĠBasis": 7771,
      "Ġverloren": 7772,
      "vergence": 7773,
      "ĠMosamb": 7774,
      "ĠNAFO": 7775,
      "Ġdegree": 7776,
      "nÃ¼": 7777,
      "punkte": 7778,
      "yer": 7779,
      "year": 7780,
      "enfalls": 7781,
      "orf": 7782,
      "anischen": 7783,
      "Ġflag": 7784,
      "roh": 7785,
      "Ġemissions": 7786,
      "Ġangebracht": 7787,
      "stat": 7788,
      "ĠIC": 7789,
      "ĠSimbabwe": 7790,
      "Ġreact": 7791,
      "Ġreaction": 7792,
      "ĠTibet": 7793,
      "ĠFer": 7794,
      "Ġzufolge": 7795,
      "ĠLann": 7796,
      "ivity": 7797,
      "Ġlegen": 7798,
      "ĠAnfragen": 7799,
      "steht": 7800,
      "Ġheav": 7801,
      "Ġcomply": 7802,
      "Ġconsensus": 7803,
      "samkeit": 7804,
      "ĠAufbau": 7805,
      "ĠSee": 7806,
      "Ġwelch": 7807,
      "ĠEntwicklungspolitik": 7808,
      "Ġdrast": 7809,
      "Ġwesentliche": 7810,
      "ĠgefÃ¶rdert": 7811,
      "ĠMazedon": 7812,
      "Ġsensible": 7813,
      "schiedet": 7814,
      "Ġdefined": 7815,
      "ĠIhrem": 7816,
      "hebung": 7817,
      "Ġconflicts": 7818,
      "Ġcauses": 7819,
      "Ġbilden": 7820,
      "ĠInformationsgesellschaft": 7821,
      "ĠSektoren": 7822,
      "ĠFlÃ¼chtlinge": 7823,
      "Ġappears": 7824,
      "Ġtimet": 7825,
      "rokrat": 7826,
      "Ġfloor": 7827,
      "Ġdiversity": 7828,
      "Ġvirt": 7829,
      "Ġsucceed": 7830,
      "ĠLannoy": 7831,
      "ca": 7832,
      "systeme": 7833,
      "Ġacht": 7834,
      "esten": 7835,
      "Ġsetzt": 7836,
      "Ġpun": 7837,
      "Ġpornograph": 7838,
      "igne": 7839,
      "ĠMo": 7840,
      "ĠKlar": 7841,
      "ĠCor": 7842,
      "abor": 7843,
      "Ġconstruction": 7844,
      "Ġerfolgt": 7845,
      "tritt": 7846,
      "sprÃ¼": 7847,
      "Ġcoll": 7848,
      "Ġabgele": 7849,
      "ĠWege": 7850,
      "ĠBerat": 7851,
      "seh": 7852,
      "astricht": 7853,
      "Ã¶rder": 7854,
      "Ġprison": 7855,
      "sibly": 7856,
      "Ġdecis": 7857,
      "ĠTechn": 7858,
      "Ġgrateful": 7859,
      "Ġnaturally": 7860,
      "Ġlaunch": 7861,
      "Ġgelungen": 7862,
      "Ġsigned": 7863,
      "Ġregionale": 7864,
      "Ġerfordert": 7865,
      "ĠMaastricht": 7866,
      "Ġeingegangen": 7867,
      "Ġinformieren": 7868,
      "ĠVielleicht": 7869,
      "ĠGemeinsame": 7870,
      "Ġvorliegende": 7871,
      "ĠArbeitsplÃ¤tzen": 7872,
      "ĠMinutes": 7873,
      "Ġcombating": 7874,
      "Ġexamine": 7875,
      "tellten": 7876,
      "Ġverabschiedet": 7877,
      "Ġmethods": 7878,
      "Ġverantwortlich": 7879,
      "ĠKrisen": 7880,
      "Ġfalsch": 7881,
      "behÃ¶rde": 7882,
      "Ġinfluence": 7883,
      "Ġbureauc": 7884,
      "ĠLannoye": 7885,
      "II": 7886,
      "cent": 7887,
      "cement": 7888,
      "lose": 7889,
      "renn": 7890,
      "vi": 7891,
      "vent": 7892,
      "zwe": 7893,
      "zure": 7894,
      "Ġdre": 7895,
      "unruh": 7896,
      "Ġcust": 7897,
      "Ġbeings": 7898,
      "ĠSign": 7899,
      "Ġeinig": 7900,
      "Ġconvergence": 7901,
      "Ġverweisen": 7902,
      "Ġerfre": 7903,
      "ĠRealitÃ¤t": 7904,
      "Ġvorange": 7905,
      "Ġvorgenommen": 7906,
      "Ġausger": 7907,
      "ĠJetzt": 7908,
      "ĠErwart": 7909,
      "ĠArgument": 7910,
      "Ġfailed": 7911,
      "ĠnachdrÃ¼cklich": 7912,
      "Ġ1993": 7913,
      "Ġdiscip": 7914,
      "Ġarr": 7915,
      "Ġ48": 7916,
      "Ġurban": 7917,
      "Ġseitens": 7918,
      "Ġtaxation": 7919,
      "ĠBrenn": 7920,
      "Ġclosed": 7921,
      "Ġcontained": 7922,
      "ĠFortschritt": 7923,
      "Ġparticipate": 7924,
      "Ġbetreffenden": 7925,
      "ĠTrade": 7926,
      "nungsgemÃ¤ÃŁ": 7927,
      "ĠordnungsgemÃ¤ÃŁ": 7928,
      "Ġincineration": 7929,
      "schnitt": 7930,
      "Ġconduct": 7931,
      "ĠAngola": 7932,
      "Ġconstructive": 7933,
      "Ġausgesprochen": 7934,
      "ĠgrenzÃ¼berschreit": 7935,
      "fleisch": 7936,
      "Ġton": 7937,
      "itime": 7938,
      "atively": 7939,
      "Ġinade": 7940,
      "Ġnight": 7941,
      "ĠnÃ¶t": 7942,
      "Ġunbe": 7943,
      "rap": 7944,
      "emit": 7945,
      "ĠBur": 7946,
      "ĠFrom": 7947,
      "bere": 7948,
      "ĠKrank": 7949,
      "ĠGu": 7950,
      "Ġverstanden": 7951,
      "andal": 7952,
      "ĠInn": 7953,
      "Ġras": 7954,
      "ugnisse": 7955,
      "ĠBefÃ¼r": 7956,
      "grenzen": 7957,
      "Ġthereby": 7958,
      "Ġmanage": 7959,
      "Ġappoint": 7960,
      "ĠÃĦthiop": 7961,
      "lÃ¤ge": 7962,
      "wirkt": 7963,
      "Ġfactor": 7964,
      "hagen": 7965,
      "selben": 7966,
      "fÃ¼hl": 7967,
      "Ġcontinent": 7968,
      "Ġnotwendige": 7969,
      "Ġseiten": 7970,
      "Ġbesseren": 7971,
      "dienste": 7972,
      "Ġguaranteed": 7973,
      "Ġcontrols": 7974,
      "Ġumfang": 7975,
      "ĠeingefÃ¼hrt": 7976,
      "stoff": 7977,
      "Ġpostpon": 7978,
      "Ġindividuals": 7979,
      "Ġrailway": 7980,
      "ĠlÃ¤ndliche": 7981,
      "sÃ¤tzen": 7982,
      "ĠFremdenverkehr": 7983,
      "ĠSerbia": 7984,
      "ĠResolution": 7985,
      "ĠDrittlÃ¤ndern": 7986,
      "Ġtarget": 7987,
      "Ġceil": 7988,
      "Ġseparate": 7989,
      "Ġnahe": 7990,
      "ĠSchweiz": 7991,
      "ĠMalta": 7992,
      "Ġenjoy": 7993,
      "ĠMosambik": 7994,
      "commun": 7995,
      "fu": 7996,
      "erten": 7997,
      "Ġsla": 7998,
      "Ġsorg": 7999,
      "atible": 8000,
      "orum": 8001,
      "Ġunless": 8002,
      "ĠElement": 8003,
      "ĠEffizienz": 8004,
      "ĠDon": 8005,
      "ĠWÃ¼r": 8006,
      "ĠWaffen": 8007,
      "ulations": 8008,
      "ĠRent": 8009,
      "Ġlies": 8010,
      "Ġfordert": 8011,
      "Ġconciliation": 8012,
      "achs": 8013,
      "Ġdesire": 8014,
      "qual": 8015,
      "Ġcoup": 8016,
      "Ġrass": 8017,
      "Ġvorzu": 8018,
      "Ġabgestimmt": 8019,
      "Ġcompar": 8020,
      "Ġcompuls": 8021,
      "Ġconserv": 8022,
      "Ġexpens": 8023,
      "Ġconsiders": 8024,
      "Ġeinzigen": 8025,
      "actory": 8026,
      "Ġmonopol": 8027,
      "Ġ2006": 8028,
      "sproz": 8029,
      "Ġinvestments": 8030,
      "Ġfolgendes": 8031,
      "ĠBesonder": 8032,
      "ĠNeu": 8033,
      "Ġhervorheben": 8034,
      "ĠZusÃ¤tz": 8035,
      "Ġmeaning": 8036,
      "ĠFreiheiten": 8037,
      "Ġnieder": 8038,
      "Ġsuggested": 8039,
      "ĠFeststellung": 8040,
      "Ġdisasters": 8041,
      "Ġobligation": 8042,
      "ĠGreen": 8043,
      "Ġelsewhere": 8044,
      "Ġsymp": 8045,
      "ĠerhÃ¶hen": 8046,
      "Ġdisease": 8047,
      "ĠVerletzung": 8048,
      "Ġclean": 8049,
      "Ġprecautionary": 8050,
      "%.": 8051,
      "ernen": 8052,
      "ermaÃŁen": 8053,
      "itable": 8054,
      "attet": 8055,
      "ĠAkt": 8056,
      "Ġzeit": 8057,
      "Ġgrie": 8058,
      "Ġforced": 8059,
      "ĠComp": 8060,
      "ĠVerk": 8061,
      "Ġwert": 8062,
      "ibiot": 8063,
      "ĠVorbe": 8064,
      "Ġdaraus": 8065,
      "Ġworse": 8066,
      "Ġcompl": 8067,
      "ĠdurchzufÃ¼hren": 8068,
      "igkeits": 8069,
      "Ġgegenseit": 8070,
      "barer": 8071,
      "istenz": 8072,
      "ĠMeines": 8073,
      "endence": 8074,
      "ĠInteroper": 8075,
      "Ġletzt": 8076,
      "Ġhighest": 8077,
      "reitet": 8078,
      "versorgung": 8079,
      "Ġallowing": 8080,
      "ĠbekÃ¤mpfen": 8081,
      "ĠbekrÃ¤ft": 8082,
      "Ġeinzelstaat": 8083,
      "Ġfighting": 8084,
      "Ġversion": 8085,
      "ĠkÃ¼nftigen": 8086,
      "ĠVorsorge": 8087,
      "ĠGreens": 8088,
      "Ġdemonst": 8089,
      "Ġstarted": 8090,
      "Ġlower": 8091,
      "ĠVereinbarungen": 8092,
      "ĠLebensmittelsicherheit": 8093,
      "ĠKonsult": 8094,
      "ĠWelche": 8095,
      "Ġsources": 8096,
      "Ġexclusion": 8097,
      "Ġelektronischen": 8098,
      "Ġdesigned": 8099,
      "ĠBananen": 8100,
      "Ab": 8101,
      "hy": 8102,
      "lings": 8103,
      "Ġut": 8104,
      "Ġaf": 8105,
      "ato": 8106,
      "ĠMand": 8107,
      "ĠBird": 8108,
      "ĠWales": 8109,
      "Ġzugr": 8110,
      "idd": 8111,
      "Ġdahin": 8112,
      "ables": 8113,
      "Ġsovere": 8114,
      "Ġstor": 8115,
      "Ġstip": 8116,
      "ĠLi": 8117,
      "ĠLank": 8118,
      "ĠVerst": 8119,
      "ĠVersuch": 8120,
      "Ġjem": 8121,
      "ĠRechten": 8122,
      "ibed": 8123,
      "Ġvorgelegten": 8124,
      "ĠAngaben": 8125,
      "Ġsichern": 8126,
      "ĠÃ¼berall": 8127,
      "schau": 8128,
      "Ġausgehen": 8129,
      "ertrag": 8130,
      "Ġfaced": 8131,
      "ĠEinigung": 8132,
      "Ã¼nde": 8133,
      "Ã¶rper": 8134,
      "Ġpolitic": 8135,
      "osev": 8136,
      "Ġworked": 8137,
      "Ġjustified": 8138,
      "Ġfactors": 8139,
      "worfen": 8140,
      "Ġinsist": 8141,
      "ĠSeattle": 8142,
      "active": 8143,
      "ĠDafÃ¼r": 8144,
      "Ġscale": 8145,
      "Ġcitizen": 8146,
      "ĠVerbraucherpolitik": 8147,
      "ĠOrganis": 8148,
      "ĠQuoten": 8149,
      "ĠTrans": 8150,
      "weder": 8151,
      "stehenden": 8152,
      "Ġgrowing": 8153,
      "ĠEnergien": 8154,
      "ĠVielfalt": 8155,
      "Ġboard": 8156,
      "Ġpassed": 8157,
      "ĠMilosev": 8158,
      "Ġzahlreichen": 8159,
      "Ġentirely": 8160,
      "Ġpraktisch": 8161,
      "ĠPrakt": 8162,
      "ĠbeschrÃ¤nken": 8163,
      "ĠBudgetary": 8164,
      "ĠjÃ¼ngsten": 8165,
      "Ġgratulieren": 8166,
      "Ġsmoking": 8167,
      "ĠMonti": 8168,
      "ĠBotschaft": 8169,
      "opoulos": 8170,
      "Ġvessels": 8171,
      "Ġdoctors": 8172,
      "Ġgriech": 8173,
      "Ġzugrunde": 8174,
      "Ġsovereign": 8175,
      "beschÃ¤ft": 8176,
      "ipp": 8177,
      "kungen": 8178,
      "rne": 8179,
      "enkt": 8180,
      "onom": 8181,
      "isted": 8182,
      "atischen": 8183,
      "rechten": 8184,
      "ĠhÃ¶ren": 8185,
      "Ġunion": 8186,
      "ĠSoll": 8187,
      "ĠSri": 8188,
      "Ġzerst": 8189,
      "Ġeingeb": 8190,
      "icted": 8191,
      "imal": 8192,
      "amer": 8193,
      "ĠTun": 8194,
      "ĠTschetschen": 8195,
      "Ġzuk": 8196,
      "Ġkennen": 8197,
      "Ġprospect": 8198,
      "ĠerÃ¶r": 8199,
      "ĠUngleich": 8200,
      "ĠUnivers": 8201,
      "ĠVerlauf": 8202,
      "ĠNR": 8203,
      "akis": 8204,
      "Ġnachdem": 8205,
      "Ġstelle": 8206,
      "Ġ1992": 8207,
      "chnya": 8208,
      "otechnolog": 8209,
      "Ġsupports": 8210,
      "mittelt": 8211,
      "Ġevening": 8212,
      "Ġletztendlich": 8213,
      "ĠWirtschaftspolitik": 8214,
      "ĠZielsetzungen": 8215,
      "ĠAbstimmungen": 8216,
      "Ġtruly": 8217,
      "Ġ2003": 8218,
      "Ġwissenschaftlichen": 8219,
      "Ġurgency": 8220,
      "ĠOnly": 8221,
      "ĠSozialschutz": 8222,
      "kommt": 8223,
      "Ġinstitutionellen": 8224,
      "ĠnÃ¤chste": 8225,
      "ifizierung": 8226,
      "Ġerinnert": 8227,
      "Ġprotecting": 8228,
      "Ġernsthaft": 8229,
      "ĠRatsprÃ¤sidentschaft": 8230,
      "stellungen": 8231,
      "Ġgrundlegende": 8232,
      "ĠFamilie": 8233,
      "ĠByrne": 8234,
      "Ġoccasions": 8235,
      "ĠHintergrund": 8236,
      "ĠChechnya": 8237,
      "Ġenterprises": 8238,
      "ĠÃĦrz": 8239,
      "nÃ¼p": 8240,
      "Ġcompulsory": 8241,
      "-,": 8242,
      "AR": 8243,
      "besch": 8244,
      "lit": 8245,
      "mar": 8246,
      "ton": 8247,
      "uens": 8248,
      "Ġ0": 8249,
      "Ġaver": 8250,
      "itrak": 8251,
      "Ġsession": 8252,
      "reche": 8253,
      "Ġbir": 8254,
      "Ġisol": 8255,
      "ĠPact": 8256,
      "utin": 8257,
      "Ġauff": 8258,
      "Ġloss": 8259,
      "ĠHung": 8260,
      "ĠHul": 8261,
      "ĠverÃ¤nder": 8262,
      "ĠverstÃ¤nd": 8263,
      "Ġseven": 8264,
      "Ġexists": 8265,
      "Ġallzu": 8266,
      "Ġrange": 8267,
      "ĠBeob": 8268,
      "ĠAusnahme": 8269,
      "ĠSchre": 8270,
      "ĠErarbeitung": 8271,
      "Ġenh": 8272,
      "apan": 8273,
      "ĠDefiz": 8274,
      "strategie": 8275,
      "Ġacquis": 8276,
      "ĠHerzen": 8277,
      "Ġmeetings": 8278,
      "Ġdefine": 8279,
      "Ġniemals": 8280,
      "Ġverbessert": 8281,
      "Ġdrawing": 8282,
      "ĠbeschÃ¤ftigt": 8283,
      "Ġerheblich": 8284,
      "Ġseeking": 8285,
      "Ġspeziellen": 8286,
      "ĠIdee": 8287,
      "Ġbilateral": 8288,
      "Ġoccasion": 8289,
      "what": 8290,
      "Ġehrgeiz": 8291,
      "Ġafrikanischen": 8292,
      "ĠEthiopia": 8293,
      "Ġjetzigen": 8294,
      "ĠDimitrak": 8295,
      "stuffs": 8296,
      "Ġarrangements": 8297,
      "ĠMazedonien": 8298,
      "communications": 8299,
      "ĠBirdal": 8300,
      "ĠMilosevic": 8301,
      "ĠDimitrakopoulos": 8302,
      "brit": 8303,
      "based": 8304,
      "cision": 8305,
      "fangen": 8306,
      "hib": 8307,
      "zieren": 8308,
      "Ġdign": 8309,
      "Ġsw": 8310,
      "atur": 8311,
      "teten": 8312,
      "ĠModell": 8313,
      "ico": 8314,
      "eitigung": 8315,
      "Ã¶p": 8316,
      "Ġwhatever": 8317,
      "ĠRind": 8318,
      "Ġforest": 8319,
      "Ġsole": 8320,
      "ĠZeich": 8321,
      "ikations": 8322,
      "trieben": 8323,
      "ĠReport": 8324,
      "ĠReaktion": 8325,
      "ĠÃ¼bernommen": 8326,
      "ĠBek": 8327,
      "ahren": 8328,
      "ĠAusgrenzung": 8329,
      "heits": 8330,
      "ĠAbfÃ¤lle": 8331,
      "cedon": 8332,
      "fÃ¼hrungs": 8333,
      "Ġsomewhat": 8334,
      "Ġgewiss": 8335,
      "Ġamended": 8336,
      "Ġwelcher": 8337,
      "Ġrequested": 8338,
      "programm": 8339,
      "Ġwiederum": 8340,
      "ĠZielen": 8341,
      "Ġrapporteurs": 8342,
      "ĠArbeitsmarkt": 8343,
      "ĠHeimat": 8344,
      "Ġ70": 8345,
      "ĠMacedon": 8346,
      "Ġpractices": 8347,
      "greement": 8348,
      "Ġspeaker": 8349,
      "Ġprivaten": 8350,
      "Ġoppos": 8351,
      "Ġtechnological": 8352,
      "Ġniemand": 8353,
      "Ġviolations": 8354,
      "ĠDiskussionen": 8355,
      "Ġterror": 8356,
      "ĠGemeinschaftsin": 8357,
      "ĠÃľbereinstimmung": 8358,
      "ĠWirkung": 8359,
      "Ġemployees": 8360,
      "ĠSpanish": 8361,
      "Ġbriefly": 8362,
      "ĠbenÃ¶tigen": 8363,
      "entwicklung": 8364,
      "politischen": 8365,
      "Ġdeclaration": 8366,
      "Ġanerkannt": 8367,
      "ĠUmstÃ¤nden": 8368,
      "ĠNGOs": 8369,
      "Ġtimetable": 8370,
      "ĠModern": 8371,
      "beschÃ¤ftigung": 8372,
      "CNS": 8373,
      "ball": 8374,
      "cast": 8375,
      "feit": 8376,
      "mil": 8377,
      "nes": 8378,
      "pakt": 8379,
      "wal": 8380,
      "Ġdynam": 8381,
      "Ġhar": 8382,
      "Ġhund": 8383,
      "Ġnations": 8384,
      "Ġcrop": 8385,
      "Ã¤s": 8386,
      "Ġbeunruh": 8387,
      "ĠAgreement": 8388,
      "ĠSwed": 8389,
      "icate": 8390,
      "Ġging": 8391,
      "Ġreiter": 8392,
      "ama": 8393,
      "ĠTobin": 8394,
      "Ġdenken": 8395,
      "ĠgeprÃ¼ft": 8396,
      "Ġdeleg": 8397,
      "Ġabst": 8398,
      "ĠJe": 8399,
      "ĠOber": 8400,
      "Ġincident": 8401,
      "Ġgenannt": 8402,
      "Ġimposed": 8403,
      "inken": 8404,
      "ĠUnterschied": 8405,
      "ception": 8406,
      "amente": 8407,
      "klang": 8408,
      "ĠAtlant": 8409,
      "Ġeingehalten": 8410,
      "rechtlichen": 8411,
      "Ġoperate": 8412,
      "fÃ¤hig": 8413,
      "ĠbefaÃŁt": 8414,
      "ĠItalian": 8415,
      "Ġlabel": 8416,
      "Ġgeeigne": 8417,
      "ĠWachstums": 8418,
      "Ġimmediate": 8419,
      "strafe": 8420,
      "ĠRussia": 8421,
      "ĠGenehm": 8422,
      "Ġspoken": 8423,
      "Ġkulturellen": 8424,
      "Ġproportion": 8425,
      "Ġtypes": 8426,
      "Ġthousands": 8427,
      "ĠÃĦthiopien": 8428,
      "ĠzukÃ¼nft": 8429,
      "mien": 8430,
      "na": 8431,
      "isierten": 8432,
      "Ġwon": 8433,
      "Ġwrit": 8434,
      "reifen": 8435,
      "Ġfront": 8436,
      "techn": 8437,
      "Ġpassen": 8438,
      "Ġcigaret": 8439,
      "ash": 8440,
      "ĠEG": 8441,
      "igend": 8442,
      "uting": 8443,
      "Ġregel": 8444,
      "ĠDÃ¤n": 8445,
      "ĠDring": 8446,
      "schung": 8447,
      "hrten": 8448,
      "Ã¶konom": 8449,
      "ĠRo": 8450,
      "ĠGanz": 8451,
      "Ġwealth": 8452,
      "anda": 8453,
      "ĠstÃ¤r": 8454,
      "ĠVersammlung": 8455,
      "Ġmitteilen": 8456,
      "ĠAnzahl": 8457,
      "Ġmeant": 8458,
      "Ġausreichen": 8459,
      "ĠBegrÃ¼nd": 8460,
      "Ġregular": 8461,
      "Ġende": 8462,
      "ĠgenÃ¼": 8463,
      "Ġaccomp": 8464,
      "Ġpermit": 8465,
      "ĠLeute": 8466,
      "ildet": 8467,
      "Ġhoffentlich": 8468,
      "Ġresolve": 8469,
      "Ġbringing": 8470,
      "Ġpromotion": 8471,
      "ĠgrÃ¶ÃŁer": 8472,
      "Ġsupply": 8473,
      "Ġumfassend": 8474,
      "Ġready": 8475,
      "Ġallgemeine": 8476,
      "ĠExper": 8477,
      "Ġoccup": 8478,
      "ĠBinnenmarktes": 8479,
      "Ġappell": 8480,
      "ĠwÃ¼nschen": 8481,
      "ĠGroÃŁbrit": 8482,
      "Ġmassive": 8483,
      "ĠEastern": 8484,
      "Ġincorporated": 8485,
      "Ġfunktioniert": 8486,
      "Ġbelong": 8487,
      "Ġallocated": 8488,
      "ĠbestÃ¤tigt": 8489,
      "ĠBetrugs": 8490,
      "Ġverurteilt": 8491,
      "ĠdiesbezÃ¼glich": 8492,
      "ĠMitarbeiter": 8493,
      "ĠVerstÃ¤ndnis": 8494,
      "ĠAnalyse": 8495,
      "Ġentitled": 8496,
      "Ġkonstrukt": 8497,
      "Ġabgelehnt": 8498,
      "ĠTschetschenien": 8499,
      "ĠGroÃŁbritann": 8500,
      "Die": 8501,
      "avour": 8502,
      "national": 8503,
      "oon": 8504,
      "systems": 8505,
      "zusammen": 8506,
      "Ġdig": 8507,
      "Ġdritten": 8508,
      "inner": 8509,
      "Ġslow": 8510,
      "aters": 8511,
      "orient": 8512,
      "Ġbinding": 8513,
      "Ġinte": 8514,
      "Ġfle": 8515,
      "Ġanstatt": 8516,
      "Ġtool": 8517,
      "ĠEigen": 8518,
      "ĠSorgen": 8519,
      "emark": 8520,
      "ima": 8521,
      "schlag": 8522,
      "ĠTer": 8523,
      "ilater": 8524,
      "ĠKriminalitÃ¤t": 8525,
      "Ġfordere": 8526,
      "resented": 8527,
      "Ġverring": 8528,
      "verÃ¤n": 8529,
      "ĠZigaret": 8530,
      "aket": 8531,
      "Ġoral": 8532,
      "ĠJournal": 8533,
      "ĠJapan": 8534,
      "Ġdarunter": 8535,
      "Ġ2010": 8536,
      "Ġamounts": 8537,
      "Ġpolitics": 8538,
      "Ġconsolid": 8539,
      "Ġspricht": 8540,
      "Ġsprach": 8541,
      "Ġexpert": 8542,
      "Ġdifferences": 8543,
      "ĠZeitplan": 8544,
      "icherungs": 8545,
      "Ġfestzulegen": 8546,
      "Ġfestgelegten": 8547,
      "itzer": 8548,
      "ĠTeilen": 8549,
      "ĠFreedom": 8550,
      "Ġrequirement": 8551,
      "Ġvollkommen": 8552,
      "Ġplants": 8553,
      "Ġleading": 8554,
      "Ġprecise": 8555,
      "wegs": 8556,
      "Ġkleine": 8557,
      "ĠFrist": 8558,
      "ĠverfÃ¼gt": 8559,
      "Ġpoorest": 8560,
      "ĠAgrarpolitik": 8561,
      "Ġborder": 8562,
      "Ġtraditional": 8563,
      "Ġsuffering": 8564,
      "Ġlegitimate": 8565,
      "ĠZusatzstoffe": 8566,
      "ĠRussian": 8567,
      "ĠGeneva": 8568,
      "Ġremarks": 8569,
      "Ġetc": 8570,
      "ommerce": 8571,
      "Ġversichern": 8572,
      "Ġtargets": 8573,
      "Ġdignity": 8574,
      "Vertrag": 8575,
      "dent": 8576,
      "faÃŁt": 8577,
      "kre": 8578,
      "lated": 8579,
      "ming": 8580,
      "prÃ¤sident": 8581,
      "uk": 8582,
      "ĠÃ¤rm": 8583,
      "chsel": 8584,
      "Ġthor": 8585,
      "isemit": 8586,
      "orate": 8587,
      "ĠEbenso": 8588,
      "ĠPo": 8589,
      "ĠTagen": 8590,
      "ĠWomen": 8591,
      "lichung": 8592,
      "Ġzugelassen": 8593,
      "ĠKy": 8594,
      "Ġwhilst": 8595,
      "ĠRuÃŁ": 8596,
      "Ġlen": 8597,
      "ĠGlaub": 8598,
      "orthern": 8599,
      "Ġprove": 8600,
      "ĠLab": 8601,
      "ĠZiff": 8602,
      "tsein": 8603,
      "spunkt": 8604,
      "004": 8605,
      "ields": 8606,
      "upts": 8607,
      "Ġsieben": 8608,
      "ĠmÃ¶glichen": 8609,
      "Ġobsta": 8610,
      "Ġissu": 8611,
      "Ġconsiderations": 8612,
      "Ġgreatest": 8613,
      "Ġweiteres": 8614,
      "ĠProblems": 8615,
      "Ã¶ÃŁe": 8616,
      "standing": 8617,
      "Ġirre": 8618,
      "Ġsupposed": 8619,
      "Ġrechtlichen": 8620,
      "Ġbestimmter": 8621,
      "ĠbegrÃ¼ÃŁt": 8622,
      "Ġrevision": 8623,
      "ĠStraÃŁen": 8624,
      "Ġopening": 8625,
      "ĠHoffnung": 8626,
      "Ġamongst": 8627,
      "ĠMEDA": 8628,
      "Ġstudies": 8629,
      "Ġextended": 8630,
      "Ġgrundlegenden": 8631,
      "Ġerzielen": 8632,
      "Ġtelevision": 8633,
      "Ġtelecommunications": 8634,
      "Ġexception": 8635,
      "kosten": 8636,
      "ĠLastly": 8637,
      "Ġlokalen": 8638,
      "ĠCharakter": 8639,
      "Ġannounced": 8640,
      "ĠtÃ¤tig": 8641,
      "Ġhoriz": 8642,
      "Ġpornography": 8643,
      "ĠNRO": 8644,
      "Ġaverage": 8645,
      "ĠDÃ¤nemark": 8646,
      "Ġthorough": 8647,
      "Ġobstac": 8648,
      "Ber": 8649,
      "pay": 8650,
      "sieht": 8651,
      "tin": 8652,
      "vors": 8653,
      "wide": 8654,
      "Ġdan": 8655,
      "Ġapart": 8656,
      "tehen": 8657,
      "leun": 8658,
      "Ġpill": 8659,
      "Ġpensions": 8660,
      "Ġangest": 8661,
      "Ġuniform": 8662,
      "ĠEig": 8663,
      "ĠAkte": 8664,
      "ĠSav": 8665,
      "Ġlob": 8666,
      "Ġkorre": 8667,
      "ĠHÃ¤l": 8668,
      "Ġdiesel": 8669,
      "Ġerle": 8670,
      "Ġjun": 8671,
      "Ġrespected": 8672,
      "ufe": 8673,
      "ĠSchreiben": 8674,
      "ĠOffice": 8675,
      "Ġseines": 8676,
      "Ġenvis": 8677,
      "Ġbetreffend": 8678,
      "ĠGeber": 8679,
      "Ġspezielle": 8680,
      "heim": 8681,
      "Ġspending": 8682,
      "Ġanyone": 8683,
      "Ġacts": 8684,
      "Ġassume": 8685,
      "Ġ500": 8686,
      "Ġprotected": 8687,
      "ĠMittelpunkt": 8688,
      "Ġwirklichen": 8689,
      "fÃ¤ll": 8690,
      "Ġzweck": 8691,
      "ĠNachbar": 8692,
      "ĠNachdruck": 8693,
      "ĠangekÃ¼nd": 8694,
      "Ġexamples": 8695,
      "Ġsicherstellen": 8696,
      "ĠFreiz": 8697,
      "ĠOrgane": 8698,
      "Ġpersonally": 8699,
      "Ġimmigrants": 8700,
      "zwungen": 8701,
      "Ġchanged": 8702,
      "ĠGegenstand": 8703,
      "Ġrelease": 8704,
      "Ġrecognition": 8705,
      "Ġlinks": 8706,
      "Ġpotent": 8707,
      "Ġsexual": 8708,
      "Ġvisit": 8709,
      "ĠSerbien": 8710,
      "ĠDenmark": 8711,
      "Ġspielt": 8712,
      "Ġkoh": 8713,
      "Ġinnovation": 8714,
      "Ġirgendein": 8715,
      "Ġcoherent": 8716,
      "Ġtariff": 8717,
      "Ġmobil": 8718,
      "Ġschlimm": 8719,
      "spartei": 8720,
      "ĠSubsidiaritÃ¤t": 8721,
      "Ġmanufacturers": 8722,
      "Ġimplications": 8723,
      "ĠOrdnung": 8724,
      "Ġdecisive": 8725,
      "Ġdemonstrated": 8726,
      "ĠModernisierung": 8727,
      "ĠHÃ¤lfte": 8728,
      "DS": 8729,
      "aust": 8730,
      "bod": 8731,
      "commerce": 8732,
      "eb": 8733,
      "uner": 8734,
      "Ġwom": 8735,
      "lein": 8736,
      "gehens": 8737,
      "ĠBund": 8738,
      "elte": 8739,
      "Ġretain": 8740,
      "olk": 8741,
      "Ġzuletzt": 8742,
      "Ġalten": 8743,
      "Ġverlei": 8744,
      "Ġerarbeitet": 8745,
      "ĠVerring": 8746,
      "ungsbereich": 8747,
      "ĠÃ¼berzeugen": 8748,
      "ĠEinklang": 8749,
      "Ġdisag": 8750,
      "Ġaccounts": 8751,
      "Ġdifference": 8752,
      "ĠGesetze": 8753,
      "Ġwelchen": 8754,
      "program": 8755,
      "Ġ42": 8756,
      "Ġverbind": 8757,
      "Ġrealise": 8758,
      "lemente": 8759,
      "Ġpresence": 8760,
      "Ġgebill": 8761,
      "Ġcapable": 8762,
      "stoffen": 8763,
      "Ġunderstanding": 8764,
      "urteilung": 8765,
      "ĠSocialists": 8766,
      "Ġveget": 8767,
      "Ġfolgende": 8768,
      "Ġvereinbar": 8769,
      "Ġhighlighted": 8770,
      "Ġreconstruction": 8771,
      "Ġcredibility": 8772,
      "Ġimprovements": 8773,
      "Ġfehlt": 8774,
      "Ġundertakings": 8775,
      "Ġherrscht": 8776,
      "ĠSecurity": 8777,
      "Ġexploitation": 8778,
      "ĠStabilitÃ¤tspakt": 8779,
      "ĠFlexibilitÃ¤t": 8780,
      "Ġpermanent": 8781,
      "Ġletztlich": 8782,
      "ĠSwedish": 8783,
      "ĠDringlichkeit": 8784,
      "25": 8785,
      "SA": 8786,
      "det": 8787,
      "mos": 8788,
      "nt": 8789,
      "ints": 8790,
      "itel": 8791,
      "ald": 8792,
      "Ġfu": 8793,
      "ley": 8794,
      "Ã¤umen": 8795,
      "igerung": 8796,
      "ĠShe": 8797,
      "utor": 8798,
      "ĠBen": 8799,
      "ĠBos": 8800,
      "ille": 8801,
      "ĠKind": 8802,
      "Ã¼rf": 8803,
      "ĠHigh": 8804,
      "Ġverlangt": 8805,
      "Ã¤ngt": 8806,
      "Ġexistence": 8807,
      "Ġruss": 8808,
      "ĠTheato": 8809,
      "ĠStunden": 8810,
      "Ġshared": 8811,
      "Ġmechan": 8812,
      "ĠBeisp": 8813,
      "ĠAusbe": 8814,
      "ĠAusarbeitung": 8815,
      "Ġdipl": 8816,
      "lined": 8817,
      "Ġlegally": 8818,
      "ĠKonzept": 8819,
      "Ġmehreren": 8820,
      "Ġsolve": 8821,
      "gebie": 8822,
      "Ġdamals": 8823,
      "Ġ38": 8824,
      "Ġdebating": 8825,
      "reift": 8826,
      "Ġwichtiges": 8827,
      "Ġinvolvement": 8828,
      "wirtschaftung": 8829,
      "ĠgelÃ¶st": 8830,
      "ĠBeseitigung": 8831,
      "ĠProduktion": 8832,
      "ikanen": 8833,
      "Ġnevertheless": 8834,
      "Ġfamilies": 8835,
      "ĠPrinzipien": 8836,
      "Ġclarify": 8837,
      "ĠBelgium": 8838,
      "ĠMÃ¤rkte": 8839,
      "ĠKohÃ¤s": 8840,
      "Ġcounterfeit": 8841,
      "Ġinspection": 8842,
      "ĠTourismus": 8843,
      "vergenz": 8844,
      "Ġextensive": 8845,
      "ĠAndererseits": 8846,
      "ĠBÃ¶sch": 8847,
      "Ġconcentrate": 8848,
      "ĠAktionsplan": 8849,
      "Ġunmittelbar": 8850,
      "ĠStoffe": 8851,
      "Ġuniversal": 8852,
      "Ġhervorgehoben": 8853,
      "ĠYugoslavia": 8854,
      "ĠInnov": 8855,
      "ĠInteroperabilitÃ¤t": 8856,
      "ĠVorsorgeprinzip": 8857,
      "iddle": 8858,
      "ĠZigaretten": 8859,
      "ĠBeispiele": 8860,
      "Ġdiplom": 8861,
      "VP": 8862,
      "ĠtrÃ¤gt": 8863,
      "Ġsides": 8864,
      "ather": 8865,
      "Ġbla": 8866,
      "Ġmach": 8867,
      "Ġunf": 8868,
      "Ġunre": 8869,
      "ĠSÃ¤": 8870,
      "ĠSwo": 8871,
      "ĠMann": 8872,
      "ragt": 8873,
      "ĠBudgets": 8874,
      "ĠKandidaten": 8875,
      "umed": 8876,
      "ĠerÃ¶ff": 8877,
      "ĠNether": 8878,
      "ĠReal": 8879,
      "Ġleiden": 8880,
      "ifteen": 8881,
      "ckung": 8882,
      "ĠAnlagen": 8883,
      "ĠEuropeans": 8884,
      "ĠJa": 8885,
      "ĠJoint": 8886,
      "ĠAusmaÃŁ": 8887,
      "ĠWird": 8888,
      "ĠVorgehens": 8889,
      "Ġgenutzt": 8890,
      "ĠKonvergenz": 8891,
      "Ġsolches": 8892,
      "Ġvieler": 8893,
      "Ġgewissen": 8894,
      "Ġbestimmt": 8895,
      "Ġwichtigste": 8896,
      "Ġapprox": 8897,
      "sucht": 8898,
      "Ã¤ltigen": 8899,
      "ĠHersteller": 8900,
      "Ġopinions": 8901,
      "Ġfollowed": 8902,
      "ĠWettbewerbspolitik": 8903,
      "Ġsecure": 8904,
      "016": 8905,
      "Ġsimpl": 8906,
      "wirkung": 8907,
      "Ġcollective": 8908,
      "ĠMarktes": 8909,
[...]
