{"<pad>": 0, "<s>": 1, "</s>": 2, "<unk>": 3, "<mask>": 4, "!": 5, "$": 6, "%": 7, "&": 8, "(": 9, ")": 10, "+": 11, ",": 12, "-": 13, ".": 14, "/": 15, "0": 16, "1": 17, "2": 18, "3": 19, "4": 20, "5": 21, "6": 22, "7": 23, "8": 24, "9": 25, ":": 26, ";": 27, "?": 28, "A": 29, "B": 30, "C": 31, "D": 32, "E": 33, "F": 34, "G": 35, "H": 36, "I": 37, "J": 38, "K": 39, "L": 40, "M": 41, "N": 42, "O": 43, "P": 44, "Q": 45, "R": 46, "S": 47, "T": 48, "U": 49, "V": 50, "W": 51, "X": 52, "Y": 53, "Z": 54, "[": 55, "]": 56, "a": 57, "b": 58, "c": 59, "d": 60, "e": 61, "f": 62, "g": 63, "h": 64, "i": 65, "j": 66, "k": 67, "l": 68, "m": 69, "n": 70, "o": 71, "p": 72, "q": 73, "r": 74, "s": 75, "t": 76, "u": 77, "v": 78, "w": 79, "x": 80, "y": 81, "z": 82, "\u00a3": 83, "\u00a4": 84, "\u00b6": 85, "\u00bc": 86, "\u00c2": 87, "\u00c3": 88, "\u010a": 89, "\u010d": 90, "\u0120": 91, "\u0126": 92, "\u0138": 93, "\u013e": 94, "\u0141": 95, "en": 96, "er": 97, "\u0120d": 98, "in": 99, "\u0120t": 100, "ch": 101, "\u0120a": 102, "on": 103, "\u0120th": 104, "es": 105, "is": 106, "un": 107, "\u0120w": 108, "it": 109, "\u0120s": 110, "at": 111, "\u010d\u010a": 112, "ie": 113, "\u0120the": 114, "or": 115, "re": 116, "an": 117, "ich": 118, "\u0120b": 119, "ion": 120, "\u0120in": 121, "\u0120o": 122, "\u0120m": 123, "al": 124, "\u0120f": 125, "ar": 126, "ro": 127, "te": 128, "\u0120e": 129, "le": 130, "\u0120p": 131, "ent": 132, "\u0120h": 133, "\u0120n": 134, "\u0120an": 135, "\u0120c": 136, "ge": 137, "ung": 138, "\u0120un": 139, "\u00c3\u00bc": 140, "\u00c3\u00a4": 141, "\u0120die": 142, "\u0120of": 143, "\u0120to": 144, "st": 145, "\u0120der": 146, "\u0120v": 147, "as": 148, "om": 149, "\u0120E": 150, "\u0120be": 151, "ll": 152, "\u0120I": 153, "ur": 154, "ing": 155, "\u0120and": 156, "\u0120A": 157, "us": 158, "\u0120is": 159, "ed": 160, "ir": 161, "\u0120und": 162, "ig": 163, "\u00c3\u0141": 164, "\u0120S": 165, "\u0120z": 166, "\u0120M": 167, "\u0120ein": 168, "ra": 169, "\u0120P": 170, "em": 171, "ic": 172, "\u0120g": 173, "im": 174, "ut": 175, "eit": 176, "icht": 177, "\u0120B": 178, "ies": 179, "el": 180, "\u0120re": 181, "ol": 182, "omm": 183, "\u0120D": 184, "der": 185, "sch": 186, "am": 187, "ten": 188, "ation": 189, "\u0120T": 190, "\u0120W": 191, "ter": 192, "ul": 193, "den": 194, "rop": 195, "lich": 196, "\u0120F": 197, "ve": 198, "il": 199, "ber": 200, "\u0120zu": 201, "ct": 202, "\u0120that": 203, "hr": 204, "gen": 205, "\u0120K": 206, "et": 207, "id": 208, "\u00c3\u00b6": 209, "\u0120wh": 210, "\u0120au": 211, "\u00c3\u00bcr": 212, "\u0120R": 213, "\u0120da": 214, "\u0120l": 215, "isch": 216, "\u0120V": 217, "\u0120k": 218, "\u0120den": 219, "ere": 220, "urop": 221, "\u0120G": 222, "\u0120for": 223, "ot": 224, "\u0120C": 225, "ab": 226, "um": 227, "ly": 228, "\u0120H": 229, "iss": 230, "\u0120wir": 231, "\u0120on": 232, "ein": 233, "res": 234, "\u0120Europ": 235, "\u0120we": 236, "\u0120ge": 237, "ier": 238, "\u0120U": 239, "\u0120al": 240, "\u0120dies": 241, "\u0120so": 242, "\u0120im": 243, "de": 244, "\u0120Th": 245, "os": 246, "ort": 247, "ff": 248, "\u0120da\u00c3\u0141": 249, "ommiss": 250, "\u0120con": 251, "\u0120this": 252, "ce": 253, "\u0120ver": 254, "ver": 255, "\u0120von": 256, "est": 257, "men": 258, "ommission": 259, "\u0120f\u00c3\u00bcr": 260, "\u0120it": 261, "\u0120pro": 262, "\u0120ist": 263, "and": 264, "\u0120er": 265, "ft": 266, "ach": 267, "\u0120are": 268, "\u0120auf": 269, "\u0120st": 270, "kt": 271, "\u0120L": 272, "\u0120ha": 273, "ment": 274, "\u0120as": 275, "\u0120nicht": 276, "ill": 277, "\u0120Un": 278, "\u0120des": 279, "\u0120Ver": 280, "\u0120not": 281, "uld": 282, "\u0120In": 283, "ith": 284, "\u0120das": 285, "ischen": 286, "ould": 287, "\u0120which": 288, "ow": 289, "\u0120de": 290, "ess": 291, "\u0120ne": 292, "\u0120with": 293, "op": 294, "\u0120Z": 295, "ik": 296, "pp": 297, "la": 298, "ust": 299, "ungen": 300, "\u0120have": 301, "her": 302, "ind": 303, "ts": 304, "\u0120wer": 305, "\u0120als": 306, "\u0120N": 307, "tr": 308, "\u0120Europe": 309, "\u0120eine": 310, "\u0120j": 311, "ident": 312, "iv": 313, "\u0120es": 314, "ate": 315, "ive": 316, "for": 317, "\u0120werden": 318, "\u0120dem": 319, "ament": 320, "\u0120se": 321, "\u0120Re": 322, "\u0120Par": 323, "\u00c3\u00a4n": 324, "end": 325, "ak": 326, "\u00c3\u00bcber": 327, "ial": 328, "sp": 329, "\u0120le": 330, "\u0120ex": 331, "\u0120mit": 332, "ens": 333, "if": 334, "qu": 335, "\u0120ich": 336, "\u0120co": 337, "ity": 338, "ay": 339, "ann": 340, "ib": 341, "ant": 342, "lie": 343, "\u0120all": 344, "\u0120r": 345, "\u0120su": 346, "\u0120-": 347, "\u0120will": 348, "\u0120The": 349, "\u0120St": 350, "ne": 351, "\u0120vor": 352, "und": 353, "nen": 354, "we": 355, "ck": 356, "\u0120An": 357, "\u0120auch": 358, "\u0120Parl": 359, "ah": 360, "hal": 361, "\u0120y": 362, "ht": 363, "\u0120uns": 364, "\u0120sich": 365, "00": 366, "aus": 367, "sen": 368, "ungs": 369, "u\u00c3\u0141": 370, "ug": 371, "err": 372, "\u0120by": 373, "\u0120Commission": 374, "ste": 375, "\u0120ab": 376, "\u01201": 377, "och": 378, "igen": 379, "\u0120Mr": 380, "\u0120Union": 381, "\u0120European": 382, "\u0120\u00c3\u00bcber": 383, "\u0120sh": 384, "scha": 385, "pe": 386, "ions": 387, "hen": 388, "\u0120hab": 389, "\u0120res": 390, "\u0120me": 391, "\u0120Fra": 392, "ain": 393, "ern": 394, "ges": 395, "\u0120has": 396, "port": 397, "iel": 398, "\u0120We": 399, "\u0120Herr": 400, "art": 401, "\u0120um": 402, "ted": 403, "\u0120aus": 404, "ad": 405, "\u0120at": 406, "r\u00c3\u00a4": 407, "ben": 408, "uf": 409, "schaft": 410, "\u0120Kommission": 411, "olit": 412, "\u0120or": 413, "ers": 414, "\u0120Be": 415, "\u0120Ich": 416, "\u0120wird": 417, "\u0120En": 418, "ure": 419, "\u0120wie": 420, "ien": 421, "\u0120sind": 422, "uch": 423, "ze": 424, "me": 425, "\u0120do": 426, "\u0120Die": 427, "\u0120hat": 428, "ahr": 429, "\u0120was": 430, "itte": 431, "ist": 432, "\u0120J": 433, "up": 434, "ord": 435, "\u0120sch": 436, "\u0120Aus": 437, "chte": 438, "heit": 439, "etz": 440, "llen": 441, "our": 442, "\u0120Sch": 443, "\u0120Pro": 444, "\u0120Wir": 445, "enn": 446, "\u0120com": 447, "be": 448, "\u0120i": 449, "gr": 450, "\u0120haben": 451, "keit": 452, "\u0120also": 453, "\u0120would": 454, "ische": 455, "\u0120zur": 456, "\u0120Er": 457, "tz": 458, "\u0120Europ\u00c3\u00a4": 459, "\u0120there": 460, "eren": 461, "\u0120\u00c3": 462, "\u0120Vor": 463, "\u0120dar": 464, "lichen": 465, "rom": 466, "\u0120O": 467, "beit": 468, "all": 469, "\u0120Ber": 470, "ue": 471, "ise": 472, "\u0120reg": 473, "\u0120Ar": 474, "\u0120sie": 475, "\u0120m\u00c3\u00b6": 476, "ese": 477, "ect": 478, "ard": 479, "se": 480, "99": 481, "\u0120should": 482, "gt": 483, "\u0120man": 484, "\u0120Ab": 485, "ous": 486, "\u0120Pres": 487, "\u0120he": 488, "r\u00c3\u00a4s": 489, "dern": 490, "\u0120ent": 491, "ember": 492, "ates": 493, "ige": 494, "\u0120di": 495, "ran": 496, "\u0120sein": 497, "aten": 498, "ations": 499, "\u01202": 500, "r\u00c3\u00a4sident": 501, "esch": 502, "\u0120wor": 503, "\u0120inter": 504, "\u0120our": 505, "\u0120ag": 506, "\u00c3\u00b6n": 507, "ert": 508, "\u0120Ent": 509, "\u0120must": 510, "\u0120am": 511, "cht": 512, "od": 513, "ou": 514, "ational": 515, "\u0120ad": 516, "\u0120President": 517, "du": 518, "urch": 519, "ther": 520, "\u0120fa": 521, "\u00c3\u00a4r": 522, "th": 523, "\u0120en": 524, "ical": 525, "\u0120from": 526, "\u0120einer": 527, "lem": 528, "iament": 529, "\u0120qu": 530, "\u0120Parlament": 531, "\u0120diese": 532, "\u0120but": 533, "ip": 534, "\u0120unter": 535, "\u00c3\u00bcs": 536, "ud": 537, "cial": 538, "ick": 539, "able": 540, "\u0120us": 541, "ore": 542, "oun": 543, "\u00c3\u00a4t": 544, "\u0120bei": 545, "ition": 546, "ommen": 547, "\u0120Mit": 548, "ult": 549, "\u0120part": 550, "\u0120Bericht": 551, "\u0120Pr\u00c3\u00a4sident": 552, "age": 553, "out": 554, "form": 555, "ake": 556, "\u0120been": 557, "\u0120prop": 558, "\u0120It": 559, "rit": 560, "\u0120Ein": 561, "\u0120nach": 562, "\u0120app": 563, "\u0120comm": 564, "ok": 565, "anz": 566, "\u00c3\u00bchr": 567, "ang": 568, "ast": 569, "\u0120Sie": 570, "\u0120coun": 571, "\u0120ch": 572, "\u0120Gr": 573, "igh": 574, "\u0120k\u00c3\u00b6n": 575, "\u0120Parliament": 576, "\u0120dis": 577, "gra": 578, "ction": 579, "\u00c3\u00bcn": 580, "vel": 581, "\u0120dieser": 582, "\u0120comp": 583, "\u0120sa": 584, "ution": 585, "cc": 586, "ub": 587, "imm": 588, "\u0120go": 589, "ute": 590, "\u0120can": 591, "\u0120you": 592, "\u0120Member": 593, "ome": 594, "ary": 595, "elt": 596, "con": 597, "\u0120m\u00c3\u00b6chte": 598, "\u0120bet": 599, "\u0120po": 600, "olle": 601, "chen": 602, "liche": 603, "\u00c3\u00b6r": 604, "\u0120Ge": 605, "\u00c3\u00bcssen": 606, "\u0120countr": 607, "\u0120ob": 608, "\u0120einen": 609, "\u0120report": 610, "mp": 611, "ass": 612, "ank": 613, "iz": 614, "\u0120ste": 615, "\u0120durch": 616, "\u0120its": 617, "ear": 618, "ish": 619, "ru": 620, "ierung": 621, "\u0120Europ\u00c3\u00a4ischen": 622, "\u0120m\u00c3\u00bcssen": 623, "ieren": 624, "sta": 625, "\u0120pos": 626, "glie": 627, "reat": 628, "\u0120gro": 629, "\u0120noch": 630, "\u0120EU": 631, "\u0120mu\u00c3\u0141": 632, "og": 633, "\u0120This": 634, "\u0120propos": 635, "ger": 636, "ike": 637, "oc": 638, "\u0120inc": 639, "hl": 640, "lin": 641, "\u0120pr": 642, "ight": 643, "\u0120more": 644, "zu": 645, "\u0120polit": 646, "cil": 647, "\u0120soll": 648, "\u0120kann": 649, "\u0120mein": 650, "rag": 651, "\u0120gen": 652, "nah": 653, "\u0120like": 654, "ely": 655, "mer": 656, "ms": 657, "\u0120zw": 658, "pt": 659, "\u0120these": 660, "\u0120conc": 661, "ally": 662, "\u0120Reg": 663, "\u0120spe": 664, "\u0120cons": 665, "he": 666, "fen": 667, "\u0120nur": 668, "\u0120zum": 669, "\u0120ber": 670, "\u0120Es": 671, "\u0120fin": 672, "\u0120diesem": 673, "\u0120(": 674, "\u0120Mitglie": 675, "\u0120need": 676, "\u0120ma": 677, "lo": 678, "\u0120imp": 679, "\u0120Frau": 680, "oll": 681, "ance": 682, "olic": 683, "blem": 684, "ose": 685, "fore": 686, "\u0120jed": 687, "gan": 688, "ress": 689, "\u0120k\u00c3\u00b6nnen": 690, "\u0120wur": 691, "\u0120pre": 692, "sten": 693, "\u0120Das": 694, "\u00c3\u00bcck": 695, "\u0120ih": 696, "igkeit": 697, "a\u00c3\u0141": 698, "\u0120ra": 699, "gram": 700, "rie": 701, "yste": 702, "\u0120other": 703, "glich": 704, "\u0120bec": 705, "ktion": 706, "schen": 707, "uss": 708, "\u0120wenn": 709, "hmen": 710, "ime": 711, "\u0120bes": 712, "\u0120oder": 713, "ments": 714, "\u0120kein": 715, "\u0120cont": 716, "\u0120aber": 717, "\u0120who": 718, "\u0120te": 719, "\u0120sp": 720, "\u0120Coun": 721, "\u0120very": 722, "\u0120Comm": 723, "\u0120their": 724, "ffen": 725, "wer": 726, "ider": 727, "\u0120Council": 728, "\u0120no": 729, "sam": 730, "ap": 731, "olitik": 732, "\u0120int": 733, "iert": 734, "tschaft": 735, "ced": 736, "\u0120polic": 737, "\u0120pe": 738, "wo": 739, "\u0120import": 740, "\u0120States": 741, "\u0120Mitglied": 742, "000": 743, "ke": 744, "ative": 745, "\u0120they": 746, "are": 747, "sicht": 748, "\u0120ges": 749, "wick": 750, "\u0120weit": 751, "ause": 752, "lic": 753, "ag": 754, "ject": 755, "ittel": 756, "au": 757, "\u0120one": 758, "rat": 759, "ide": 760, "lie\u00c3\u0141": 761, "\u0120war": 762, "reich": 763, "\u0120gegen": 764, "sib": 765, "\u0120work": 766, "stit": 767, "ark": 768, "ement": 769, "pport": 770, "\u0120what": 771, "\u0120up": 772, "\u0120Arbeit": 773, "lung": 774, "ention": 775, "\u0120countries": 776, "\u0120sehr": 777, "one": 778, "\u0120exp": 779, "\u00c3\u00a4hr": 780, "\u0120\u00c3\u0126": 781, "erv": 782, "rect": 783, "\u0120out": 784, "\u0120199": 785, "\u0120leg": 786, "ammen": 787, "ious": 788, "\u0120ihr": 789, "\u0120about": 790, "urop\u00c3\u00a4": 791, "leich": 792, "\u0120Jahr": 793, "ri": 794, "velop": 795, "usammen": 796, "\u0120hin": 797, "\u0120Men": 798, "\u0120my": 799, "\u0120Kon": 800, "ugh": 801, "\u0120eff": 802, "\u0120Mitgliedsta": 803, "\u0120wo": 804, "ink": 805, "teil": 806, "mend": 807, "f\u00c3\u00bchr": 808, "che": 809, "utz": 810, "\u0120if": 811, "ated": 812, "\u0120Dies": 813, "\u0120Unter": 814, "\u0120mo": 815, "\u0120De": 816, "erst": 817, "nung": 818, "\u0120Vorsch": 819, "\u0120year": 820, "atter": 821, "\u0120acc": 822, "\u0120einem": 823, "\u0120europ\u00c3\u00a4": 824, "\u0120iss": 825, "\u0120only": 826, "\u0120new": 827, "\u00c3\u00a4nd": 828, "ring": 829, "\u0120dieses": 830, "\u0120ind": 831, "ice": 832, "\u0120dec": 833, "ights": 834, "int": 835, "cess": 836, "cy": 837, "auf": 838, "ign": 839, "itu": 840, "assen": 841, "\u0120Menschen": 842, "ities": 843, "\u0120any": 844, "\u0120hier": 845, "\u0120develop": 846, "ople": 847, "\u00c3\u00bctz": 848, "\u0120unser": 849, "\u0120ev": 850, "bar": 851, "mein": 852, "nder": 853, "onder": 854, "ase": 855, "\u0120because": 856, "ility": 857, "\u0120proposal": 858, "ever": 859, "\u0120op": 860, "\u0120Rat": 861, "\u0120\u00c3\u0126nder": 862, "arbeit": 863, "\u0120Kolle": 864, "ong": 865, "ces": 866, "\u0120For": 867, "etzt": 868, "fe": 869, "iven": 870, "it\u00c3\u00a4t": 871, "fahr": 872, "ism": 873, "l\u00c3\u00a4": 874, "\u0120tra": 875, "wend": 876, "chn": 877, "lear": 878, "\u00c3\u00a4nder": 879, "\u0120alle": 880, "ren": 881, "\u0120mehr": 882, "tern": 883, "\u0120partic": 884, "halb": 885, "conom": 886, "lan": 887, "\u0120Mitgliedstaaten": 888, "\u0120Um": 889, "\u0120wicht": 890, "\u0120sol": 891, "\u0120Grund": 892, "\u0120concern": 893, "ree": 894, "igt": 895, "\u0120time": 896, "tet": 897, "ibt": 898, "\u0120important": 899, "\u0120Der": 900, "\u0120Auf": 901, "i\u00c3\u0141": 902, "tre": 903, "ahl": 904, "irst": 905, "\u0120people": 906, "\u0120bereit": 907, "\u0120again": 908, "\u0120intern": 909, "\u0120national": 910, "\u0120per": 911, "\u0120fe": 912, "\u0120sub": 913, "\u0120Entwick": 914, "\u0120act": 915, "ular": 916, "\u0120Le": 917, "\u0120policy": 918, "unity": 919, "geb": 920, "wir": 921, "uman": 922, "xt": 923, "ild": 924, "\u0120dam": 925, "llt": 926, "sche": 927, "fl": 928, "\u0120just": 929, "ittee": 930, "\u0120So": 931, "lag": 932, "alt": 933, "\u0120wurde": 934, "ystem": 935, "los": 936, "\u0120fact": 937, "\u0120quest": 938, "ia": 939, "\u0120therefore": 940, "\u0120tran": 941, "chts": 942, "mal": 943, "\u0120vie": 944, "\u0120Verb": 945, "lar": 946, "\u0120direct": 947, "\u0120Ch": 948, "halten": 949, "land": 950, "\u0120Richt": 951, "wor": 952, "tr\u00c3\u00a4": 953, "\u0120some": 954, "ings": 955, "iden": 956, "\u0120prov": 957, "ituation": 958, "\u0120ihre": 959, "ote": 960, "ite": 961, "\u0120inv": 962, "ner": 963, "\u0120Frage": 964, "ures": 965, "\u0120Gem": 966, "\u0120kon": 967, "\u0120support": 968, "\u0120now": 969, "lle": 970, "ives": 971, "\u01203": 972, "\u0120take": 973, "amp": 974, "\u0120ins": 975, "nahmen": 976, "\u0120deb": 977, "pect": 978, "unkt": 979, "resent": 980, "\u0120into": 981, "ied": 982, "\u0120Zusammen": 983, "ack": 984, "schlie\u00c3\u0141": 985, "\u0120Te": 986, "ire": 987, "kommen": 988, "ine": 989, "erung": 990, "\u0120say": 991, "fr": 992, "\u0120rec": 993, "\u0120problem": 994, "\u0120Art": 995, "fol": 996, "\u0120econom": 997, "isation": 998, "owever": 999, "\u0120Gemein": 1000, "zial": 1001, "\u0120Europa": 1002, "\u0120Se": 1003, "\u0120make": 1004, "vern": 1005, "\u0120disc": 1006, "now": 1007, "\u0120such": 1008, "pon": 1009, "\u0120diff": 1010, "ific": 1011, "\u0120\u00c3\u013e": 1012, "gel": 1013, "legen": 1014, "\u0120produ": 1015, "hand": 1016, "\u0120viel": 1017, "\u0120particular": 1018, "\u0120son": 1019, "rauch": 1020, "iti": 1021, "igung": 1022, "ken": 1023, "ors": 1024, "ans": 1025, "\u0120As": 1026, "ument": 1027, "\u0120Ma\u00c3\u0141": 1028, "\u0120clear": 1029, "\u0120way": 1030, "\u0120Europ\u00c3\u00a4ische": 1031, "ry": 1032, "led": 1033, "\u0120\u00c3\u013eber": 1034, "nehmen": 1035, "f\u00c3\u00bcr": 1036, "ov": 1037, "st\u00c3\u00bctz": 1038, "mit": 1039, "wie": 1040, "ame": 1041, "\u0120gew": 1042, "\u00c3\u00a4ch": 1043, "\u0120Zeit": 1044, "olog": 1045, "\u0120rights": 1046, "\u0120rel": 1047, "\u0120\u00c3\u0126nderungs": 1048, "\u0120human": 1049, "\u0120gr": 1050, "ween": 1051, "\u0120being": 1052, "\u0120when": 1053, "h\u00c3\u00b6r": 1054, "\u0120between": 1055, "iger": 1056, "\u0120Fin": 1057, "ision": 1058, "\u0120bas": 1059, "\u0120amend": 1060, "\u0120diesen": 1061, "\u0120ref": 1062, "get": 1063, "\u0120jedoch": 1064, "zie": 1065, "kte": 1066, "ty": 1067, "ual": 1068, "\u0120gibt": 1069, "\u0120tak": 1070, "\u0120made": 1071, "\u0120sondern": 1072, "\u0120best": 1073, "forder": 1074, "atz": 1075, "ues": 1076, "leg": 1077, "\u0120first": 1078, "stitution": 1079, "sible": 1080, "formation": 1081, "issen": 1082, "ob": 1083, "ural": 1084, "\u0120than": 1085, "\u0120Aussch": 1086, "\u0120mark": 1087, "eration": 1088, "zeit": 1089, "ereich": 1090, "\u0120mich": 1091, "\u0120political": 1092, "hn": 1093, "\u0120know": 1094, "\u0120off": 1095, "iff": 1096, "bst": 1097, "\u0120regard": 1098, "\u0120eines": 1099, "\u0120Ih": 1100, "gin": 1101, "\u0120denn": 1102, "linie": 1103, "ange": 1104, "\u0120emp": 1105, "\u0120them": 1106, "\u0120damit": 1107, "\u0120Herrn": 1108, "tw": 1109, "\u0120dann": 1110, "weise": 1111, "\u0120ar": 1112, "\u0120those": 1113, "\u0120add": 1114, "\u0120gro\u00c3\u0141": 1115, "isten": 1116, "icher": 1117, "halt": 1118, "cept": 1119, "\u0120over": 1120, "\u0120pla": 1121, "\u0120str": 1122, "\u0120were": 1123, "\u0120Mein": 1124, "uen": 1125, "rei": 1126, "\u0120zwischen": 1127, "\u0120rep": 1128, "enz": 1129, "\u0120Bereich": 1130, "\u0120Ges": 1131, "day": 1132, "\u0120Bed": 1133, "\u0120keine": 1134, "\u0120wel": 1135, "\u0120consider": 1136, "\u0120think": 1137, "ordnung": 1138, "str": 1139, "\u0120Haus": 1140, "\u0120Land": 1141, "\u0120anderen": 1142, "isk": 1143, "ertain": 1144, "weit": 1145, "els": 1146, "erd": 1147, "\u0120bereits": 1148, "\u0120agre": 1149, "\u0120einz": 1150, "acht": 1151, "\u0120ganz": 1152, "wn": 1153, "\u0120under": 1154, "ised": 1155, "\u0120requ": 1156, "\u0120respon": 1157, "elbst": 1158, "ublic": 1159, "esch\u00c3\u00a4": 1160, "ett": 1161, "\u0120international": 1162, "tro": 1163, "\u0120heute": 1164, "\u0120question": 1165, "\u0120Commissioner": 1166, "\u0120social": 1167, "ater": 1168, "imin": 1169, "\u0120ass": 1170, "\u0120europ\u00c3\u00a4ischen": 1171, "geord": 1172, "\u0120issue": 1173, "\u0120within": 1174, "\u0120market": 1175, "\u0120Entwicklung": 1176, "\u0120point": 1177, "\u0120habe": 1178, "ld": 1179, "\u0120ac": 1180, "geordne": 1181, "ats": 1182, "ating": 1183, "\u0120gemein": 1184, "gend": 1185, "\u0120where": 1186, "ha": 1187, "\u0120end": 1188, "\u0120sowie": 1189, "\u0120unsere": 1190, "pr": 1191, "\u0120nat": 1192, "\u0120Sta": 1193, "\u0120great": 1194, "\u0120rem": 1195, "uro": 1196, "\u0120ro": 1197, "sel": 1198, "chten": 1199, "fall": 1200, "\u00c3\u00a4l": 1201, "isen": 1202, "\u0120Committee": 1203, "\u0120Ste": 1204, "\u0120ho": 1205, "iron": 1206, "\u0120w\u00c3\u00bcr": 1207, "lagen": 1208, "\u0120fund": 1209, "\u0120stat": 1210, "\u0120see": 1211, "\u0120cour": 1212, "read": 1213, "\u0120many": 1214, "ient": 1215, "\u0120Rechts": 1216, "ionen": 1217, "\u0120belie": 1218, "ragen": 1219, "rechen": 1220, "\u0120B\u00c3\u00bcr": 1221, "\u0120program": 1222, "ene": 1223, "enden": 1224, "\u0120fest": 1225, "ateg": 1226, "inc": 1227, "fin": 1228, "hin": 1229, "\u00c3\u00a4ndern": 1230, "esch\u00c3\u00a4ft": 1231, "icult": 1232, "lement": 1233, "viron": 1234, "\u0120geht": 1235, "very": 1236, "achen": 1237, "ved": 1238, "\u0120right": 1239, "\u0120Parlaments": 1240, "\u0120does": 1241, "vironment": 1242, "inis": 1243, "\u0120weil": 1244, "\u0120beste": 1245, "\u0120Con": 1246, "\u0120Abgeordne": 1247, "\u0120years": 1248, "isl": 1249, "\u0120certain": 1250, "\u0120la": 1251, "pro": 1252, "ulation": 1253, "loy": 1254, "amen": 1255, "\u0120Mrs": 1256, "ile": 1257, "entlich": 1258, "\u0120development": 1259, "\u01204": 1260, "\u0120weiter": 1261, "\u0120Ma\u00c3\u0141nahmen": 1262, "welt": 1263, "\u0120Vorschlag": 1264, "st\u00c3\u00a4nd": 1265, "\u0120directive": 1266, "\u0120cann": 1267, "erein": 1268, "setz": 1269, "\u0120far": 1270, "\u0120cannot": 1271, "feren": 1272, "\u0120want": 1273, "\u0120fre": 1274, "nis": 1275, "\u0120her": 1276, "ope": 1277, "act": 1278, "\u0120hand": 1279, "\u0120Inter": 1280, "\u01205": 1281, "mittel": 1282, "ional": 1283, "\u0120order": 1284, "\u0120Richtlinie": 1285, "ull": 1286, "\u0120debate": 1287, "arkt": 1288, "entr": 1289, "\u0120even": 1290, "\u0120Str": 1291, "\u0120meas": 1292, "rimin": 1293, "\u0120Community": 1294, "\u0120could": 1295, "\u0120effect": 1296, "icherheit": 1297, "llung": 1298, "vention": 1299, "\u0120dra": 1300, "ward": 1301, "itz": 1302, "\u0120against": 1303, "piel": 1304, "\u0120here": 1305, "\u0120Wh": 1306, "\u0120prote": 1307, "stimm": 1308, "\u0120Ko": 1309, "\u0120bis": 1310, "\u0120wieder": 1311, "\u0120lie": 1312, "\u0120There": 1313, "\u0120adop": 1314, "\u0120matter": 1315, "kehr": 1316, "\u0120incl": 1317, "schie": 1318, "f\u00c3\u00bc": 1319, "\u0120resol": 1320, "gesch": 1321, "\u0120sollten": 1322, "\u0120wichtig": 1323, "oth": 1324, "ac": 1325, "\u0120denen": 1326, "\u0120darauf": 1327, "ving": 1328, "\u0120Mittel": 1329, "les": 1330, "\u0120Gemeinschaft": 1331, "hne": 1332, "nahme": 1333, "\u0120unserer": 1334, "vernment": 1335, "\u0120wirk": 1336, "\u0120system": 1337, "orte": 1338, "\u0120Kollegen": 1339, "fahren": 1340, "kl": 1341, "vor": 1342, "\u0120techn": 1343, "\u0120appro": 1344, "\u0120Al": 1345, "\u0120believe": 1346, "\u0120Gro": 1347, "ahmen": 1348, "\u0120Kommiss": 1349, "\u0120finan": 1350, "\u0120aut": 1351, "ffe": 1352, "\u0120Wie": 1353, "\u0120legisl": 1354, "\u0120economic": 1355, "\u0120allem": 1356, "\u0120Da": 1357, "\u0120Rahmen": 1358, "\u0120view": 1359, "ready": 1360, "ough": 1361, "erson": 1362, "\u0120ger": 1363, "\u0120ask": 1364, "\u0120too": 1365, "\u0120discuss": 1366, "\u0120two": 1367, "richt": 1368, "\u0120already": 1369, "\u0120level": 1370, "eth": 1371, "udget": 1372, "\u0120vote": 1373, "\u0120doch": 1374, "\u0120Me": 1375, "geben": 1376, "f\u00c3\u00a4": 1377, "ict": 1378, "iber": 1379, "\u0120immer": 1380, "\u0120your": 1381, "\u0120same": 1382, "\u0120mir": 1383, "\u0120hal": 1384, "\u0120Kommissar": 1385, "\u0120most": 1386, "bens": 1387, "\u0120public": 1388, "\u0120ens": 1389, "\u0120etw": 1390, "\u0120well": 1391, "isse": 1392, "gab": 1393, "\u00c3\u00b6glich": 1394, "\u0120agreement": 1395, "\u00c3\u00a4\u00c3\u0141": 1396, "\u0120zwe": 1397, "\u0120sollte": 1398, "gehen": 1399, "\u0120environment": 1400, "\u0120par": 1401, "utions": 1402, "incip": 1403, "\u0120selbst": 1404, "\u0120princip": 1405, "\u0120daf\u00c3\u00bcr": 1406, "\u0120sagen": 1407, "tr\u00c3\u00a4ge": 1408, "itiative": 1409, "\u0120every": 1410, "\u0120Geb": 1411, "ss": 1412, "itiz": 1413, "\u0120Hin": 1414, "\u0120mon": 1415, "\u0120course": 1416, "cted": 1417, "\u0120letz": 1418, "ischer": 1419, "kon": 1420, "\u0120had": 1421, "\u0120gemeinsam": 1422, "ds": 1423, "\u0120incre": 1424, "\u0120spec": 1425, "\u0120situation": 1426, "\u0120Wenn": 1427, "\u0120Umwelt": 1428, "\u0120good": 1429, "\u0120then": 1430, "\u0120sozial": 1431, "essen": 1432, "\u0120fo": 1433, "\u0120Nach": 1434, "\u0120Wirtschaft": 1435, "\u0120B\u00c3\u00bcrger": 1436, "ian": 1437, "\u0120bin": 1438, "\u0120hel": 1439, "\u0120ange": 1440, "trag": 1441, "rechte": 1442, "\u0120gu": 1443, "\u0120gleich": 1444, "ade": 1445, "isierung": 1446, "\u0120sc": 1447, "ory": 1448, "\u0120own": 1449, "\u0120vom": 1450, "\u0120conf": 1451, "\u0120verb": 1452, "\u0120possible": 1453, "\u00c3\u00a4re": 1454, "inn": 1455, "eral": 1456, "bes": 1457, "\u0120bring": 1458, "\u0120Zu": 1459, "lish": 1460, "\u0120Ziel": 1461, "\u0120Fraktion": 1462, "ondere": 1463, "\u0120much": 1464, "lage": 1465, "\u0120examp": 1466, "\u0120process": 1467, "ority": 1468, "\u0120today": 1469, "\u0120Politik": 1470, "okrat": 1471, "scheid": 1472, "\u0120may": 1473, "\u0120present": 1474, "\u0120Ha": 1475, "ritt": 1476, "\u0120still": 1477, "\u0120real": 1478, "\u0120citiz": 1479, "\u0120Them": 1480, "\u0120Problem": 1481, "ited": 1482, "uer": 1483, "2000": 1484, "satz": 1485, "\u01202000": 1486, "\u0120Im": 1487, "lemen": 1488, "\u0120use": 1489, "ster": 1490, "cond": 1491, "\u00c3\u00b6s": 1492, "ispiel": 1493, "\u0120lo": 1494, "\u0120Sp": 1495, "\u0120ihrer": 1496, "\u0120ser": 1497, "\u0120said": 1498, "\u00c3\u00a4m": 1499, "ages": 1500, "ently": 1501, "\u0120measures": 1502, "\u0120ter": 1503, "\u0120country": 1504, "\u0120Euro": 1505, "\u0120num": 1506, "\u0120cur": 1507, "operation": 1508, "\u0120ele": 1509, "\u0120hope": 1510, "\u0120However": 1511, "\u0120aid": 1512, "\u0120common": 1513, "ful": 1514, "\u0120thro": 1515, "\u0120contin": 1516, "\u0120fra": 1517, "\u0120high": 1518, "ason": 1519, "such": 1520, "\u0120meine": 1521, "\u0120Ihnen": 1522, "punkt": 1523, "ves": 1524, "\u0120Dem": 1525, "\u0120his": 1526, "hil": 1527, "wort": 1528, "\u0120gesch": 1529, "bat": 1530, "\u0120transp": 1531, "\u0120wen": 1532, "\u0120serv": 1533, "\u0120case": 1534, "\u00c3\u00bc\u00c3\u0141": 1535, "\u0120wurden": 1536, "arge": 1537, "io": 1538, "ting": 1539, "\u0120\u00c3\u00b6": 1540, "\u0120how": 1541, "\u0120jetzt": 1542, "\u0120respect": 1543, "\u0120Or": 1544, "way": 1545, "red": 1546, "\u0120That": 1547, "gangen": 1548, "\u0120area": 1549, "\u0120Diese": 1550, "reit": 1551, "\u0120taken": 1552, "\u0120put": 1553, "\u0120Program": 1554, "work": 1555, "\u00c3\u00bcrlich": 1556, "\u0120fut": 1557, "\u0120last": 1558, "lu\u00c3\u0141": 1559, "\u0120L\u00c3\u00a4nder": 1560, "alk": 1561, "\u00c3\u00bchren": 1562, "halts": 1563, "zeug": 1564, "chie": 1565, "erstatter": 1566, "\u00c3\u00b6l": 1567, "\u0120dazu": 1568, "\u0120future": 1569, "vers": 1570, "\u00c3\u00a4lt": 1571, "\u0120example": 1572, "antrag": 1573, "\u0120able": 1574, "\u0120budget": 1575, "\u0120organ": 1576, "\u0120reason": 1577, "\u0120Her": 1578, "ruck": 1579, "iberal": 1580, "zus": 1581, "erg": 1582, "bei": 1583, "omen": 1584, "\u0120position": 1585, "stru": 1586, "\u0120wollen": 1587, "\u00c3\u00b6glichkeit": 1588, "\u0120pra": 1589, "\u0120nun": 1590, "ail": 1591, "\u0120interest": 1592, "trib": 1593, "\u0120through": 1594, "\u0120object": 1595, "\u0120posit": 1596, "\u0120bez": 1597, "genommen": 1598, "orteur": 1599, "\u0120est": 1600, "pporteur": 1601, "\u0120unterst\u00c3\u00bctz": 1602, "\u0120citizens": 1603, "\u0120Des": 1604, "ically": 1605, "\u0120group": 1606, "antwort": 1607, "\u0120att": 1608, "\u0120Berichterstatter": 1609, "\u0120amendments": 1610, "\u0120ohne": 1611, "wohl": 1612, "\u0120both": 1613, "\u0120car": 1614, "\u0120financial": 1615, "\u0120invol": 1616, "\u0120find": 1617, "\u0120einige": 1618, "schieden": 1619, "arm": 1620, "aking": 1621, "\u01201999": 1622, "\u0120Finanz": 1623, "\u0120information": 1624, "ability": 1625, "kl\u00c3\u00a4r": 1626, "\u0120number": 1627, "\u0120w\u00c3\u00bcrde": 1628, "\u0120m\u00c3\u00b6glich": 1629, "\u0120But": 1630, "loyment": 1631, "uring": 1632, "\u0120neuen": 1633, "\u0120rapporteur": 1634, "tend": 1635, "\u0120why": 1636, "\u0120ausge": 1637, "\u0120schon": 1638, "\u0120Q": 1639, "\u0120Sicherheit": 1640, "ices": 1641, "\u0120Verein": 1642, "ouse": 1643, "\u0120areas": 1644, "\u0120achie": 1645, "ph": 1646, "\u0120\u00c3\u0126nderungsan": 1647, "\u0120auth": 1648, "\u0120Abstimm": 1649, "besondere": 1650, "it\u00c3\u00a4": 1651, "\u0120Au": 1652, "\u0120Mon": 1653, "\u0120get": 1654, "omp": 1655, "\u0120thank": 1656, "tellt": 1657, "\u0120legal": 1658, "fung": 1659, "\u0120action": 1660, "immt": 1661, "\u0120If": 1662, "gese": 1663, "\u0120prev": 1664, "fra": 1665, "\u0120stand": 1666, "heiten": 1667, "\u0120meiner": 1668, "\u0120Jahren": 1669, "\u00c3\u00b6\u00c3\u0141": 1670, "\u0120neg": 1671, "zeich": 1672, "\u0120ensure": 1673, "derung": 1674, "\u0120Fl": 1675, "\u0120compet": 1676, "\u0120.": 1677, "ital": 1678, "urther": 1679, "ential": 1680, "licher": 1681, "\u0120necess": 1682, "ince": 1683, "\u0120opin": 1684, "\u0120\u00c3\u0138": 1685, "werb": 1686, "\u0120Group": 1687, "\u0120begr": 1688, "eln": 1689, "alth": 1690, "reichen": 1691, "air": 1692, "gest": 1693, "\u0120Y": 1694, "dem": 1695, "ablish": 1696, "\u0120tun": 1697, "\u0120maj": 1698, "\u0120som": 1699, "\u0120tr": 1700, "politik": 1701, "\u00c3\u00a4tz": 1702, "unden": 1703, "stellen": 1704, "\u0120k\u00c3\u00b6nn": 1705, "ether": 1706, "\u0120200": 1707, "ount": 1708, "\u0120place": 1709, "\u0120Entschlie\u00c3\u0141": 1710, "tegr": 1711, "\u0120Beit": 1712, "\u0120cooperation": 1713, "\u0120Ausschu\u00c3\u0141": 1714, "inister": 1715, "\u0120allen": 1716, "\u0120Gebie": 1717, "ble": 1718, "\u0120einmal": 1719, "\u0120Bei": 1720, "\u0120differ": 1721, "\u0120democ": 1722, "\u0120Fragen": 1723, "\u0120insbesondere": 1724, "\u0120etwas": 1725, "ret": 1726, "\u0120Afr": 1727, "ismus": 1728, "ekt": 1729, "ktur": 1730, "\u0120neue": 1731, "\u00c3\u00a4ng": 1732, "\u01206": 1733, "\u0120Kos": 1734, "\u0120long": 1735, "\u0120wissen": 1736, "\u0120w\u00c3\u00a4re": 1737, "\u0120andere": 1738, "affen": 1739, "\u0120Fall": 1740, "\u0120main": 1741, "ierungs": 1742, "\u0120means": 1743, "\u0120establish": 1744, "assung": 1745, "\u0120Namen": 1746, "grund": 1747, "\u0120Kosov": 1748, "ost": 1749, "\u0120sim": 1750, "ften": 1751, "\u0120given": 1752, "\u0120besch": 1753, "immen": 1754, "\u0120law": 1755, "\u0120All": 1756, "\u0120Entscheid": 1757, "\u0120Teil": 1758, "fer": 1759, "\u00c3\u00a4mp": 1760, "\u0120gla": 1761, "\u0120sicher": 1762, "own": 1763, "\u0120ur": 1764, "\u0120particularly": 1765, "aff": 1766, "\u0120full": 1767, "igten": 1768, "\u0120form": 1769, "deut": 1770, "\u0120world": 1771, "\u0120set": 1772, "\u0120proced": 1773, "w\u00c3\u00a4": 1774, "unft": 1775, "\u00c3\u00a4u\u00c3\u0141": 1776, "\u0120Fre": 1777, "\u0120entsp": 1778, "r\u00c3\u00bc": 1779, "\u0120gut": 1780, "\u0120Bet": 1781, "ollow": 1782, "\u0120includ": 1783, "\u0120indust": 1784, "\u0120problems": 1785, "ettbe": 1786, "\u0120dank": 1787, "inder": 1788, "\u0120gest": 1789, "ium": 1790, "\u0120Treat": 1791, "\u0120trans": 1792, "lossen": 1793, "\u0120mor": 1794, "\u0120before": 1795, "bal": 1796, "\u0120Hand": 1797, "\u0120notwend": 1798, "\u0120Recht": 1799, "kunft": 1800, "\u0120machen": 1801, "ettbewerb": 1802, "\u0120House": 1803, "ppen": 1804, "\u0120rat": 1805, "falls": 1806, "\u0120Arbeits": 1807, "\u0120opinion": 1808, "\u0120without": 1809, "lichkeit": 1810, "\u0120Members": 1811, "\u0120Kosovo": 1812, "orities": 1813, "\u0120seine": 1814, "\u0120Zusammenarbeit": 1815, "\u0120resolution": 1816, "nisse": 1817, "\u0120allow": 1818, "\u00c3\u00b6lk": 1819, "\u01208": 1820, "gele": 1821, "\u0120necessary": 1822, "lungs": 1823, "ality": 1824, "\u0120M\u00c3\u00b6glichkeit": 1825, "ace": 1826, "usses": 1827, "agt": 1828, "tra": 1829, "\u0120Verbrauch": 1830, "\u0120however": 1831, "\u0120wirtschaft": 1832, "wirtschaft": 1833, "entral": 1834, "\u0120reform": 1835, "\u0120Stand": 1836, "\u0120implement": 1837, "fter": 1838, "m\u00c3\u00a4\u00c3\u0141": 1839, "ately": 1840, "\u0120ke": 1841, "\u0120worden": 1842, "\u0120follow": 1843, "\u0120Was": 1844, "elf": 1845, "ichts": 1846, "\u0120betr": 1847, "\u0120sect": 1848, "stan": 1849, "\u0120express": 1850, "cing": 1851, "annt": 1852, "ible": 1853, "tens": 1854, "\u0120curr": 1855, "f\u00c3\u00bchrt": 1856, "\u0120%": 1857, "\u0120bek": 1858, "half": 1859, "\u0120zwar": 1860, "\u0120require": 1861, "ortug": 1862, "\u0120Meinung": 1863, "\u0120give": 1864, "\u0120impro": 1865, "hang": 1866, "\u0120behalf": 1867, "ird": 1868, "\u0120Welt": 1869, "\u0120Schutz": 1870, "zip": 1871, "\u0120No": 1872, "\u0120issues": 1873, "\u0120redu": 1874, "\u0120He": 1875, "\u0120protection": 1876, "von": 1877, "\u0120Debat": 1878, "walt": 1879, "\u0120different": 1880, "ys": 1881, "\u0120whether": 1882, "illion": 1883, "\u0120zwei": 1884, "\u01207": 1885, "llschaft": 1886, "\u0120klar": 1887, "\u0120Abgeordneten": 1888, "\u0120Artik": 1889, "\u0120Haushalts": 1890, "\u0120serious": 1891, "spro": 1892, "\u0120concerned": 1893, "\u0120nat\u00c3\u00bcrlich": 1894, "\u0120programme": 1895, "\u0120sm": 1896, "\u0120pres": 1897, "gemein": 1898, "bleme": 1899, "\u0120prom": 1900, "itions": 1901, "\u00c3\u00bcb": 1902, "\u0120terms": 1903, "\u0120wes": 1904, "weisen": 1905, "utung": 1906, "\u0120Intern": 1907, "abil": 1908, "\u0120extre": 1909, "\u0120Abstimmung": 1910, "\u0120wish": 1911, "\u0120Unterst\u00c3\u00bctz": 1912, "\u0120Stru": 1913, "man": 1914, "\u0120Am": 1915, "ules": 1916, "\u0120gel": 1917, "\u0120consum": 1918, "sibility": 1919, "\u0120Ger": 1920, "ordin": 1921, "\u0120product": 1922, "gleich": 1923, "\u0120sign": 1924, "\u0120Mad": 1925, "ents": 1926, "\u0120Disk": 1927, "\u0120kommen": 1928, "\u0120seit": 1929, "ahre": 1930, "\u0120viele": 1931, "\u0120Regierung": 1932, "\u0120Frauen": 1933, "\u0120av": 1934, "\u0120Pr\u00c3\u00a4sidentin": 1935, "\u0120accept": 1936, "erk": 1937, "\u0120geb": 1938, "\u0120regional": 1939, "\u0120principle": 1940, "\u0120komm": 1941, "spolitik": 1942, "ks": 1943, "\u0120deal": 1944, "\u0120represent": 1945, "\u0120Staaten": 1946, "ho": 1947, "\u0120gef": 1948, "amental": 1949, "\u0120proposals": 1950, "\u0120Unterst\u00c3\u00bctzung": 1951, "stellung": 1952, "\u0120d\u00c3\u00bcr": 1953, "\u0120n\u00c3\u00a4m": 1954, "\u0120Wettbewerb": 1955, "ache": 1956, "strument": 1957, "\u0120n\u00c3\u00a4mlich": 1958, "ught": 1959, "flicht": 1960, "ginnen": 1961, "ferenz": 1962, "\u0120min": 1963, "199": 1964, "\u0120voll": 1965, "\u0120\u00c3\u0126nderungsantr\u00c3\u00a4ge": 1966, "urs": 1967, "\u0120decision": 1968, "\u0120besteht": 1969, "undheit": 1970, "\u0120invest": 1971, "vour": 1972, "ence": 1973, "stand": 1974, "fit": 1975, "\u0120women": 1976, "\u0120bed": 1977, "\u0120Zusammenhang": 1978, "\u0120Artikel": 1979, "isions": 1980, "\u0120au\u00c3\u0141": 1981, "\u0120zur\u00c3\u00bcck": 1982, "\u0120del": 1983, "rache": 1984, "ante": 1985, "\u0120geben": 1986, "\u0120erforder": 1987, "\u00c3\u00bcnd": 1988, "\u0120proposed": 1989, "\u0120Unternehmen": 1990, "lus": 1991, "ika": 1992, "\u0120dar\u00c3\u00bcber": 1993, "\u0120poin": 1994, "\u0120politischen": 1995, "markt": 1996, "lex": 1997, "\u0120\u00c3\u0126nderungsantrag": 1998, "\u0120fol": 1999, "eld": 2000, "rif": 2001, "ierten": 2002, "r\u00c3\u00a4n": 2003, "\u01209": 2004, "\u0120lang": 2005, "etzen": 2006, "\u0120Madam": 2007, "come": 2008, "zept": 2009, "\u0120commun": 2010, "\u0120Thema": 2011, "\u0120Probleme": 2012, "\u0120Menschenrechte": 2013, "eding": 2014, "\u0120stehen": 2015, "gung": 2016, "\u0120legislation": 2017, "\u0120eing": 2018, "\u0120On": 2019, "\u0120Deshalb": 2020, "\u0120Debatte": 2021, "\u0120davon": 2022, "bene": 2023, "sequ": 2024, "f\u00c3\u00bchrung": 2025, "\u0120soc": 2026, "graph": 2027, "\u0120look": 2028, "lick": 2029, "\u0120since": 2030, "\u0120darf": 2031, "\u0120contro": 2032, "ided": 2033, "\u0120come": 2034, "\u0120ihren": 2035, "\u0120wirklich": 2036, "\u0120glau": 2037, "innen": 2038, "\u0120gr\u00c3\u00b6\u00c3\u0141": 2039, "ktor": 2040, "ased": 2041, "\u0120Situation": 2042, "ifft": 2043, "\u0120Amend": 2044, "\u0120whole": 2045, "itor": 2046, "\u0120Ma": 2047, "\u0120Vorschl\u00c3\u00a4": 2048, "\u0120difficult": 2049, "\u0120further": 2050, "uge": 2051, "\u0120sec": 2052, "\u0120help": 2053, "\u0120bess": 2054, "\u0120strateg": 2055, "\u0120betrifft": 2056, "entlichen": 2057, "raft": 2058, "\u0120regulation": 2059, "lobal": 2060, "\u0120basis": 2061, "riften": 2062, "\u0120deut": 2063, "\u0120L\u00c3\u00a4ndern": 2064, "\u0120besonder": 2065, "une": 2066, "\u00c3\u00bccksicht": 2067, "gew": 2068, "\u0120Rates": 2069, "\u0120daher": 2070, "\u0120inde": 2071, "ienst": 2072, "\u0120Verbraucher": 2073, "01": 2074, "\u0120contrib": 2075, "ified": 2076, "\u0120Jahre": 2077, "\u0120Bede": 2078, "\u0120Aber": 2079, "liegen": 2080, "\u0120mention": 2081, "\u0120Bes": 2082, "\u0120second": 2083, "\u0120next": 2084, "\u0120ir": 2085, "\u0120ide": 2086, "\u0120commit": 2087, "\u0120specific": 2088, "\u0120\u00c3\u00b6ff": 2089, "ually": 2090, "\u0120Best": 2091, "\u0120seiner": 2092, "\u0120letzten": 2093, "1999": 2094, "ning": 2095, "iety": 2096, "\u0120Gen": 2097, "\u0120ja": 2098, "\u0120Treaty": 2099, "hol": 2100, "gricult": 2101, "stitutions": 2102, "\u0120At": 2103, "\u0120few": 2104, "ende": 2105, "\u0120val": 2106, "\u0120simp": 2107, "\u0120Bedeutung": 2108, "\u0120cre": 2109, "\u0120Mill": 2110, "ivil": 2111, "\u0120supp": 2112, "\u0120What": 2113, "\u0120opport": 2114, "hall": 2115, "agement": 2116, "mes": 2117, "\u0120project": 2118, "\u00c3\u00bcnft": 2119, "ale": 2120, "\u0120recht": 2121, "\u0120child": 2122, "\u0120cond": 2123, "\u0120ta": 2124, "\u0120Man": 2125, "\u0120risk": 2126, "\u0120word": 2127, "ife": 2128, "upt": 2129, "zieh": 2130, "hm": 2131, "racht": 2132, "\u0120schw": 2133, "\u00c3\u00a4rk": 2134, "\u0120Besch": 2135, "amil": 2136, "fte": 2137, "\u0120subject": 2138, "par": 2139, "\u0120Punkt": 2140, "\u0120bestimm": 2141, "\u0120pract": 2142, "\u0120eigen": 2143, "\u0120pl": 2144, "\u0120einzel": 2145, "mework": 2146, "\u0120zweit": 2147, "\u0120Au\u00c3\u0141": 2148, "\u012019": 2149, "\u00c3\u00a4chst": 2150, "overnment": 2151, "\u0120equ": 2152, "\u0120gegen\u00c3\u00bcber": 2153, "\u0120health": 2154, "\u0120\u00c3\u00a4u\u00c3\u0141": 2155, "\u0120eben": 2156, "icle": 2157, "\u0120abs": 2158, "\u0120crit": 2159, "\u0120vorgesch": 2160, "gress": 2161, "oint": 2162, "\u0120aw": 2163, "leicht": 2164, "\u0120Sozial": 2165, "\u0120shall": 2166, "\u0120L\u00c3\u00b6s": 2167, "\u0120Hil": 2168, "\u0120Verantwort": 2169, "\u0120Ansicht": 2170, "\u0120quite": 2171, "\u0120done": 2172, "\u0120plan": 2173, "gaben": 2174, "iben": 2175, "\u0120gesagt": 2176, "\u0120adopted": 2177, "als": 2178, "\u0120meet": 2179, "\u0120begr\u00c3\u00bc\u00c3\u0141": 2180, "\u0120back": 2181, "\u0120sens": 2182, "att": 2183, "iele": 2184, "fet": 2185, "\u0120institutions": 2186, "rachten": 2187, "\u0120resour": 2188, "ichte": 2189, "wendung": 2190, "tain": 2191, "inzip": 2192, "wirk": 2193, "\u0120employment": 2194, "ising": 2195, "urz": 2196, "wards": 2197, "ude": 2198, "\u0120clearly": 2199, "prochen": 2200, "schied": 2201, "ines": 2202, "\u0120Vol": 2203, "\u0120unterst\u00c3\u00bctzen": 2204, "\u0120cost": 2205, "\u0120call": 2206, "\u0120colle": 2207, "other": 2208, "ierte": 2209, "\u0120favour": 2210, "dert": 2211, "\u0120framework": 2212, "\u0120extrem": 2213, "glichen": 2214, "ilt": 2215, "\u0120statt": 2216, "\u0120Besch\u00c3\u00a4ft": 2217, "oti": 2218, "pecial": 2219, "\u0120konk": 2220, "di": 2221, "k\u00c3\u00a4mp": 2222, "\u0120brauch": 2223, "spr": 2224, "\u0120unseren": 2225, "ep": 2226, "h\u00c3\u00a4ng": 2227, "iar": 2228, "itt": 2229, "\u0120Fund": 2230, "\u0120lassen": 2231, "ystems": 2232, "wert": 2233, "\u0120Information": 2234, "rieden": 2235, "\u0120Organ": 2236, "\u012015": 2237, "\u0120vorgeschlagen": 2238, "erien": 2239, "\u00c3\u00a4hrend": 2240, "fety": 2241, "\u0120f\u00c3\u00bchren": 2242, "\u0120anges": 2243, "\u0120verschieden": 2244, "\u0120account": 2245, "\u0120approach": 2246, "h\u00c3\u00a4lt": 2247, "lungen": 2248, "atives": 2249, "verkehr": 2250, "ively": 2251, "ze\u00c3\u0141": 2252, "\u0120stellen": 2253, "vorsch": 2254, "druck": 2255, "ander": 2256, "\u0120richt": 2257, "ards": 2258, "\u0120bezug": 2259, "\u0120society": 2260, "\u0120Fisch": 2261, "\u0120Ange": 2262, "\u0120rather": 2263, "arante": 2264, "emp": 2265, "\u0120State": 2266, "gre": 2267, "\u0120\u00c3\u00bcb": 2268, "ffair": 2269, "\u0120Ne": 2270, "etzung": 2271, "\u0120result": 2272, "ma\u00c3\u0141": 2273, "urity": 2274, "ica": 2275, "\u0120geh\u00c3\u00b6r": 2276, "\u0120Institution": 2277, "\u0120going": 2278, "\u0120Und": 2279, "\u0120United": 2280, "\u0120agree": 2281, "\u0120stru": 2282, "\u0120deshalb": 2283, "\u0120working": 2284, "gesehen": 2285, "\u0120defin": 2286, "\u0120Kontro": 2287, "\u0120h\u00c3\u00a4t": 2288, "\u0120cap": 2289, "iesen": 2290, "\u0120Tages": 2291, "\u0120negoti": 2292, "onds": 2293, "ists": 2294, "\u0120cr": 2295, "\u0120rev": 2296, "\u0120Gleich": 2297, "\u0120rules": 2298, "\u0120Produ": 2299, "\u0120adv": 2300, "\u0120committee": 2301, "reffen": 2302, "\u0120underst": 2303, "\u0120environmental": 2304, "ways": 2305, "\u0120talk": 2306, "\u0120var": 2307, "\u0120state": 2308, "\u0120guarante": 2309, "vement": 2310, "\u0120mil": 2311, "\u0120ander": 2312, "ropri": 2313, "\u0120finanz": 2314, "\u0120Durch": 2315, "\u012012": 2316, "ler": 2317, "\u0120bro": 2318, "\u0120integr": 2319, "\u0120bew": 2320, "\u0120lim": 2321, "\u0120These": 2322, "\u0120regions": 2323, "\u0120steht": 2324, "\u0120Kolleginnen": 2325, "\u0120Lebens": 2326, "\u0120glaube": 2327, "fach": 2328, "\u0120Vertrag": 2329, "uft": 2330, "\u0120role": 2331, "ething": 2332, "\u0120food": 2333, "\u0120tax": 2334, "osition": 2335, "\u0120safety": 2336, "ared": 2337, "treten": 2338, "\u0120Weise": 2339, "\u0120government": 2340, "\u0120access": 2341, "edom": 2342, "\u0120Br": 2343, "\u0120regul": 2344, "un\u00c3\u00a4chst": 2345, "\u0120erst": 2346, "\u0120better": 2347, "\u0120industry": 2348, "gement": 2349, "\u0120deren": 2350, "\u0120Rechte": 2351, "\u0120EUR": 2352, "\u0120Qu": 2353, "\u0120control": 2354, "\u0120umf": 2355, "\u0120k\u00c3\u00b6nnte": 2356, "gl": 2357, "\u0120person": 2358, "\u0120cor": 2359, "\u0120Stra": 2360, "\u0120resources": 2361, "eich": 2362, "\u0120especial": 2363, "hip": 2364, "\u0120ess": 2365, "\u0120after": 2366, "\u0120imm": 2367, "\u0120daran": 2368, "\u0120something": 2369, "\u0120especially": 2370, "fort": 2371, "arter": 2372, "\u0120pow": 2373, "sprache": 2374, "\u0120pri": 2375, "armon": 2376, "SE": 2377, "\u0120down": 2378, "\u0120einge": 2379, "folg": 2380, "\u0120addition": 2381, "sto": 2382, "miss": 2383, "\u0120Tran": 2384, "ffairs": 2385, "ek": 2386, "\u0120Verordnung": 2387, "setzung": 2388, "ron": 2389, "\u0120Di": 2390, "ivid": 2391, "recht": 2392, "rodu": 2393, "\u0120read": 2394, "\u0120Ind": 2395, "wed": 2396, "\u0120el": 2397, "\u0120Tur": 2398, "\u0120europ\u00c3\u00a4ische": 2399, "genda": 2400, "aussch": 2401, "\u0120itself": 2402, "ably": 2403, "\u0120progress": 2404, "\u0120exist": 2405, "\u0120programmes": 2406, "zw": 2407, "\u0120Aust": 2408, "amt": 2409, "\u0120large": 2410, "\u0120Article": 2411, "k\u00c3\u00a4mpfung": 2412, "\u0120air": 2413, "\u0120Dar": 2414, "ension": 2415, "\u0120Zukunft": 2416, "gelegt": 2417, "\u0120essential": 2418, "reten": 2419, "\u0120million": 2420, "\u0120sollen": 2421, "\u0120speak": 2422, "\u0120Ausschusses": 2423, "\u0120initiative": 2424, "\u0120Seit": 2425, "ialog": 2426, "ogen": 2427, "pend": 2428, "\u0120Fe": 2429, "\u0120dire": 2430, "\u0120points": 2431, "v\u00c3\u00b6lk": 2432, "\u0120gent": 2433, "\u0120used": 2434, "\u0120bal": 2435, "\u0120cl": 2436, "abe": 2437, "linien": 2438, "ify": 2439, "\u0120Beispiel": 2440, "\u0120general": 2441, "erdings": 2442, "\u0120d\u00c3\u00bcrfen": 2443, "ath": 2444, "\u0120towards": 2445, "ases": 2446, "\u0120And": 2447, "\u0120competition": 2448, "\u0120each": 2449, "\u0120ze": 2450, "\u0120services": 2451, "term": 2452, "ervor": 2453, "\u0120provide": 2454, "\u0120responsibility": 2455, "\u0120during": 2456, "\u0120pay": 2457, "\u0120derzeit": 2458, "\u0120Markt": 2459, "\u0120oper": 2460, "\u0120liegt": 2461, "\u0120sozialen": 2462, "\u0120je": 2463, "adies": 2464, "\u0120govern": 2465, "\u0120organis": 2466, "\u0120positive": 2467, "\u0120appropri": 2468, "\u0120Ihre": 2469, "\u0120gentlemen": 2470, "w\u00c3\u00a4r": 2471, "\u0120let": 2472, "legenheit": 2473, "\u0120extremely": 2474, "\u0120Red": 2475, "\u0120Europas": 2476, "\u0120Lage": 2477, "\u0120Struktur": 2478, "gar": 2479, "m\u00c3\u00b6": 2480, "ven": 2481, "ises": 2482, "\u0120global": 2483, "ikan": 2484, "\u0120They": 2485, "\u0120Regionen": 2486, "\u0120gro\u00c3\u0141en": 2487, "\u0120Pr": 2488, "ierungen": 2489, "\u0120Ergeb": 2490, "\u0120compan": 2491, "ried": 2492, "\u0120fundamental": 2493, "ference": 2494, "\u0120Mehr": 2495, "\u0120Vorschl\u00c3\u00a4ge": 2496, "iving": 2497, "\u0120Reform": 2498, "\u0120allgemein": 2499, "\u0120policies": 2500, "oney": 2501, "\u0120hervor": 2502, "\u0120Pl": 2503, "\u0120Ums": 2504, "\u0120sector": 2505, "gestellt": 2506, "igkeiten": 2507, "\u0120hoffe": 2508, "\u0120sowohl": 2509, "\u0120darin": 2510, "\u00c3\u00a4tze": 2511, "\u0120priv": 2512, "\u0120Standpunkt": 2513, "\u0120Ihr": 2514, "\u0120Liberal": 2515, "though": 2516, "\u0120small": 2517, "\u0120nationalen": 2518, "\u0120Entschlie\u00c3\u0141ung": 2519, "z\u00c3\u00bc": 2520, "\u0120ans": 2521, "raum": 2522, "\u0120gem": 2523, "verst\u00c3\u00a4nd": 2524, "\u0120job": 2525, "ktionen": 2526, "\u01201998": 2527, "f\u00c3\u00a4h": 2528, "sid": 2529, "\u0120000": 2530, "\u0120inner": 2531, "gether": 2532, "\u0120less": 2533, "\u0120effort": 2534, "\u0120democrat": 2535, "TO": 2536, "reg": 2537, "\u0120change": 2538, "aum": 2539, "\u0120w\u00c3\u00a4hrend": 2540, "\u0120Is": 2541, "\u0120Rolle": 2542, "stehen": 2543, "\u0120Tagesordnung": 2544, "sweise": 2545, "old": 2546, "\u0120gesam": 2547, "\u0120Zust": 2548, "\u0120Aussprache": 2549, "\u0120internal": 2550, "\u0120notwendig": 2551, "imes": 2552, "ktiv": 2553, "\u0120Uns": 2554, "\u0120Auff": 2555, "oment": 2556, "\u0120continue": 2557, "\u0120ak": 2558, "\u0120agricult": 2559, "\u0120seem": 2560, "ennt": 2561, "ativen": 2562, "\u0120cult": 2563, "\u0120step": 2564, "\u0120concerns": 2565, "scheiden": 2566, "\u0120Ebene": 2567, "\u0120einigen": 2568, "\u0120-,": 2569, "\u0120individ": 2570, "unehmen": 2571, "ER": 2572, "rech": 2573, "\u0120Minister": 2574, "\u0120Fran": 2575, "\u0120procedure": 2576, "\u0120money": 2577, "elle": 2578, "\u0120start": 2579, "\u0120stren": 2580, "\u0120nichts": 2581, "\u0120sei": 2582, "allen": 2583, "ccess": 2584, "\u0120parl": 2585, "unde": 2586, "\u0120Auch": 2587, "\u0120really": 2588, "\u0120dabei": 2589, "\u0120ersten": 2590, "\u0120lead": 2591, "\u0120suff": 2592, "\u0120post": 2593, "\u0120grow": 2594, "\u0120welcome": 2595, "blick": 2596, "iod": 2597, "ziel": 2598, "\u0120zusammen": 2599, "\u0120ber\u00c3\u00bccksicht": 2600, "it\u00c3\u00a4ten": 2601, "ahlen": 2602, "\u0120conditions": 2603, "icial": 2604, "\u0120Bel": 2605, "\u0120forward": 2606, "\u0120importance": 2607, "\u0120understand": 2608, "ekte": 2609, "\u0120did": 2610, "\u0120Regel": 2611, "\u0120absol": 2612, "\u0120Hilfe": 2613, "merk": 2614, "\u0120accord": 2615, "\u0120trade": 2616, "\u0120activ": 2617, "erdem": 2618, "aren": 2619, "\u0120offen": 2620, "urn": 2621, "esellschaft": 2622, "\u0120bestehen": 2623, "\u0120struct": 2624, "ling": 2625, "arn": 2626, "\u0120vo": 2627, "\u0120aufge": 2628, "\u012010": 2629, "schaften": 2630, "beding": 2631, "\u0120bef": 2632, "ctions": 2633, "\u0120least": 2634, "\u0120open": 2635, "\u0120various": 2636, "pflicht": 2637, "\u0120aim": 2638, "\u0120three": 2639, "spect": 2640, "\u0120prec": 2641, "\u0120Fol": 2642, "\u0120Fort": 2643, "\u0120bene": 2644, "\u0120beispiel": 2645, "\u0120Person": 2646, "\u0120werde": 2647, "arta": 2648, "ufen": 2649, "\u0120gew\u00c3\u00a4hr": 2650, "\u012020": 2651, "sichtlich": 2652, "\u0120kurz": 2653, "\u0120once": 2654, "\u0120member": 2655, "\u0120vi": 2656, "\u0120loc": 2657, "\u0120Bev\u00c3\u00b6lk": 2658, "\u0120comple": 2659, "weg": 2660, "\u0120needs": 2661, "iation": 2662, "\u0120drei": 2663, "\u0120Zus": 2664, "\u0120Erweit": 2665, "\u0120Gegen": 2666, "\u0120Entwicklungs": 2667, "idency": 2668, "\u0120transport": 2669, "komm": 2670, "\u0120bu": 2671, "icient": 2672, "\u0120aller": 2673, "\u0120inform": 2674, "\u0120making": 2675, "\u0120Demokrat": 2676, "\u0120interests": 2677, "\u0120L\u00c3\u00b6sung": 2678, "bau": 2679, "\u0120dort": 2680, "\u0120tot": 2681, "\u0120Portug": 2682, "\u0120period": 2683, "\u0120\u00c3\u00bcbr": 2684, "\u0120Nat": 2685, "\u0120demand": 2686, "\u0120economy": 2687, "\u0120kommt": 2688, "\u0120ble": 2689, "\u0120Not": 2690, "\u0120Verantwortung": 2691, "w\u00c3\u00a4rt": 2692, "\u0120Umsetzung": 2693, "\u0120always": 2694, "\u0120introdu": 2695, "\u0120Rights": 2696, "\u0120Energ": 2697, "\u0120peace": 2698, "\u0120remain": 2699, "\u0120third": 2700, "\u0120Ex": 2701, "\u0120Bem": 2702, "\u0120politische": 2703, "\u0120freedom": 2704, "\u0120including": 2705, "\u0120akzept": 2706, "\u0120water": 2707, "\u0120ben": 2708, "ged": 2709, "\u0120refer": 2710, "\u0120welche": 2711, "\u0120bringen": 2712, "\u0120authorities": 2713, "\u0120entsprechen": 2714, "\u0120innerhalb": 2715, "\u0120become": 2716, "llig": 2717, "\u0120Parte": 2718, "\u0120feel": 2719, "\u0120Entscheidung": 2720, "\u0120besonders": 2721, "ller": 2722, "\u0120enlar": 2723, "gabe": 2724, "\u0120involved": 2725, "\u0120gerade": 2726, "\u0120danken": 2727, "\u0120opp": 2728, "\u0120nor": 2729, "oting": 2730, "ustrie": 2731, "\u0120Form": 2732, "iness": 2733, "\u0120occ": 2734, "\u0120med": 2735, "umen": 2736, "weis": 2737, "\u012011": 2738, "\u0120genau": 2739, "\u0120Regierungs": 2740, "org": 2741, "\u0120ant": 2742, "schutz": 2743, "\u0120Wer": 2744, "\u0120Proj": 2745, "thing": 2746, "\u0120applic": 2747, "utet": 2748, "\u0120products": 2749, "\u0120Austri": 2750, "\u0120beispielsweise": 2751, "\u0120another": 2752, "\u0120Institutionen": 2753, "text": 2754, "\u0120h\u00c3\u00b6": 2755, "\u0120non": 2756, "\u0120ladies": 2757, "esse": 2758, "\u0120together": 2759, "ildung": 2760, "\u0120Gesundheit": 2761, "sterreich": 2762, "\u0120Pat": 2763, "ders": 2764, "\u0120Kinder": 2765, "\u0120kind": 2766, "\u0120based": 2767, "\u0120security": 2768, "\u0120deutlich": 2769, "wes": 2770, "\u0120System": 2771, "\u0120kle": 2772, "\u0120schaffen": 2773, "asser": 2774, "\u0120achieve": 2775, "ication": 2776, "\u0120Weg": 2777, "\u0120solche": 2778, "\u0120questions": 2779, "\u0120aware": 2780, "eits": 2781, "\u0120UN": 2782, "\u0120Eine": 2783, "\u0120waren": 2784, "\u0120Erweiterung": 2785, "\u0120fight": 2786, "\u0120adm": 2787, "\u0120recog": 2788, "\u0120halte": 2789, "\u0120current": 2790, "\u0120Binnen": 2791, "\u0120Wort": 2792, "\u0120relations": 2793, "\u0120gro\u00c3\u0141e": 2794, "\u0120technolog": 2795, "\u0120month": 2796, "\u0120mot": 2797, "\u0120def": 2798, "\u0120det": 2799, "ield": 2800, "enzen": 2801, "\u0120amendment": 2802, "ritte": 2803, "\u0120Lis": 2804, "\u0120ihnen": 2805, "idence": 2806, "\u0120adopt": 2807, "\u0120short": 2808, "\u0120mean": 2809, "\u0120Ausdruck": 2810, "\u0120handelt": 2811, "\u0120majority": 2812, "\u0120Internet": 2813, "\u0120Verfahren": 2814, "\u0120doc": 2815, "aps": 2816, "\u0120draft": 2817, "\u0120increase": 2818, "frage": 2819, "asing": 2820, "\u0120Frei": 2821, "\u0120Gr\u00c3\u00bcn": 2822, "\u0120Jahres": 2823, "\u0120\u00c3\u00a4u\u00c3\u0141erst": 2824, "\u0120Sol": 2825, "\u0120einzelnen": 2826, "\u0120gilt": 2827, "\u0120rele": 2828, "\u0120aspect": 2829, "\u0120demokrat": 2830, "\u0120hinaus": 2831, "mals": 2832, "\u0120Amendment": 2833, "\u0120Millionen": 2834, "\u0120brauchen": 2835, "\u0120individual": 2836, "\u0120creat": 2837, "\u0120erhalten": 2838, "\u0120Verwalt": 2839, "\u0120led": 2840, "\u0120document": 2841, "r\u00c3\u00bcck": 2842, "inistr": 2843, "zuf": 2844, "\u0120institution": 2845, "\u0120nie": 2846, "\u0120Asp": 2847, "\u0120First": 2848, "\u0120Transp": 2849, "urf": 2850, "\u0120groups": 2851, "\u0120Gebiet": 2852, "AF": 2853, "\u0120Affairs": 2854, "\u0120rece": 2855, "bereich": 2856, "\u0120Viel": 2857, "ifen": 2858, "\u0120yet": 2859, "\u0120resear": 2860, "\u0120darum": 2861, "\u0120Forsch": 2862, "\u0120research": 2863, "ock": 2864, "usiness": 2865, "irm": 2866, "\u0120au\u00c3\u0141er": 2867, "ented": 2868, "unkte": 2869, "\u0120n\u00c3\u00a4ch": 2870, "ily": 2871, "\u0120lea": 2872, "\u0120certainly": 2873, "verfahren": 2874, "\u0120exce": 2875, "\u0120success": 2876, "\u0120statement": 2877, "\u0120ann": 2878, "eless": 2879, "erecht": 2880, "\u0120dessen": 2881, "war": 2882, "ffentlich": 2883, "\u0120,": 2884, "schein": 2885, "zeitig": 2886, "\u0120Stellung": 2887, "h\u00c3\u00b6": 2888, "\u0120Emp": 2889, "\u0120US": 2890, "\u0120Zwe": 2891, "hnt": 2892, "ina": 2893, "\u0120Ho": 2894, "\u0120greater": 2895, "yp": 2896, "gegen": 2897, "\u00c3\u00a4d": 2898, "\u0120eindeut": 2899, "\u0120reach": 2900, "spr\u00c3\u00a4sident": 2901, "\u0120alles": 2902, "\u0120proper": 2903, "\u00c3\u00a4hl": 2904, "\u0120Bek\u00c3\u00a4mpfung": 2905, "\u0120Gemeinsam": 2906, "\u0120halten": 2907, "\u0120prevent": 2908, "\u0120major": 2909, "fonds": 2910, "ness": 2911, "andid": 2912, "\u0120upon": 2913, "\u0120objectives": 2914, "fern": 2915, "\u0120bo": 2916, "row": 2917, "letz": 2918, "\u0120erste": 2919, "\u0120opportunity": 2920, "zogen": 2921, "\u0120pass": 2922, "\u0120vorgesehen": 2923, "\u0120Just": 2924, "\u0120mind": 2925, "\u0120ern": 2926, "\u0120Verhand": 2927, "\u0120vorliegen": 2928, "\u0120entscheiden": 2929, "setzen": 2930, "konferenz": 2931, "\u0120Wirtschafts": 2932, "\u0120ebenfalls": 2933, "net": 2934, "\u0120clos": 2935, "\u0120Sitz": 2936, "\u0120denke": 2937, "CO": 2938, "ograph": 2939, "alle": 2940, "\u0120beim": 2941, "\u0120Initiative": 2942, "\u0120waste": 2943, "\u0120Prodi": 2944, "chan": 2945, "\u0120exc": 2946, "\u0120create": 2947, "\u0120erreichen": 2948, "\u012013": 2949, "\u0120Grundlage": 2950, "ziehen": 2951, "\u0120avail": 2952, "\u0120gemacht": 2953, "gang": 2954, "yl": 2955, "rechts": 2956, "\u0120begin": 2957, "\u0120Hier": 2958, "\u0120wohl": 2959, "\u0120words": 2960, "\u0120often": 2961, "idar": 2962, "\u0120Erkl\u00c3\u00a4r": 2963, "\u0120grund": 2964, "\u0120Abgeordnete": 2965, "\u0120Binnenmarkt": 2966, "less": 2967, "\u0120table": 2968, "\u0120fun": 2969, "\u0120Sub": 2970, "\u0120With": 2971, "\u0120R\u00c3\u00bcck": 2972, "ifiz": 2973, "\u0120hei\u00c3\u0141": 2974, "hilfen": 2975, "\u0120children": 2976, "\u0120eth": 2977, "ters": 2978, "grat": 2979, "igin": 2980, "\u0120gegeben": 2981, "mitt": 2982, "\u0120Finally": 2983, "\u0120taking": 2984, "racy": 2985, "\u0120Dienst": 2986, "\u0120objective": 2987, "\u0120mentioned": 2988, "\u0120complete": 2989, "\u0120administr": 2990, "\u0120erne": 2991, "\u0120doub": 2992, "\u0120eigenen": 2993, "hing": 2994, "\u0120treat": 2995, "\u0120show": 2996, "\u0120energ": 2997, "i\u00c3\u0141b": 2998, "\u0120simply": 2999, "\u0120business": 3000, "\u0120ple": 3001, "einander": 3002, "\u0120Vertre": 3003, "ultur": 3004, "\u0120address": 3005, "\u0120weniger": 3006, "\u0120viol": 3007, "\u0120erm\u00c3\u00b6": 3008, "utzen": 3009, "\u0120democratic": 3010, "abh\u00c3\u00a4ng": 3011, "\u0120congrat": 3012, "\u0120nehmen": 3013, "\u0120schne": 3014, "\u00c3\u00a4ren": 3015, "\u00c3\u00b6rderung": 3016, "heb": 3017, "\u0120effective": 3018, "benso": 3019, "gangenen": 3020, "\u0120Africa": 3021, "\u0120inn": 3022, "\u0120gar": 3023, "\u0120lack": 3024, "\u0120quality": 3025, "\u0120conclus": 3026, "\u0120w\u00c3\u00bcrden": 3027, "\u0120enlargement": 3028, "bour": 3029, "ean": 3030, "\u0120My": 3031, "\u0120versuch": 3032, "ppe": 3033, "\u0120Ende": 3034, "a\u00c3\u0141t": 3035, "\u0120gemeinsamen": 3036, "\u0120besser": 3037, "\u0120projects": 3038, "\u0120Auffassung": 3039, "\u0120congratul": 3040, "\u0120instrument": 3041, "\u0120hatte": 3042, "\u0120attention": 3043, "\u0120try": 3044, "\u0120Med": 3045, "\u0120happen": 3046, "\u0120beiden": 3047, "\u0120sprechen": 3048, "\u0120weitere": 3049, "\u0120vielleicht": 3050, "\u0120erforderlich": 3051, "ix": 3052, "\u0120sing": 3053, "reicht": 3054, "\u0120Erachten": 3055, "ationen": 3056, "\u0120decisions": 3057, "\u0120request": 3058, "\u0120funds": 3059, "\u0120Hinblick": 3060, "\u0120Diskuss": 3061, "\u0120Erachtens": 3062, "ined": 3063, "\u0120mult": 3064, "\u0120eig": 3065, "\u0120pers": 3066, "gesetzt": 3067, "bereit": 3068, "\u0120wei\u00c3\u0141": 3069, "\u0120actually": 3070, "\u0120Charta": 3071, "hilfe": 3072, "\u0120benefit": 3073, "\u0120local": 3074, "here": 3075, "zen": 3076, "zahl": 3077, "ining": 3078, "\u0120terr": 3079, "orn": 3080, "\u0120F\u00c3\u00a4": 3081, "\u0120aufgrund": 3082, "\u0120text": 3083, "\u0120gegenw\u00c3\u00a4rt": 3084, "\u0120Arbeitsp": 3085, "\u0120Gemeinschafts": 3086, "\u0120following": 3087, "\u0120colleag": 3088, "\u0120companies": 3089, "\u0120recogn": 3090, "leist": 3091, "ipf": 3092, "\u0120verschiedenen": 3093, "\u0120aff": 3094, "onger": 3095, "\u0120Verkehr": 3096, "erseits": 3097, "\u0120management": 3098, "\u0120entwick": 3099, "\u0120finden": 3100, "wach": 3101, "\u0120mod": 3102, "\u0120pop": 3103, "\u0120To": 3104, "isches": 3105, "\u0120force": 3106, "osed": 3107, "\u0120Beh\u00c3\u00b6r": 3108, "\u0120obl": 3109, "\u0120special": 3110, "\u0120members": 3111, "per": 3112, "\u0120although": 3113, "\u0120Ziele": 3114, "\u0120Rep": 3115, "\u0120origin": 3116, "\u0120internationalen": 3117, "\u0120moment": 3118, "sterd": 3119, "riminal": 3120, "\u0120You": 3121, "affung": 3122, "\u0120morgen": 3123, "\u0120implementation": 3124, "sterdam": 3125, "l\u00c3\u00a4ndern": 3126, "\u0120tas": 3127, "its": 3128, "alen": 3129, "\u0120cases": 3130, "gelung": 3131, "ommend": 3132, "\u0120jeder": 3133, "\u0120contain": 3134, "\u0120Kosten": 3135, "\u0120Vereinigten": 3136, "\u0120Amsterdam": 3137, "\u0120single": 3138, "\u0120Mitte": 3139, "\u0120liberal": 3140, "neh": 3141, "\u0120Auswirk": 3142, "\u0120region": 3143, "\u0120weiterhin": 3144, "orgen": 3145, "ritten": 3146, "\u0120hinsichtlich": 3147, "\u0120wichtige": 3148, "ats\u00c3\u00a4ch": 3149, "\u0120matters": 3150, "\u0120previous": 3151, "\u0120men": 3152, "\u0120qual": 3153, "\u0120disp": 3154, "\u0120stellt": 3155, "02": 3156, "gern": 3157, "haps": 3158, "\u0120einfach": 3159, "\u0120Anwendung": 3160, "\u0120play": 3161, "\u0120Beding": 3162, "\u0120parliament": 3163, "\u0120Regierungskonferenz": 3164, "cen": 3165, "\u0120mak": 3166, "\u0120might": 3167, "\u0120v\u00c3\u00b6": 3168, "\u0120T\u00c3\u00bcr": 3169, "\u0120having": 3170, "fang": 3171, "wurf": 3172, "eder": 3173, "\u0120erinn": 3174, "\u0120Abkommen": 3175, "\u0120others": 3176, "\u0120discrimin": 3177, "\u0120service": 3178, "\u0120agenda": 3179, "\u0120behand": 3180, "ummit": 3181, "\u0120disk": 3182, "altung": 3183, "\u0120Beitrag": 3184, "bon": 3185, "iten": 3186, "ross": 3187, "\u0120Nor": 3188, "annten": 3189, "\u0120Schlu\u00c3\u0141": 3190, "\u0120enc": 3191, "\u0120Region": 3192, "pr\u00c3\u00bc": 3193, "\u0120angenommen": 3194, "\u0120seinen": 3195, "\u0120meines": 3196, "\u0120keinen": 3197, "\u0120Verbess": 3198, "\u0120Interesse": 3199, "iver": 3200, "isik": 3201, "\u0120free": 3202, "utes": 3203, "\u0120sogar": 3204, "\u0120Schaffung": 3205, "ification": 3206, "\u0120Daher": 3207, "ator": 3208, "\u0120past": 3209, "\u0120Gesch\u00c3\u00a4ft": 3210, "\u0120versch": 3211, "aper": 3212, "\u0120Convention": 3213, "it\u00c3\u00a4ts": 3214, "enten": 3215, "\u0120hon": 3216, "\u0120Krit": 3217, "\u0120Verpflicht": 3218, "ocol": 3219, "\u0120Wettbewerbs": 3220, "\u0120available": 3221, "ule": 3222, "iellen": 3223, "\u0120zus": 3224, "\u0120vers": 3225, "\u0120apply": 3226, "\u00c3\u00bcnf": 3227, "fehl": 3228, "\u0120Wieder": 3229, "oten": 3230, "vest": 3231, "atast": 3232, "\u0120civil": 3233, "\u0120Mar": 3234, "\u0120Woch": 3235, "\u0120sug": 3236, "\u0120prep": 3237, "\u0120teil": 3238, "\u0120Programm": 3239, "\u0120wirtschaftlichen": 3240, "\u0120milit": 3241, "voll": 3242, "\u0120Frieden": 3243, "\u0120Auswirkungen": 3244, "akt": 3245, "\u0120Geld": 3246, "\u0120schlie\u00c3\u0141": 3247, "haltung": 3248, "\u0120wenig": 3249, "leis": 3250, "\u0120Herren": 3251, "\u0120poll": 3252, "\u0120recommend": 3253, "\u0120Als": 3254, "com": 3255, "erous": 3256, "stant": 3257, "\u0120while": 3258, "oper": 3259, "\u0120Gesetz": 3260, "\u0120increasing": 3261, "atastrop": 3262, "dition": 3263, "alled": 3264, "stens": 3265, "\u0120Gesellschaft": 3266, "\u0120Zahl": 3267, "\u0120Stabil": 3268, "\u0120Charter": 3269, "\u0120vielen": 3270, "haft": 3271, "erb": 3272, "ides": 3273, "\u0120erw\u00c3\u00a4": 3274, "\u0120Ital": 3275, "\u0120responsible": 3276, "\u0120monitor": 3277, "\u0120Programme": 3278, "stimmen": 3279, "\u0120F\u00c3\u00bcr": 3280, "\u0120Vertra": 3281, "\u0120meinen": 3282, "\u0120protect": 3283, "ziehungen": 3284, "\u0120Besch\u00c3\u00a4ftigung": 3285, "\u0120tats\u00c3\u00a4ch": 3286, "\u0120harmon": 3287, "stum": 3288, "\u0120Wor": 3289, "\u0120Uhr": 3290, "fordert": 3291, "\u0120\u00c3\u00b6ffentlichen": 3292, "\u0120hei\u00c3\u0141t": 3293, "ont": 3294, "unter": 3295, "\u0120care": 3296, "imum": 3297, "\u0120life": 3298, "\u0120ago": 3299, "mut": 3300, "\u0120Mil": 3301, "ived": 3302, "chnolog": 3303, "schlie\u00c3\u0141end": 3304, "\u0120legislative": 3305, "serv": 3306, "zug": 3307, "orrow": 3308, "\u0120states": 3309, "last": 3310, "\u0120sure": 3311, "\u0120Demokratie": 3312, "\u0120things": 3313, "urteil": 3314, "\u0120challen": 3315, "\u0120jeden": 3316, "\u0120fully": 3317, "\u0120Fischere": 3318, "\u0120appropriate": 3319, "verst\u00c3\u00a4ndlich": 3320, "\u0120Fortsch": 3321, "jen": 3322, "\u0120sit": 3323, "\u0120Fest": 3324, "\u0120k\u00c3\u00bcnft": 3325, "\u0120Social": 3326, "\u0120conflic": 3327, "kten": 3328, "\u00c3\u00b6t": 3329, "\u0120Zug": 3330, "\u0120subsid": 3331, "ategie": 3332, "\u0120agreements": 3333, "\u0120Informationen": 3334, "isher": 3335, "tellen": 3336, "\u0120hist": 3337, "\u0120gehen": 3338, "\u0120allerdings": 3339, "\u0120schwer": 3340, "\u0120standards": 3341, "\u0120answer": 3342, "lassen": 3343, "\u0120ident": 3344, "rete": 3345, "\u0120ihrem": 3346, "\u0120regarding": 3347, "\u0120Landwirtschaft": 3348, "\u0120guarantee": 3349, "\u0120Bev\u00c3\u00b6lkerung": 3350, "ai": 3351, "\u0120dist": 3352, "organ": 3353, "\u0120Amer": 3354, "\u0120Ur": 3355, "ourt": 3356, "\u0120Schw": 3357, "\u0120Interessen": 3358, "\u0120principles": 3359, "\u0120bekannt": 3360, "\u0120negotiations": 3361, "\u0120power": 3362, "anden": 3363, "\u0120jud": 3364, "\u0120Text": 3365, "selves": 3366, "\u0120soziale": 3367, "\u0120h\u00c3\u00a4tte": 3368, "\u0120Mehrheit": 3369, "\u0120v\u00c3\u00b6llig": 3370, "fragen": 3371, "ahn": 3372, "\u012014": 3373, "spruch": 3374, "agen": 3375, "hab": 3376, "\u0120dang": 3377, "\u0120intend": 3378, "\u0120press": 3379, "use": 3380, "\u0120Fr": 3381, "indest": 3382, "hend": 3383, "\u00c3\u00bcd": 3384, "elves": 3385, "\u0120stress": 3386, "\u0120never": 3387, "\u0120assist": 3388, "\u012050": 3389, "\u0120guid": 3390, "nehmer": 3391, "co": 3392, "\u00c3\u00bct": 3393, "\u0120Rei": 3394, "\u0120cover": 3395, "\u0120particip": 3396, "folgen": 3397, "stances": 3398, "ausschu\u00c3\u0141": 3399, "dr\u00c3\u00bcck": 3400, "round": 3401, "\u0120context": 3402, "\u0120governments": 3403, "\u0120Gesch\u00c3\u00a4fts": 3404, "vious": 3405, "zunehmen": 3406, "\u0120wahr": 3407, "\u0120sur": 3408, "entliche": 3409, "iges": 3410, "\u0120sehen": 3411, "enste": 3412, "\u0120Voraus": 3413, "\u0120enter": 3414, "\u012030": 3415, "\u0120Conference": 3416, "\u0120efforts": 3417, "bur": 3418, "\u0120cent": 3419, "\u0120Balk": 3420, "\u0120restr": 3421, "\u0120ihm": 3422, "\u0120recent": 3423, "\u0120indeed": 3424, "merksam": 3425, "\u0120voted": 3426, "\u0120thems": 3427, "\u0120enthalten": 3428, "\u0120strong": 3429, "lexib": 3430, "\u0120Bedingungen": 3431, "\u0120themselves": 3432, "l\u00c3\u00a4nder": 3433, "\u0120systems": 3434, "\u0120fish": 3435, "ican": 3436, "\u0120W\u00c3\u00a4hr": 3437, "mehr": 3438, "\u0120Schul": 3439, "\u0120ourselves": 3440, "\u0120farm": 3441, "\u0120geh\u00c3\u00b6rt": 3442, "\u0120klein": 3443, "\u0120famil": 3444, "\u0120euro": 3445, "\u0120tom": 3446, "\u0120item": 3447, "\u0120erkl\u00c3\u00a4r": 3448, "\u0120Berichts": 3449, "\u0120event": 3450, "\u0120Second": 3451, "\u0120signific": 3452, "\u0120gef\u00c3\u00a4hr": 3453, "mb": 3454, "ody": 3455, "immung": 3456, "\u0120gestellt": 3457, "\u0120concerning": 3458, "twort": 3459, "ift": 3460, "\u0120dring": 3461, "angen": 3462, "ichtet": 3463, "\u0120Selbst": 3464, "\u0120joint": 3465, "\u0120coordin": 3466, "outh": 3467, "finden": 3468, "\u0120gemeinsame": 3469, "\u01202001": 3470, "fortun": 3471, "\u0120wider": 3472, "\u0120verbess": 3473, "\u0120Gree": 3474, "\u0120Government": 3475, "\u0120Antwort": 3476, "\u0120comes": 3477, "\u0120sag": 3478, "\u0120communication": 3479, "jenigen": 3480, "av": 3481, "\u0120Wasser": 3482, "que": 3483, "\u0120doing": 3484, "ritts": 3485, "\u0120reasons": 3486, "ode": 3487, "rotz": 3488, "\u0120gute": 3489, "\u0120longer": 3490, "\u0120traff": 3491, "\u0120\u00c3\u0138sterreich": 3492, "\u0120months": 3493, "\u0120Doch": 3494, "\u0120unterschied": 3495, "\u0120parties": 3496, "\u0120discussion": 3497, "standen": 3498, "\u0120schwier": 3499, "vorschriften": 3500, "\u0120growth": 3501, "\u0120tomorrow": 3502, "enken": 3503, "\u0120F\u00c3\u00b6rderung": 3504, "\u0120st\u00c3\u00a4rk": 3505, "\u0120nothing": 3506, "\u0120bisher": 3507, "\u0120consumer": 3508, "anu": 3509, "\u0120beit": 3510, "ims": 3511, "\u0120Damen": 3512, "\u00c3\u00bcsse": 3513, "aged": 3514, "\u0120solution": 3515, "\u0120keep": 3516, "\u0120strategy": 3517, "\u0120Turke": 3518, "\u0120n\u00c3\u00a4chsten": 3519, "\u0120discrimination": 3520, "ban": 3521, "itive": 3522, "\u0120caus": 3523, "\u0120lab": 3524, "abon": 3525, "issabon": 3526, "\u0120she": 3527, "tr\u00c3\u00a4gen": 3528, "legation": 3529, "\u0120emph": 3530, "\u0120wirksam": 3531, "\u0120T\u00c3\u00bcrke": 3532, "\u0120diskut": 3533, "))": 3534, "mden": 3535, "inge": 3536, "\u0120opt": 3537, "\u0120Sicht": 3538, "\u0120Court": 3539, "\u0120Vors": 3540, "\u0120weiteren": 3541, "\u0120Dieser": 3542, "\u0120democracy": 3543, "\u0120Kontrolle": 3544, "vant": 3545, "ination": 3546, "teid": 3547, "\u0120Kultur": 3548, "\u0120Risik": 3549, "\u0120conv": 3550, "\u0120Lissabon": 3551, "\u0120Invest": 3552, "erence": 3553, "\u0120idea": 3554, "ize": 3555, "ugen": 3556, "roffen": 3557, "\u0120ear": 3558, "\u0120fair": 3559, "worten": 3560, "\u0120draw": 3561, "\u0120Organisation": 3562, "\u0120Turkey": 3563, "\u0120Luft": 3564, "\u0120Zweit": 3565, "\u0120among": 3566, "\u0120Gew": 3567, "\u0120contra": 3568, "ledge": 3569, "\u0120agricultural": 3570, "\u0120Lisbon": 3571, "\u0120Reihe": 3572, "\u0120Komp": 3573, "\u0120Gesch": 3574, "deutet": 3575, "\u0120Let": 3576, "frist": 3577, "self": 3578, "\u0120regulations": 3579, "\u0120Notwend": 3580, "\u0120T\u00c3\u00bcrkei": 3581, "atis": 3582, "\u00c3\u0141en": 3583, "\u0120Tats": 3584, "\u0120technical": 3585, "zustellen": 3586, "\u0120ethn": 3587, "\u0120anal": 3588, "ingen": 3589, "\u0120zie": 3590, "\u0120erreicht": 3591, "lied": 3592, "\u0120arbeit": 3593, "\u0120Kommissarin": 3594, "\u0120found": 3595, "\u0120absolute": 3596, "\u0120Sitzung": 3597, "ckt": 3598, "orted": 3599, "\u0120BSE": 3600, "ilung": 3601, "\u0120Raum": 3602, "\u0120fore": 3603, "\u0120disast": 3604, "\u0120indem": 3605, "\u0120humanit": 3606, "\u0120findet": 3607, "w\u00c3\u00bcr": 3608, "cher": 3609, "\u0120undert": 3610, "\u0120Verf\u00c3\u00bc": 3611, "\u0120reports": 3612, "\u0120\u00c3\u013eberein": 3613, "\u0120seems": 3614, "\u0120\u00c3\u00bcbrigen": 3615, "over": 3616, "orge": 3617, "ants": 3618, "\u0120four": 3619, "\u0120official": 3620, "ittle": 3621, "uppen": 3622, "\u0120unt": 3623, "\u0120Pre": 3624, "\u0120K\u00c3\u00b6n": 3625, "\u0120link": 3626, "ott": 3627, "\u0120Erzeug": 3628, "\u0120enough": 3629, "\u0120wichtigen": 3630, "\u0120currently": 3631, "\u0120Diskrimin": 3632, "\u0120ernst": 3633, "ches": 3634, "\u0120bil": 3635, "\u0120Aktion": 3636, "\u0120day": 3637, "\u0120little": 3638, "\u0120unterst\u00c3\u00bctzt": 3639, "\u0120Berichterstatterin": 3640, "\u0120energy": 3641, "\u0120f\u00c3\u00bcnf": 3642, "\u0120ebenso": 3643, "\u0120EC": 3644, "\u0120bedeut": 3645, "ceed": 3646, "\u0120Beziehungen": 3647, "\u0120Op": 3648, "baren": 3649, "\u0120Beh\u00c3\u00b6rden": 3650, "ners": 3651, "\u0120mar": 3652, "\u0120f\u00c3\u00b6r": 3653, "\u0120net": 3654, "\u0120zahl": 3655, "\u0120ret": 3656, "amb": 3657, "\u0120Gefahr": 3658, "\u0120rac": 3659, "rieg": 3660, "\u0120experien": 3661, "\u0120k\u00c3\u00b6nnten": 3662, "RE": 3663, "llent": 3664, "\u0120Kl": 3665, "\u0120developing": 3666, "\u0120Volks": 3667, "\u0120activities": 3668, "\u0120guidel": 3669, "LAF": 3670, "ove": 3671, "lei": 3672, "\u0120Proze\u00c3\u0141": 3673, "lands": 3674, "hens": 3675, "reiben": 3676, "\u0120him": 3677, "irc": 3678, "\u0120Dam": 3679, "\u0120dep": 3680, "griff": 3681, "\u0120ground": 3682, "\u0120Regierungen": 3683, "ringen": 3684, "rench": 3685, "pr\u00c3\u00a4": 3686, "ics": 3687, "\u0120consequ": 3688, "\u0120rail": 3689, "gramm": 3690, "\u0120actions": 3691, "\u0120production": 3692, "ully": 3693, "\u0120key": 3694, "\u0120Au\u00c3\u0141erdem": 3695, "\u0120Verhandlungen": 3696, "\u0120Secondly": 3697, "\u0120Notwendigkeit": 3698, "..": 3699, "oy": 3700, "uese": 3701, "\u0120due": 3702, "\u0120pot": 3703, "\u0120oft": 3704, "\u0120bedeutet": 3705, "\u0120Pri": 3706, "\u0120Gipf": 3707, "\u0120vertreten": 3708, "sehen": 3709, "\u0120Presidency": 3710, "\u0120Vorschriften": 3711, "\u0120Grundrechte": 3712, "\u0120relation": 3713, "aterial": 3714, "\u0120consumers": 3715, "hof": 3716, "\u0120Portuguese": 3717, "\u0120excellent": 3718, "g\u00c3\u00a4n": 3719, "\u0120fran": 3720, "\u0120circ": 3721, "ffice": 3722, "verb": 3723, "\u0120Antrag": 3724, "\u0120share": 3725, "immungen": 3726, "\u0120Aufgabe": 3727, "\u0120include": 3728, "\u0120build": 3729, "\u0120encour": 3730, "ba": 3731, "lies": 3732, "ators": 3733, "\u0120ve": 3734, "\u0120verw": 3735, "\u0120Leit": 3736, "\u0120Part": 3737, "ennung": 3738, "\u0120Pr\u00c3\u00a4sidentschaft": 3739, "staat": 3740, "\u0120Heraus": 3741, "\u0120Au\u00c3\u0141en": 3742, "\u0120jobs": 3743, "\u0120strengt": 3744, "\u0120tabled": 3745, "\u0120makes": 3746, "app": 3747, "\u0120erf\u00c3\u00bc": 3748, "\u0120resul": 3749, "\u0120Prot": 3750, "utzung": 3751, "\u0120perhaps": 3752, "\u0120Beihilfen": 3753, ".)": 3754, "fully": 3755, "iffen": 3756, "\u0120fall": 3757, "rael": 3758, "\u0120Dank": 3759, "\u0120French": 3760, "\u0120vern": 3761, "\u0120Ob": 3762, "atory": 3763, "\u0120m\u00c3\u00bc\u00c3\u0141": 3764, "\u0120vier": 3765, "\u0120vict": 3766, "lling": 3767, "ommun": 3768, "\u0120Wach": 3769, "\u0120Party": 3770, "\u0120expect": 3771, "forderungen": 3772, "\u0120costs": 3773, "\u0120oblig": 3774, "\u0120emphas": 3775, "\u0120guidelines": 3776, "ativ": 3777, "anges": 3778, "\u0120field": 3779, "\u0120Dok": 3780, "\u0120Kommissions": 3781, "ma\u00c3\u0141nahmen": 3782, "\u0120honour": 3783, "burg": 3784, "\u0120zun\u00c3\u00a4chst": 3785, "\u0120schnell": 3786, "Europ": 3787, "best": 3788, "government": 3789, "\u0120sett": 3790, "orm": 3791, "\u0120Agr": 3792, "weil": 3793, "\u012025": 3794, "\u0120Konfl": 3795, "\u0120unserem": 3796, "\u0120Qual": 3797, "f\u00c3\u00a4higkeit": 3798, "gliche": 3799, "low": 3800, "uc": 3801, "\u0120pur": 3802, "\u0120Wo": 3803, "\u0120Gre": 3804, "\u0120Co": 3805, "\u0120congratulate": 3806, "igungs": 3807, "\u0120quick": 3808, "\u0120meinem": 3809, "\u0120bestimmte": 3810, "\u0120Prior": 3811, "governmental": 3812, "\u0120bit": 3813, "\u0120portug": 3814, "\u00c3\u00bccht": 3815, "\u0120Min": 3816, "\u0120Brit": 3817, "\u0120Rass": 3818, "ustain": 3819, "\u0120Nr": 3820, "\u0120seen": 3821, "\u0120OLAF": 3822, "\u0120entire": 3823, "\u0120Ratspr\u00c3\u00a4sident": 3824, "\u0120Ass": 3825, "\u0120maintain": 3826, "\u0120ber\u00c3\u00bccksichtigt": 3827, "\u0120eigentlich": 3828, "\u0120portugies": 3829, "w\u00c3\u00bcn": 3830, "\u0120l\u00c3\u00a4nd": 3831, "\u0120verst": 3832, "duc": 3833, "\u0120comprom": 3834, "\u0120final": 3835, "\u0120gesamten": 3836, "\u0120Energie": 3837, "\u0120bre": 3838, "\u00c3\u00bch": 3839, "\u0120voting": 3840, "ichten": 3841, "\u00c3\u00a4nde": 3842, "\u0120amb": 3843, "\u0120gener": 3844, "\u0120provided": 3845, "\u0120konn": 3846, "\u0120agreed": 3847, "\u0120eindeutig": 3848, "\u0120Verbesserung": 3849, "zentr": 3850, "\u0120f\u00c3\u00bchr": 3851, "\u0120Schritt": 3852, "\u00c3\u00a4tigkeit": 3853, "mitted": 3854, "\u0120Gemeinsamen": 3855, "hes": 3856, "lt": 3857, "\u0120Pal": 3858, "oss": 3859, "\u0120verf\u00c3\u00bc": 3860, "\u0120erwar": 3861, "\u0120sever": 3862, "cken": 3863, "schaftlichen": 3864, "\u0120Janu": 3865, "\u0120Our": 3866, "\u0120eng": 3867, "\u0120solchen": 3868, "\u0120Bereichen": 3869, "richtung": 3870, "struct": 3871, "greifen": 3872, "\u0120prepared": 3873, "fortunately": 3874, "ivers": 3875, "ond": 3876, "\u0120bzw": 3877, "iglich": 3878, "\u0120Punkte": 3879, "\u0120Kap": 3880, "\u0120sex": 3881, "\u00c3\u00bcssel": 3882, "mitteln": 3883, "\u0120continu": 3884, "\u0120mer": 3885, "\u0120Tag": 3886, "illeg": 3887, "\u0120gee": 3888, "orth": 3889, "\u0120demon": 3890, "\u0120seinem": 3891, "\u0120obvious": 3892, "\u0120needed": 3893, "arbeiten": 3894, "\u0120Staats": 3895, "\u0120Mitteilung": 3896, "\u0120initi": 3897, "\u0120ME": 3898, "\u0120gra": 3899, "\u0120Inform": 3900, "ither": 3901, "\u0120improve": 3902, "\u0120Prinzip": 3903, "\u0120Forschung": 3904, "\u0120Diskussion": 3905, "aut": 3906, "hnen": 3907, "side": 3908, "\u0120ty": 3909, "itim": 3910, "\u0120Bas": 3911, "\u0120line": 3912, "\u0120star": 3913, "\u0120stud": 3914, "\u0120Nahr": 3915, "u\u00c3\u0141t": 3916, "\u0120Austria": 3917, "stell": 3918, "\u0120workers": 3919, "\u0120basic": 3920, "\u0120elect": 3921, "\u0120Plen": 3922, "arf": 3923, "temp": 3924, "\u0120eas": 3925, "sprechen": 3926, "anken": 3927, "\u01201997": 3928, "\u0120Entschlie\u00c3\u0141ungs": 3929, "\u0120umfassen": 3930, "\u0120lediglich": 3931, "\u0120significant": 3932, "03": 3933, "pid": 3934, "\u0120vergangenen": 3935, "\u0120schein": 3936, "\u0120poor": 3937, "\u0120richtig": 3938, "\u0120population": 3939, "atisf": 3940, "AD": 3941, "imme": 3942, "\u0120Zum": 3943, "\u0120Wirk": 3944, "\u0120One": 3945, "ysteme": 3946, "\u0120Richtung": 3947, "folgt": 3948, "\u0120procedures": 3949, "\u0120langu": 3950, "\u0120anim": 3951, "\u0120vis": 3952, "\u0120Denn": 3953, "\u0120Kamp": 3954, "\u00c3\u00bcrz": 3955, "\u0120Nicht": 3956, "\u0120hatten": 3957, "\u0120changes": 3958, "\u0120etwa": 3959, "\u0120throughout": 3960, "\u0120gelten": 3961, "\u0120values": 3962, "\u0120criter": 3963, "\u0120sense": 3964, "umente": 3965, "\u0120Gr\u00c3\u00bcnden": 3966, "\u0120Empfehl": 3967, "\u0120until": 3968, "\u0120network": 3969, "most": 3970, "s\u00c3\u00a4tz": 3971, "z\u00c3\u00b6s": 3972, "\u0120ban": 3973, "entions": 3974, "\u0120rein": 3975, "\u0120low": 3976, "\u0120stark": 3977, "\u0120\u00c3\u0126nderung": 3978, "kontro": 3979, "\u0120gleichzeitig": 3980, "\u0120M\u00c3\u00b6glichkeiten": 3981, "\u0120commitment": 3982, "\u0120Volk": 3983, "\u0120sustain": 3984, "\u0120derart": 3985, "\u0120repe": 3986, "\u0120durchge": 3987, "plan": 3988, "yn": 3989, "\u0120beg": 3990, "cep": 3991, "\u0120stop": 3992, "\u0120partners": 3993, "arbeitet": 3994, "\u0120Leg": 3995, "legenheiten": 3996, "\u0120Themen": 3997, "ffentlichkeit": 3998, "\u0120Nahrungs": 3999, "\u0120disch": 4000, "esen": 4001, "\u0120eingehen": 4002, "\u0120Tod": 4003, "\u0120Wahl": 4004, "\u0120land": 4005, "\u0120gef\u00c3\u00bchrt": 4006, "oph": 4007, "la\u00c3\u0141": 4008, "\u0120Mitglieder": 4009, "\u0120rad": 4010, "\u0120raised": 4011, "\u0120\u00c3\u0138ffentlichkeit": 4012, "\u0120zus\u00c3\u00a4tz": 4013, "\u0120Zweitens": 4014, "\u0120Agrar": 4015, "by": 4016, "fert": 4017, "oren": 4018, "alten": 4019, "\u0120Aut": 4020, "imb": 4021, "\u0120verhin": 4022, "\u0120extend": 4023, "gebracht": 4024, "\u0120getan": 4025, "\u0120true": 4026, "\u0120expressed": 4027, "gewiesen": 4028, "\u0120zweite": 4029, "\u0120angesichts": 4030, "\u0120aspects": 4031, "\u0120Erkl\u00c3\u00a4rung": 4032, "bare": 4033, "cr": 4034, "inne": 4035, "\u0120Leben": 4036, "\u0120assess": 4037, "\u00c3\u00a4\u00c3\u0141t": 4038, "\u0120Fremden": 4039, "\u0120sagte": 4040, "\u0120analys": 4041, "\u0120Verf\u00c3\u00bcgung": 4042, "ana": 4043, "\u0120either": 4044, "\u0120pa": 4045, "\u0120Mal": 4046, "\u0120Human": 4047, "\u0120vorgelegt": 4048, "\u0120Ant": 4049, "\u0120rest": 4050, "\u0120provisions": 4051, "\u0120employ": 4052, "\u0120carried": 4053, "\u0120folgen": 4054, "\u0120meeting": 4055, "\u0120Angelegenheit": 4056, "\u0120Partei": 4057, "\u0120Freiheit": 4058, "\u0120Wachstum": 4059, "\u0120purp": 4060, "aat": 4061, "fre": 4062, "\u0120five": 4063, "\u0120nam": 4064, "\u0120Will": 4065, "\u0120appe": 4066, "\u0120betroffen": 4067, "\u0120asked": 4068, "\u0120established": 4069, "\u0120Entscheidungen": 4070, "leistet": 4071, "\u0120Tatsache": 4072, "\u0120Damit": 4073, "\u0120type": 4074, "\u0120macht": 4075, "alit\u00c3\u00a4t": 4076, "\u0120clar": 4077, "geleg": 4078, "\u0120beant": 4079, "\u0120Sache": 4080, "\u0120ihn": 4081, "\u0120unseres": 4082, "f\u00c3\u00a4lle": 4083, "\u0120required": 4084, "ialogue": 4085, "\u0120Ira": 4086, "\u0120che": 4087, "line": 4088, "arbeitung": 4089, "\u0120Steuer": 4090, "\u0120prakt": 4091, "\u0120contribution": 4092, "kommens": 4093, "\u0120suggest": 4094, "go": 4095, "\u0120bor": 4096, "asch": 4097, "\u0120lange": 4098, "\u0120week": 4099, "zulegen": 4100, "\u0120wobei": 4101, "lemented": 4102, "\u0120term": 4103, "\u0120achieved": 4104, "son": 4105, "edi": 4106, "igr": 4107, "\u0120fail": 4108, "\u0120everyone": 4109, "\u0120wesentlich": 4110, "\u0120Informations": 4111, "nissen": 4112, "por": 4113, "aring": 4114, "\u0120unabh\u00c3\u00a4ng": 4115, "\u0120Dialog": 4116, "\u0120stimmen": 4117, "\u0120Zun\u00c3\u00a4chst": 4118, "\u0120leider": 4119, "ielle": 4120, "istischen": 4121, "\u0120chocol": 4122, "hlen": 4123, "\u0120nature": 4124, "gl\u00c3\u00bcck": 4125, "\u0120Stellungnahme": 4126, "\u0120grundlegen": 4127, "\u0120Arbeitspl": 4128, "\u0120Rassismus": 4129, "ison": 4130, "\u0120setzen": 4131, "iew": 4132, "\u0120bitte": 4133, "\u0120fr\u00c3\u00bc": 4134, "\u0120Serb": 4135, "stellt": 4136, "\u0120Eng": 4137, "\u0120Zeitpunkt": 4138, "\u0120gro\u00c3\u0141er": 4139, "\u0120heraus": 4140, "gesellschaft": 4141, "\u0120presented": 4142, "pendent": 4143, "\u0120Zugang": 4144, "\u0120dialogue": 4145, "ieten": 4146, "igte": 4147, "\u0120Position": 4148, "indung": 4149, "\u0120Abschlie\u00c3\u0141end": 4150, "okol": 4151, "gebung": 4152, "\u0120Sektor": 4153, "\u0120confidence": 4154, "\u0120organisations": 4155, "gu": 4156, "\u0120educ": 4157, "\u0120whose": 4158, "\u0120H\u00c3\u00b6": 4159, "\u0120conne": 4160, "\u0120Anfrage": 4161, "\u0120Regional": 4162, "bildung": 4163, "pite": 4164, "rug": 4165, "uppe": 4166, "\u0120cla": 4167, "\u0120unemp": 4168, "\u0120verg": 4169, "\u0120comb": 4170, "\u0120hinweisen": 4171, "\u0120decided": 4172, "\u0120carry": 4173, "\u0120Seite": 4174, "\u0120tats\u00c3\u00a4chlich": 4175, "\u0120results": 4176, "gument": 4177, "\u0120illeg": 4178, "unities": 4179, "\u0120w\u00c3\u00bcn": 4180, "\u0120besch\u00c3\u00a4ft": 4181, "\u0120Ir": 4182, "\u0120Pra": 4183, "\u0120verl": 4184, "\u0120heut": 4185, "\u0120Belg": 4186, "\u0120total": 4187, "\u0120chocolate": 4188, "ellen": 4189, "more": 4190, "\u0120stage": 4191, "\u0120Integr": 4192, "\u0120exam": 4193, "\u012021": 4194, "cco": 4195, "reiche": 4196, "conomic": 4197, "\u0120China": 4198, "schlie\u00c3\u0141lich": 4199, "\u0120markets": 4200, "\u0120remind": 4201, "\u0120Beschlu\u00c3\u0141": 4202, "\u0120correct": 4203, "\u0120allgemeinen": 4204, "enntnis": 4205, "ennen": 4206, "\u0120akt": 4207, "\u0120Fern": 4208, "iding": 4209, "\u0120soon": 4210, "verty": 4211, "\u0120erheb": 4212, "formen": 4213, "\u012018": 4214, "\u0120poverty": 4215, "\u0120funding": 4216, "\u0120Democ": 4217, "\u0120Vertrags": 4218, "\u0120Ergebnis": 4219, "\u0120doubt": 4220, "\u0120franz\u00c3\u00b6s": 4221, "\u0120several": 4222, "imbab": 4223, "onen": 4224, "\u0120thing": 4225, "tem": 4226, "\u0120Per": 4227, "schlu\u00c3\u0141": 4228, "\u0120fast": 4229, "\u0120cho": 4230, "\u0120Haushalt": 4231, "\u0120delay": 4232, "\u0120limit": 4233, "\u0120existing": 4234, "\u0120Personen": 4235, "):": 4236, "of": 4237, "\u0120dest": 4238, "\u0120turn": 4239, "\u0120hoch": 4240, "\u0120candid": 4241, "\u0120Minder": 4242, "\u0120Den": 4243, "\u0120Res": 4244, "\u0120betreffen": 4245, "heben": 4246, "haupt": 4247, "\u0120strengthen": 4248, "\u0120bef\u00c3\u00bcr": 4249, "fft": 4250, "\u0120Vers": 4251, "rang": 4252, "\u0120modern": 4253, "\u0120seek": 4254, "zeichne": 4255, "\u0120Israel": 4256, "cies": 4257, "atic": 4258, "ichen": 4259, "\u0120foc": 4260, "\u0120V\u00c3\u00b6lk": 4261, "\u0120wegen": 4262, "\u0120Ju": 4263, "rief": 4264, "\u0120Strategie": 4265, "\u0120Beitritts": 4266, "\u0120urg": 4267, "\u0120bestimmten": 4268, "\u0120broad": 4269, "\u0120Direct": 4270, "\u0120Natur": 4271, "\u0120assistance": 4272, "ested": 4273, "\u00c3\u00bclt": 4274, "\u0120beteil": 4275, "\u0120San": 4276, "\u0120l\u00c3\u00a4\u00c3\u0141t": 4277, "\u0120yes": 4278, "\u0120Erstens": 4279, "\u0120Gelegenheit": 4280, "struktur": 4281, "\u0120promote": 4282, "\u0120folgt": 4283, "\u0120according": 4284, "\u0120Firstly": 4285, "\u0120Vertreter": 4286, "\u0120Komprom": 4287, "\u0120discharge": 4288, "\u0120spiel": 4289, "\u0120tragen": 4290, "\u0120tradition": 4291, "folge": 4292, "legung": 4293, "\u0120offer": 4294, "\u0120Vereinbar": 4295, "\u0120capital": 4296, "\u0120motion": 4297, "\u0120pleased": 4298, "agraph": 4299, "ences": 4300, "\u0120fisher": 4301, "arian": 4302, "\u0120verein": 4303, "\u0120beha": 4304, "\u0120M\u00c3\u00a4r": 4305, "\u0120zust\u00c3\u00a4nd": 4306, "gency": 4307, "\u0120ko": 4308, "peten": 4309, "ulture": 4310, "\u0120implemented": 4311, "inki": 4312, "\u0120Dec": 4313, "langen": 4314, "elsinki": 4315, "\u0120Koordin": 4316, "\u0120Fl\u00c3\u00bccht": 4317, "\u0120begr\u00c3\u00bc\u00c3\u0141en": 4318, "\u0120compromise": 4319, "\u0120criteria": 4320, "\u0120tour": 4321, "elten": 4322, "\u0120Rom": 4323, "\u0120Helsinki": 4324, "\u0120erziel": 4325, "\u0120genommen": 4326, "\u0120tele": 4327, "teilen": 4328, "setzungen": 4329, "\u0120practice": 4330, "\u0120private": 4331, "\u0120Folgen": 4332, "\u0120quickly": 4333, "\u0120satisf": 4334, "\u0120beh": 4335, "liches": 4336, "\u0120komp": 4337, "\u0120fort": 4338, "\u0120aufgenommen": 4339, "\u0120Schokol": 4340, "\u0120unterb": 4341, "iveness": 4342, "\u0120Rechtsvorschriften": 4343, "\u0120held": 4344, "\u0120arbeiten": 4345, "ians": 4346, "oung": 4347, "\u0120hold": 4348, "\u0120Post": 4349, "\u0120WTO": 4350, "\u0120fordern": 4351, "ume": 4352, "\u0120LE": 4353, "\u0120Regelung": 4354, "\u0120jedem": 4355, "\u0120Mitgliedstaat": 4356, "\u0120Menschenrechts": 4357, "\u0120transparen": 4358, "\u0120beschlossen": 4359, "\u0120German": 4360, "\u0120begr\u00c3\u00bc\u00c3\u0141e": 4361, "\u0120angesprochen": 4362, "\u0120Lebensmittel": 4363, "weden": 4364, "\u0120bleiben": 4365, "uted": 4366, "stead": 4367, "\u0120facil": 4368, "\u0120keiner": 4369, "mitglie": 4370, "prinzip": 4371, "\u0120levels": 4372, "\u0120angem": 4373, "\u0120priority": 4374, "\u0120affect": 4375, "w\u00c3\u00bcrd": 4376, "ADER": 4377, "az": 4378, "nommen": 4379, "uff": 4380, "\u0120Sinne": 4381, "\u0120light": 4382, "\u0120erster": 4383, "\u0120Lin": 4384, "gesamt": 4385, "gerungen": 4386, "\u0120incor": 4387, "\u0120Koh": 4388, "\u0120Flug": 4389, "\u0120Bestimmungen": 4390, "\u0120talking": 4391, "\u0120balance": 4392, "\u0120suffer": 4393, "aden": 4394, "\u0120ph": 4395, "\u0120Famil": 4396, "\u0120Kraft": 4397, "osla": 4398, "ests": 4399, "\u0120profit": 4400, "\u0120determ": 4401, "ugosla": 4402, "griffen": 4403, "\u0120Absatz": 4404, "\u0120Einf\u00c3\u00bchrung": 4405, "\u0120indic": 4406, "\u0120liegen": 4407, "geschlossen": 4408, "\u0120Gerichts": 4409, "\u0120USA": 4410, "\u0120task": 4411, "\u0120sitting": 4412, "\u0120foreign": 4413, "\u0120LEADER": 4414, "NT": 4415, "dict": 4416, "iere": 4417, "\u0120dat": 4418, "tell": 4419, "imension": 4420, "\u0120safe": 4421, "losigkeit": 4422, "\u0120saying": 4423, "pril": 4424, "\u012040": 4425, "\u0120Gro\u00c3\u0141": 4426, "\u0120reading": 4427, "\u0120Industrie": 4428, "chanis": 4429, "\u0120erm\u00c3\u00b6glichen": 4430, "\u0120innov": 4431, "ikt": 4432, "\u0120sorgen": 4433, "\u0120inst": 4434, "\u0120old": 4435, "\u0120vol": 4436, "\u00c3\u00b6sen": 4437, "\u0120staat": 4438, "\u0120except": 4439, "wegen": 4440, "\u0120Ansatz": 4441, "\u0120young": 4442, "\u0120Angelegenheiten": 4443, "\u0120Rede": 4444, "\u0120completely": 4445, "\u0120focus": 4446, "pf": 4447, "legt": 4448, "\u0120criminal": 4449, "olution": 4450, "\u0120Tra": 4451, "\u0120head": 4452, "\u0120note": 4453, "\u0120knowledge": 4454, "\u0120B\u00c3\u00bcrgern": 4455, "\u0120verbunden": 4456, "\u0120bewu\u00c3\u0141t": 4457, "\u0120histor": 4458, "\u0120absolutely": 4459, "wand": 4460, "\u0120blo": 4461, "leben": 4462, "\u0120April": 4463, "\u0120Pe": 4464, "\u0120Nos": 4465, "\u0120Nationen": 4466, "\u00c3\u00a4nger": 4467, "ufig": 4468, "\u0120obwohl": 4469, "\u0120prepar": 4470, "\u0120refuge": 4471, "\u0120specif": 4472, "\u0120Span": 4473, "\u0120immedi": 4474, "abei": 4475, "\u0120conflict": 4476, "organisation": 4477, "wan": 4478, "\u0120cru": 4479, "\u0120Dabei": 4480, "nehm": 4481, "\u0120Anst": 4482, "\u0120party": 4483, "\u0120road": 4484, "ethod": 4485, "\u0120scient": 4486, "\u0120highl": 4487, "\u0120wirtschaftliche": 4488, "\u0120relevant": 4489, "\u0120colleagues": 4490, "CP": 4491, "ieht": 4492, "\u0120unver": 4493, "\u0120Polic": 4494, "\u0120meisten": 4495, "\u0120Entlast": 4496, "\u0120gesprochen": 4497, "auer": 4498, "handlung": 4499, "\u0120industr": 4500, "\u0120Amendments": 4501, "\u0120else": 4502, "imbabwe": 4503, "bt": 4504, "iop": 4505, "pre": 4506, "\u0120cut": 4507, "\u0120top": 4508, "\u0120bevor": 4509, "\u0120Versch": 4510, "\u0120Instrument": 4511, "laub": 4512, "\u0120move": 4513, "\u0120Richtlinien": 4514, "\u0120Meine": 4515, "\u0120assoc": 4516, "\u0120Bemerk": 4517, "\u0120Dokument": 4518, "uclear": 4519, "KP": 4520, "ehen": 4521, "hung": 4522, "oz": 4523, "alu": 4524, "\u0120Haltung": 4525, "\u0120gem\u00c3\u00a4\u00c3\u0141": 4526, "\u0120Les": 4527, "ienen": 4528, "\u0120legitim": 4529, "\u0120Kons": 4530, "\u0120solidar": 4531, "\u0120justice": 4532, "\u0120refle": 4533, "\u0120irgend": 4534, "ikanischen": 4535, "ait": 4536, "\u0120san": 4537, "\u0120S\u00c3\u00bcd": 4538, "hrte": 4539, "\u0120stability": 4540, "ending": 4541, "\u0120Armut": 4542, "thiop": 4543, "\u0120provision": 4544, "\u0120regards": 4545, "\u0120included": 4546, "\u0120sufficient": 4547, "\u0120h\u00c3\u00b6ch": 4548, "\u0120Verwaltung": 4549, "\u0120Schwier": 4550, "\u0120racism": 4551, "ATO": 4552, "\u0120though": 4553, "orr": 4554, "gehend": 4555, "\u0120INT": 4556, "\u0120Tat": 4557, "eind": 4558, "\u0120attemp": 4559, "istic": 4560, "\u0120Erfahr": 4561, "\u0120rapid": 4562, "\u0120Arbeitnehmer": 4563, "\u0120produc": 4564, "\u0120akzeptieren": 4565, "\u0120application": 4566, "\u0120Kampf": 4567, "vision": 4568, "anced": 4569, "\u0120mis": 4570, "\u0120hard": 4571, "\u0120cause": 4572, "\u0120Summit": 4573, "\u0120recon": 4574, "\u0120Daten": 4575, "\u0120Dritt": 4576, "ession": 4577, "\u0120coher": 4578, "\u0120schem": 4579, "ourcen": 4580, "\u0120interess": 4581, "\u0120allein": 4582, "\u0120everything": 4583, "\u0120budgetary": 4584, "\u0120representatives": 4585, "ziehung": 4586, "\u0120Quest": 4587, "\u0120pers\u00c3\u00b6n": 4588, "\u0120honourable": 4589, "\u0120vergessen": 4590, "\u0120transparency": 4591, "\u0120happ": 4592, "\u0120Schiff": 4593, "staaten": 4594, "\u0120pr\u00c3\u00bc": 4595, "\u0120expla": 4596, "\u0120Kont": 4597, "wendet": 4598, "\u00c3\u00a4ndert": 4599, "\u0120considered": 4600, "\u0120accep": 4601, "\u0120Liberalisierung": 4602, "z\u00c3\u00bcglich": 4603, "\u0120erinnern": 4604, "\u0120farmers": 4605, "gungen": 4606, "hem": 4607, "ko": 4608, "tent": 4609, "tragen": 4610, "isiert": 4611, "arenz": 4612, "\u0120unbeding": 4613, "\u0120South": 4614, "\u0120By": 4615, "\u0120Dinge": 4616, "\u0120li": 4617, "\u0120st\u00c3\u00a4nd": 4618, "endit": 4619, "\u0120above": 4620, "\u012016": 4621, "theless": 4622, "ighted": 4623, "\u0120concl": 4624, "\u0120impact": 4625, "ternal": 4626, "geln": 4627, "\u0120gleichen": 4628, "\u0120fraud": 4629, "\u0120requirements": 4630, "\u0120namely": 4631, "\u0120data": 4632, "erc": 4633, "\u0120tar": 4634, "isely": 4635, "\u0120fig": 4636, "\u0120begl\u00c3\u00bcck": 4637, "\u0120Krieg": 4638, "\u00c3\u00b6ff": 4639, "\u0120Ged": 4640, "ums": 4641, "\u0120verab": 4642, "\u0120rural": 4643, "\u0120applied": 4644, "\u0120distrib": 4645, "\u0120Dieses": 4646, "\u0120endlich": 4647, "\u0120approved": 4648, "\u0120Sicherheits": 4649, "zeichnet": 4650, "\u0120danke": 4651, "\u0120avo": 4652, "\u0120h\u00c3\u00a4tten": 4653, "\u0120Patten": 4654, "\u0120victims": 4655, "\u0120Policy": 4656, "Os": 4657, "ding": 4658, "\u0120times": 4659, "\u0120ACP": 4660, "\u0120list": 4661, "iers": 4662, "\u0120erfolg": 4663, "\u0120abge": 4664, "\u0120unterst": 4665, "\u0120appear": 4666, "\u0120spezie": 4667, "\u0120europ\u00c3\u00a4ischer": 4668, "handel": 4669, "\u0120reference": 4670, "\u0120General": 4671, "ERRE": 4672, "\u0120versuchen": 4673, "\u0120Vertrauen": 4674, "dr\u00c3\u00bccklich": 4675, "\u0120Democrat": 4676, "\u0120begl\u00c3\u00bcckw\u00c3\u00bcn": 4677, "ERREG": 4678, "ij": 4679, "\u0120einzu": 4680, "rachte": 4681, "rachen": 4682, "\u0120left": 4683, "okoll": 4684, "\u0120durchaus": 4685, "\u0120Stelle": 4686, "\u0120reduce": 4687, "\u0120vollst\u00c3\u00a4nd": 4688, "\u0120value": 4689, "\u0120Produkt": 4690, "\u0120Strukturfonds": 4691, "\u0120Transparenz": 4692, "\u0120Dienstleist": 4693, "\u0120pollution": 4694, "\u0120Opfer": 4695, "oin": 4696, "under": 4697, "\u0120sus": 4698, "\u0120Sc": 4699, "utter": 4700, "scht": 4701, "\u0120Wissen": 4702, "\u0120Further": 4703, "hern": 4704, "\u0120NATO": 4705, "\u0120leisten": 4706, "ured": 4707, "\u0120community": 4708, "\u0120observ": 4709, "\u0120Handels": 4710, "\u0120Durchf\u00c3\u00bchrung": 4711, "\u0120Projekte": 4712, "\u0120Leitlinien": 4713, "\u0120INTERREG": 4714, "EN": 4715, "ars": 4716, "\u00c3\u00bcgen": 4717, "uten": 4718, "tr\u00c3\u00a4cht": 4719, "schlie\u00c3\u0141en": 4720, "\u0120consideration": 4721, "\u0120response": 4722, "\u0120received": 4723, "\u0120Diskriminierung": 4724, "\u0120initiatives": 4725, "\u0120specifically": 4726, "part": 4727, "erweise": 4728, "\u0120method": 4729, "leit": 4730, "\u0120AKP": 4731, "icles": 4732, "terday": 4733, "\u0120Last": 4734, "\u0120Inde": 4735, "laufen": 4736, "ifel": 4737, "\u0120Annahme": 4738, "\u012017": 4739, "itionen": 4740, "velopment": 4741, "\u0120gestimmt": 4742, "\u0120International": 4743, "\u0120bleibt": 4744, "\u0120Schlu\u00c3\u0141fol": 4745, "\u00c3\u00bchungen": 4746, "\u0120candidate": 4747, "minister": 4748, "sicherheit": 4749, "\u0120central": 4750, "\u0120verantwort": 4751, "lauf": 4752, "\u0120Absicht": 4753, "\u00c3\u00a4rm": 4754, "\u0120content": 4755, "reiten": 4756, "\u0120equal": 4757, "\u0120critic": 4758, "\u0120review": 4759, "\u0120Ergebnisse": 4760, "rechend": 4761, "\u0120Zusatz": 4762, "\u0120Aspekte": 4763, "\u0120behandelt": 4764, "dienst": 4765, "\u0120May": 4766, "abak": 4767, "\u0120run": 4768, "\u0120rene": 4769, "\u0120gebracht": 4770, "\u0120Greece": 4771, "\u0120behind": 4772, "\u0120unbedingt": 4773, "IP": 4774, "bru": 4775, "eg": 4776, "met": 4777, "s\u00c3\u00a4tze": 4778, "erve": 4779, "\u0120bl": 4780, "\u0120pension": 4781, "\u0120called": 4782, "\u0120Ide": 4783, "uter": 4784, "industrie": 4785, "ibe": 4786, "\u0120Of": 4787, "\u0120anything": 4788, "\u0120discussions": 4789, "\u0120practical": 4790, "\u0120anderer": 4791, "\u0120Gesch\u00c3\u00a4ftsordnung": 4792, "Office": 4793, "isis": 4794, "leisten": 4795, "\u0120toba": 4796, "\u0120einheit": 4797, "\u0120Kr": 4798, "istische": 4799, "\u0120Erfolg": 4800, "\u0120Grie": 4801, "zieht": 4802, "accept": 4803, "\u0120Afrika": 4804, "\u0120investment": 4805, "\u0120zweiten": 4806, "\u0120198": 4807, "\u0120gew\u00c3\u00a4hrleisten": 4808, "\u0120Verpflichtungen": 4809, "\u0120Vorsitz": 4810, "\u0120f\u00c3\u00b6rdern": 4811, "bahn": 4812, "iterr": 4813, "\u0120ought": 4814, "\u0120purs": 4815, "\u0120unaccept": 4816, "\u0120Paper": 4817, "\u0120Wel": 4818, "\u0120Wider": 4819, "\u0120Kenntnis": 4820, "\u0120Vergangen": 4821, "struction": 4822, "\u0120crisis": 4823, "\u0120Febru": 4824, "\u0120culture": 4825, "\u0120consequences": 4826, "\u0120Kompromi\u00c3\u0141": 4827, "\u0120tobacco": 4828, "\u0120weder": 4829, "\u0120ine": 4830, "\u0120fl": 4831, "\u0120une": 4832, "\u0120vere": 4833, "ctural": 4834, "zehn": 4835, "\u0120heard": 4836, "\u0120movement": 4837, "troffen": 4838, "\u0120Structural": 4839, "bourg": 4840, "\u0120military": 4841, "\u0120Partner": 4842, "\u0120unemployment": 4843, "\u0120Integration": 4844, "\u0120V\u00c3\u00b6lker": 4845, "stre": 4846, "\u0120When": 4847, "\u0120lok": 4848, "\u0120Gar": 4849, "\u0120\u00c3\u00bcberhaupt": 4850, "\u0120Beteil": 4851, "\u0120m\u00c3\u00b6chten": 4852, "\u0120propose": 4853, "\u0120Konferenz": 4854, "\u0120\u00c3\u0126nderungen": 4855, "\u0120training": 4856, "\u0120Grundsatz": 4857, "\u0120insgesamt": 4858, "\u0120recently": 4859, "\u0120overall": 4860, "\u0120wiederhol": 4861, "\u0120integration": 4862, "\u0120vorliegenden": 4863, "\u0120Fischerei": 4864, "\u0120dringend": 4865, "\u0120potential": 4866, "iterran": 4867, "lik": 4868, "lant": 4869, "\u0120trotz": 4870, "\u0120Pr\u00c3\u00a4": 4871, "abel": 4872, "\u0120Nie": 4873, "ensicht": 4874, "pekt": 4875, "grenz": 4876, "aging": 4877, "\u0120increased": 4878, "\u0120authority": 4879, "\u0120Augen": 4880, "\u0120plans": 4881, "\u0120konkrete": 4882, "\u0120Zustimmung": 4883, "\u0120precisely": 4884, "\u0120Woche": 4885, "\u0120verbessern": 4886, "\u0120circum": 4887, "igration": 4888, "\u0120education": 4889, "\u0120Schwierigkeiten": 4890, "\u0120Vergangenheit": 4891, "Fra": 4892, "durch": 4893, "\u0120cred": 4894, "\u0120Kom": 4895, "\u0120gefordert": 4896, "\u0120getroffen": 4897, "\u0120verk": 4898, "\u0120leben": 4899, "quate": 4900, "\u0120intervention": 4901, "\u0120tell": 4902, "\u0120hingewiesen": 4903, "\u0120takes": 4904, "sproze\u00c3\u0141": 4905, "\u0120Frank": 4906, "\u0120Arbeitspl\u00c3\u00a4tze": 4907, "liz": 4908, "chter": 4909, "\u0120infl": 4910, "\u0120mass": 4911, "etze": 4912, "\u0120proceed": 4913, "\u0120Entwurf": 4914, "\u0120using": 4915, "\u00c3\u00bcnst": 4916, "\u0120Bereiche": 4917, "\u00c3\u00a4mt": 4918, "zusetzen": 4919, "\u0120sectors": 4920, "\u0120wesentlichen": 4921, "\u0120Fehl": 4922, "bedingungen": 4923, "\u0120Nat\u00c3\u00bcrlich": 4924, "\u0120model": 4925, "\u0120dangerous": 4926, "\u0120bitten": 4927, "hesion": 4928, "\u0120connection": 4929, "\u0120Lesung": 4930, "\u0120pr\u00c3\u00bcfen": 4931, "\u0120Griechen": 4932, "Pro": 4933, "uber": 4934, "\u0120bi": 4935, "\u0120flexib": 4936, "\u0120East": 4937, "\u0120M\u00c3\u00a4n": 4938, "\u0120gerecht": 4939, "\u0120Katastrop": 4940, "\u0120condem": 4941, "ufact": 4942, "\u0120comments": 4943, "wogen": 4944, "\u0120geschaffen": 4945, "\u0120improvement": 4946, "hoben": 4947, "\u0120Bem\u00c3\u00bchungen": 4948, "\u0120scheint": 4949, "gelegten": 4950, "bet": 4951, "fect": 4952, "mark": 4953, "isieren": 4954, "\u0120sy": 4955, "\u0120sound": 4956, "\u0120entschieden": 4957, "\u0120char": 4958, "\u0120zumindest": 4959, "\u0120wichtigsten": 4960, "\u0120author": 4961, "\u0120risks": 4962, "\u0120gesamte": 4963, "\u0120referred": 4964, "\u0120Fortschritte": 4965, "\u0120fishing": 4966, "\u0120Koordinierung": 4967, "\u0120incorpor": 4968, "\u0120crucial": 4969, "\u0120Furthermore": 4970, "\u0120unacceptable": 4971, "ux": 4972, "\u0120oil": 4973, "denken": 4974, "ets": 4975, "\u0120How": 4976, "\u0120manufact": 4977, "\u0120counter": 4978, "teilt": 4979, "\u0120Intergovernmental": 4980, "\u0120formul": 4981, "\u0120demokratischen": 4982, "\u0120conclusions": 4983, "\u0120monitoring": 4984, "\u0120K\u00c3\u00b6nig": 4985, "tember": 4986, "PE": 4987, "h\u00c3\u00a4n": 4988, "ief": 4989, "\u0120pat": 4990, "\u0120huge": 4991, "\u0120diejenigen": 4992, "\u0120krit": 4993, "\u0120rate": 4994, "\u0120vorsch": 4995, "uellen": 4996, "\u0120max": 4997, "\u0120Aufmerksam": 4998, "\u0120damage": 4999, "kennen": 5000, "\u0120crime": 5001, "\u0120jeweil": 5002, "\u0120ber\u00c3\u00bccksichtigen": 5003, "\u0120coordination": 5004, "\u0120British": 5005, "\u0120f\u00c3\u00bchrt": 5006, "\u0120Schokolade": 5007, "OM": 5008, "\u0120tim": 5009, "atten": 5010, "iet": 5011, "teile": 5012, "\u0120nutzen": 5013, "\u0120uner": 5014, "ires": 5015, "\u0120amount": 5016, "icking": 5017, "\u0120hinter": 5018, "\u0120Kollege": 5019, "ffected": 5020, "\u0120selbstverst\u00c3\u00a4ndlich": 5021, "\u0120Nahrungsmittel": 5022, "\u0120Aufmerksamkeit": 5023, "ood": 5024, "tik": 5025, "\u0120tack": 5026, "este": 5027, "\u0120inspect": 5028, "\u0120mess": 5029, "\u00c3\u00a4ter": 5030, "stra": 5031, "\u0120Eisen": 5032, "rach": 5033, "zeugen": 5034, "ourn": 5035, "\u0120comment": 5036, "\u0120Grenzen": 5037, "f\u00c3\u00bchren": 5038, "\u0120substant": 5039, "\u0120konzentr": 5040, "\u0120relating": 5041, "\u0120Therefore": 5042, "\u0120Hinsicht": 5043, "\u0120direction": 5044, "\u0120France": 5045, "\u0120structural": 5046, "\u0120creating": 5047, "\u0120Protokoll": 5048, "iterranean": 5049, "Fraktion": 5050, "nern": 5051, "raten": 5052, "\u0120around": 5053, "\u0120affected": 5054, "\u0120Tabak": 5055, "\u0120Falle": 5056, "hren": 5057, "\u0120verd": 5058, "\u0120export": 5059, "\u0120extent": 5060, "\u0120rule": 5061, "ucht": 5062, "\u0120becom": 5063, "\u0120Development": 5064, "\u0120Landes": 5065, "\u0120White": 5066, "\u0120discussed": 5067, "\u0120ausgezeichne": 5068, "\u0120powers": 5069, "\u0120cultural": 5070, "\u0120normal": 5071, "\u0120created": 5072, "haben": 5073, "\u0120W\u00c3\u00a4hrung": 5074, "\u0120experience": 5075, "frei": 5076, "\u0120pen": 5077, "\u0120Barn": 5078, "ilar": 5079, "\u0120Verteid": 5080, "chtung": 5081, "\u0120genet": 5082, "\u0120consult": 5083, "rifft": 5084, "\u0120mob": 5085, "\u0120\u00c3\u0126nderungsantr\u00c3\u00a4gen": 5086, "\u0120opportunities": 5087, "\u0120zeigt": 5088, "\u0120funktion": 5089, "ornograph": 5090, "\u0120schlie\u00c3\u0141lich": 5091, "\u0120bilater": 5092, "\u0120verst\u00c3\u00a4r": 5093, "200": 5094, "\u0120woll": 5095, "\u0120s\u00c3\u00a4mt": 5096, "teen": 5097, "\u0120ever": 5098, "\u0120Pol": 5099, "\u0120PPE": 5100, "\u0120giving": 5101, "\u0120Bank": 5102, "\u0120despite": 5103, "\u0120Initi": 5104, "\u0120National": 5105, "\u0120exact": 5106, "\u0120nachhalt": 5107, "ierenden": 5108, "\u0120jedes": 5109, "\u0120beschr\u00c3\u00a4n": 5110, "wertung": 5111, "\u0120detail": 5112, "zuf\u00c3\u00bchren": 5113, "\u0120verhindern": 5114, "action": 5115, "ior": 5116, "\u0120sinn": 5117, "anze": 5118, "\u0120Tour": 5119, "\u0120Kommun": 5120, "etary": 5121, "\u0120Russ": 5122, "\u0120constit": 5123, "\u0120Ang": 5124, "\u0120sieht": 5125, "ption": 5126, "\u0120expendit": 5127, "teilung": 5128, "\u0120elections": 5129, "\u0120Finanzierung": 5130, "\u0120seriously": 5131, "mission": 5132, "\u0120occas": 5133, "\u0120producers": 5134, ").": 5135, "fs": 5136, "\u0120threat": 5137, "\u0120fal": 5138, "arent": 5139, "rok": 5140, "\u0120van": 5141, "llos": 5142, "\u0120Wert": 5143, "\u0120live": 5144, "\u0120Environment": 5145, "\u0120regret": 5146, "\u012024": 5147, "aret": 5148, "\u0120Untersuch": 5149, "\u0120Forderung": 5150, "\u0120directives": 5151, "\u0120Monaten": 5152, "\u0120konkreten": 5153, "\u0120Funds": 5154, "\u0120Stra\u00c3\u0141": 5155, "\u0120Werte": 5156, "\u0120liberalisation": 5157, "\u0120Qualit\u00c3\u00a4t": 5158, "\u0120purpose": 5159, "ta": 5160, "\u0120ce": 5161, "emb": 5162, "\u0120Gene": 5163, "\u0120Ver\u00c3\u00a4nder": 5164, "opp": 5165, "spe": 5166, "\u0120commer": 5167, "\u0120outside": 5168, "rift": 5169, "\u00c3\u00bctzen": 5170, "\u0120freue": 5171, "\u0120Fundamental": 5172, "\u0120vorgeschlagenen": 5173, "\u0120finanziellen": 5174, "\u0120erneut": 5175, "\u0120intended": 5176, "\u0120yesterday": 5177, "\u0120solidarity": 5178, "\u0120expenditure": 5179, "wh": 5180, "zel": 5181, "\u0120brit": 5182, "\u0120bel": 5183, "\u0120More": 5184, "\u0120reject": 5185, "\u0120sogen": 5186, "vergen": 5187, "achten": 5188, "gesundheit": 5189, "auern": 5190, "l\u00c3\u00a4\u00c3\u0141": 5191, "stitutional": 5192, "\u0120elekt": 5193, "\u0120morning": 5194, "\u0120Transport": 5195, "\u0120Kriterien": 5196, "zif": 5197, "eres": 5198, "usion": 5199, "\u0120Kern": 5200, "\u0120living": 5201, "\u0120prob": 5202, "\u0120stated": 5203, "\u0120death": 5204, "\u0120jen": 5205, "\u0120alloc": 5206, "\u0120Ausf\u00c3\u00bchr": 5207, "\u0120quot": 5208, "ological": 5209, "\u0120best\u00c3\u00a4t": 5210, "\u0120Haupt": 5211, "\u0120conclusion": 5212, "\u0120Jugend": 5213, "\u0120K\u00c3\u00b6nigreich": 5214, "wise": 5215, "ons": 5216, "\u0120port": 5217, "\u0120forms": 5218, "\u0120staff": 5219, "\u0120Beam": 5220, "anzen": 5221, "\u0120genu": 5222, "\u0120myself": 5223, "\u0120Dez": 5224, "wirken": 5225, "\u0120Asyl": 5226, "\u0120Stellen": 5227, "\u0120goods": 5228, "\u0120guten": 5229, "\u0120einges": 5230, "\u0120geh\u00c3\u00b6ren": 5231, "\u0120ziehen": 5232, "pflich": 5233, "\u0120renew": 5234, "ptember": 5235, "\u0120met": 5236, "statt": 5237, "\u0120zustimmen": 5238, "\u0120Lassen": 5239, "\u0120extens": 5240, "ously": 5241, "\u0120possibility": 5242, "\u0120spee": 5243, "langt": 5244, "\u0120September": 5245, "\u0120Unsere": 5246, "\u0120Regeln": 5247, "\u0120entsprechenden": 5248, "\u0120F\u00c3\u00a4llen": 5249, "\u0120Gipfel": 5250, "\u0120Kommissionsmitglie": 5251, "\u0120durchgef\u00c3\u00bchrt": 5252, "\u0120Question": 5253, "AL": 5254, "nungs": 5255, "so": 5256, "\u0120\u00c3\u00a4": 5257, "tel": 5258, "\u0120camp": 5259, "\u0120Eind": 5260, "igaret": 5261, "\u0120almost": 5262, "\u0120Wei\u00c3\u0141b": 5263, "ureau": 5264, "rieben": 5265, "\u0120effects": 5266, "\u0120paragraph": 5267, "\u0120Betrug": 5268, "stoffe": 5269, "\u0120accordance": 5270, "\u0120reached": 5271, "\u0120mensch": 5272, "\u0120disaster": 5273, "\u0120Plenum": 5274, "\u0120sustainable": 5275, "\u0120heutigen": 5276, "\u0120Entlastung": 5277, "ensichtlich": 5278, "where": 5279, "z\u00c3\u00b6": 5280, "\u0120thus": 5281, "\u0120vital": 5282, "\u0120T\u00c3\u00a4tigkeit": 5283, "\u0120Ress": 5284, "\u0120sour": 5285, "ands": 5286, "\u0120erh\u00c3\u00b6": 5287, "\u0120dev": 5288, "\u0120Zivil": 5289, "\u0120schl": 5290, "\u0120fehl": 5291, "\u0120debt": 5292, "\u0120plann": 5293, "\u0120totally": 5294, "\u0120trying": 5295, "\u0120gegenw\u00c3\u00a4rtig": 5296, "\u0120challenge": 5297, "\u0120Konflikt": 5298, "ophob": 5299, "nungen": 5300, "seit": 5301, "\u0120welt": 5302, "\u0120six": 5303, "\u0120brief": 5304, "\u0120material": 5305, "\u0120nuclear": 5306, "\u0120zentral": 5307, "\u0120coming": 5308, "\u0120combat": 5309, "\u0120enth\u00c3\u00a4lt": 5310, "\u0120face": 5311, "\u0120across": 5312, "\u0120Fraktionen": 5313, "\u0120au\u00c3\u0141erdem": 5314, "\u0120priorities": 5315, "missions": 5316, "\u0120close": 5317, "\u0120exclus": 5318, "i\u00c3\u0141brauch": 5319, "\u0120restrict": 5320, "\u0120trafficking": 5321, "\u0120l\u00c3\u00a4ndlichen": 5322, "af": 5323, "afr": 5324, "handen": 5325, "wenden": 5326, "chs": 5327, "itation": 5328, "\u0120anwes": 5329, "\u0120unge": 5330, "\u0120II": 5331, "\u0120gab": 5332, "\u0120verstehen": 5333, "\u00c3\u00a4nden": 5334, "pected": 5335, "\u0120ord": 5336, "rank": 5337, "\u0120applies": 5338, "\u0120Gewalt": 5339, "\u0120Aufgaben": 5340, "\u0120einzige": 5341, "\u0120measure": 5342, "\u0120confirm": 5343, "\u0120Gebiete": 5344, "\u0120supported": 5345, "verkehrs": 5346, "\u0120limited": 5347, "\u0120ben\u00c3\u00b6t": 5348, "\u0120vern\u00c3\u00bcnft": 5349, "\u0120check": 5350, "\u0120circumstances": 5351, "\u0120Frankreich": 5352, "\u0120Ausf\u00c3\u00bchrungen": 5353, "\u0120Wei\u00c3\u0141buch": 5354, "feind": 5355, "enophob": 5356, "\u0120dut": 5357, "igungen": 5358, "\u0120reag": 5359, "\u0120Kar": 5360, "\u0120dadurch": 5361, "\u0120Von": 5362, "abkommen": 5363, "\u0120weak": 5364, "\u0120Ander": 5365, "\u0120goes": 5366, "\u0120spok": 5367, "barkeit": 5368, "\u0120resolutions": 5369, "\u0120scope": 5370, "\u0120Handel": 5371, "\u0120investig": 5372, "\u0120agriculture": 5373, "\u0120Gesundheits": 5374, "\u0120instruments": 5375, "\u0120beitragen": 5376, "\u0120demonstr": 5377, "onnen": 5378, "atik": 5379, "orgung": 5380, "\u0120Achtung": 5381, "\u0120Mi\u00c3\u0141": 5382, "\u0120Wahr": 5383, "ilit\u00c3\u00a4t": 5384, "\u0120Vermitt": 5385, "gruppen": 5386, "\u0120hear": 5387, "eschr\u00c3\u00a4n": 5388, "\u0120ihres": 5389, "fahrens": 5390, "\u0120Gesamt": 5391, "\u0120considerable": 5392, "\u0120hoffen": 5393, "\u0120brought": 5394, "\u0120accepted": 5395, "ique": 5396, "\u0120ung": 5397, "indern": 5398, "\u0120gern": 5399, "\u0120Bildung": 5400, "uly": 5401, "ilities": 5402, "otes": 5403, "\u0120gewor": 5404, "\u0120prof": 5405, "\u0120asyl": 5406, "lare": 5407, "ounts": 5408, "ublik": 5409, "\u0120stets": 5410, "ciliation": 5411, "\u0120Technolog": 5412, "\u0120Meiner": 5413, "produ": 5414, "\u0120thanks": 5415, "\u0120Zust\u00c3\u00a4nd": 5416, "\u0120Justiz": 5417, "\u0120entwickeln": 5418, "oul": 5419, "xis": 5420, "\u0120billion": 5421, "\u0120emer": 5422, "\u0120El": 5423, "rahmen": 5424, "iday": 5425, "\u0120Gra": 5426, "\u0120verurteil": 5427, "\u0120neuer": 5428, "fence": 5429, "\u0120feststellen": 5430, "\u0120Allerdings": 5431, "\u0120Beschl": 5432, "\u0120accession": 5433, "\u0120Regelungen": 5434, "\u0120properly": 5435, "\u0120parliamentary": 5436, "\u0120Balkan": 5437, "\u0120return": 5438, "\u0120MEP": 5439, "\u0120elektron": 5440, "aktor": 5441, "\u0120x": 5442, "\u0120pack": 5443, "entwick": 5444, "\u0120einiger": 5445, "\u0120Do": 5446, "derungen": 5447, "\u0120zug": 5448, "\u0120along": 5449, "\u0120verpflich": 5450, "\u0120jur": 5451, "\u0120exerc": 5452, "\u0120nochmals": 5453, "\u0120finally": 5454, "\u01201996": 5455, "\u0120effiz": 5456, "\u0120Deut": 5457, "\u0120liebe": 5458, "\u0120curren": 5459, "\u0120Gebieten": 5460, "\u0120capac": 5461, "\u0120Parteien": 5462, "\u0120Patent": 5463, "\u0120condemn": 5464, "AN": 5465, "FR": 5466, "bel": 5467, "g\u00c3\u00bclt": 5468, "jahr": 5469, "polit": 5470, "will": 5471, "unktion": 5472, "atisch": 5473, "\u0120Pflicht": 5474, "\u0120ganze": 5475, "\u0120Budget": 5476, "amber": 5477, "ctive": 5478, "\u0120Harmon": 5479, "\u0120Third": 5480, "\u0120Verwendung": 5481, "\u0120price": 5482, "werk": 5483, "acio": 5484, "\u0120Dazu": 5485, "\u0120gering": 5486, "\u0120discussing": 5487, "zusch": 5488, "\u0120Solidar": 5489, "\u0120administrative": 5490, "\u0120veh": 5491, "\u0120Palacio": 5492, "\u0120erwarten": 5493, "\u0120Minderheiten": 5494, "\u0120refugees": 5495, "\u0120asylum": 5496, "bringen": 5497, "hnung": 5498, "\u0120sent": 5499, "\u0120bur": 5500, "arily": 5501, "\u0120Aktiv": 5502, "ulf": 5503, "hrist": 5504, "\u0120Verh\u00c3\u00a4lt": 5505, "\u0120cohesion": 5506, "werte": 5507, "\u0120efficient": 5508, "\u0120\u00c3\u013eberwach": 5509, "achtung": 5510, "\u0120festgelegt": 5511, "\u0120somit": 5512, "\u0120entsprechend": 5513, "\u0120minimum": 5514, "\u0120eingere": 5515, "\u0120recognise": 5516, "\u0120undertak": 5517, "\u0120scientific": 5518, "\u0120Schlu\u00c3\u0141folgerungen": 5519, "\u0120away": 5520, "isp": 5521, "undert": 5522, "\u0120took": 5523, "\u0120Ad": 5524, "\u0120Sy": 5525, "\u0120ergreifen": 5526, "iken": 5527, "\u0120developed": 5528, "ategor": 5529, "zeugt": 5530, "\u0120notwendigen": 5531, "\u0120annual": 5532, "\u0120kleinen": 5533, "\u0120setting": 5534, "\u0120weltweit": 5535, "GC": 5536, "ma": 5537, "sum": 5538, "ying": 5539, "\u0120\u00c3\u00a4ndern": 5540, "ister": 5541, "\u0120self": 5542, "rehens": 5543, "\u0120home": 5544, "\u0120cross": 5545, "\u0120unan": 5546, "\u0120Plan": 5547, "\u0120War": 5548, "\u0120GM": 5549, "\u0120Nations": 5550, "\u0120separ": 5551, "\u0120\u00c3\u00bcberw": 5552, "\u0120Proz": 5553, "\u0120darstellt": 5554, "\u0120obtain": 5555, "ression": 5556, "\u0120grant": 5557, "\u0120natural": 5558, "\u0120rightly": 5559, "\u0120Mex": 5560, "\u0120Herkunft": 5561, "\u0120establishing": 5562, "\u0120allowed": 5563, "\u0120additional": 5564, "\u0120Ihrer": 5565, "\u0120entsprechende": 5566, "\u0120labour": 5567, "European": 5568, "\u0120Kapital": 5569, "kontrolle": 5570, "\u0120Anstren": 5571, "dom": 5572, "lier": 5573, "\u0120Economic": 5574, "\u0120IGC": 5575, "\u0120Bar": 5576, "\u0120Weit": 5577, "\u0120lot": 5578, "\u0120diesbe": 5579, "\u0120prot": 5580, "ungsan": 5581, "lie\u00c3\u0141en": 5582, "\u0120produce": 5583, "\u0120\u00c3\u013ebergang": 5584, "\u0120reduction": 5585, "attle": 5586, "\u0120Projekt": 5587, "\u0120urgent": 5588, "\u0120probably": 5589, "\u0120xenophob": 5590, "\u0120ill": 5591, "\u0120treffen": 5592, "iell": 5593, "\u0120miss": 5594, "used": 5595, "\u0120einbe": 5596, "ications": 5597, "\u0120days": 5598, "\u0120Now": 5599, "ensions": 5600, "\u0120Erika": 5601, "\u0120enable": 5602, "\u0120spir": 5603, "\u0120police": 5604, "\u0120warum": 5605, "\u0120directly": 5606, "\u00c3\u00a4mpfen": 5607, "\u0120reforms": 5608, "\u0120presidency": 5609, "\u0120independent": 5610, "\u0120Besch\u00c3\u00a4ftigungs": 5611, "\u0120institutional": 5612, "\u0120verpflichtet": 5613, "20": 5614, "In": 5615, "fassung": 5616, "kraft": 5617, "ins": 5618, "\u0120ten": 5619, "ales": 5620, "\u0120h\u00c3\u00a4": 5621, "\u0120herr": 5622, "\u0120Pr\u00c3\u00bc": 5623, "\u0120kulture": 5624, "\u0120design": 5625, "\u0120Nun": 5626, "\u0120j\u00c3\u00bcn": 5627, "fordern": 5628, "ibility": 5629, "\u0120shown": 5630, "\u0120besten": 5631, "cyc": 5632, "\u0120Zeitraum": 5633, "\u0120effectively": 5634, "\u0120Politiken": 5635, "\u0120m\u00c3\u00b6glichst": 5636, "\u0120implementing": 5637, "\u0120bestehenden": 5638, "\u0120Verkehrs": 5639, "\u0120k\u00c3\u00bcnftig": 5640, "\u0120Linie": 5641, "\u0120avoid": 5642, "\u0120Eisenbahn": 5643, "30": 5644, "erungen": 5645, "\u0120wr": 5646, "icien": 5647, "\u0120gere": 5648, "\u0120log": 5649, "trary": 5650, "\u0120external": 5651, "meer": 5652, "\u0120Berlin": 5653, "ternative": 5654, "\u0120wichtiger": 5655, "\u0120Sec": 5656, "forderung": 5657, "\u0120status": 5658, "\u012080": 5659, "\u0120speakers": 5660, "\u0120medium": 5661, "odell": 5662, "\u0120caused": 5663, "\u0120tourism": 5664, "\u0120sanctions": 5665, "\u0120Indeed": 5666, "l\u00c3\u00bcck": 5667, "zul": 5668, "zub": 5669, "\u0120dr": 5670, "unkten": 5671, "itors": 5672, "\u0120fragen": 5673, "\u0120anzu": 5674, "\u0120Druck": 5675, "schlossen": 5676, "\u0120Can": 5677, "\u0120stra": 5678, "\u0120100": 5679, "\u0120effekt": 5680, "l\u00c3\u00a4gt": 5681, "gelt": 5682, "\u0120strict": 5683, "\u0120Gespr\u00c3\u00a4": 5684, "\u0120ganzen": 5685, "\u0120standard": 5686, "\u0120langfrist": 5687, "\u0120bessere": 5688, "\u0120function": 5689, "\u0120Gesetzgebung": 5690, "\u0120Investitionen": 5691, "\u0120fisheries": 5692, "\u0120angemessen": 5693, "ool": 5694, "oden": 5695, "\u0120Mio": 5696, "\u0120gekommen": 5697, "spar": 5698, "ungsverfahren": 5699, "\u0120Bef": 5700, "\u0120Schl": 5701, "\u0120Pr\u00c3\u00a4sidenten": 5702, "rated": 5703, "\u0120hohen": 5704, "\u0120defend": 5705, "\u0120obviously": 5706, "\u0120Entschlie\u00c3\u0141ungsantrag": 5707, "\u0120Gerichtshof": 5708, "\u0120Anstrengungen": 5709, "\u0120wrong": 5710, "DA": 5711, "b\u00c3\u00bcr": 5712, "iance": 5713, "kr\u00c3\u00a4": 5714, "\u0120date": 5715, "\u0120sort": 5716, "atch": 5717, "\u0120flo": 5718, "\u0120nimmt": 5719, "\u0120umgesetzt": 5720, "beh\u00c3\u00b6r": 5721, "\u0120darstellen": 5722, "\u0120Berichte": 5723, "utzt": 5724, "\u0120remember": 5725, "\u0120similar": 5726, "ausschusses": 5727, "\u0120bald": 5728, "wesen": 5729, "\u0120technology": 5730, "allel": 5731, "\u0120businesses": 5732, "\u0120Wiederauf": 5733, "\u0120World": 5734, "\u0120humanitarian": 5735, "\u0120Directive": 5736, "\u0120Solidarit\u00c3\u00a4t": 5737, "\u0120j\u00c3\u00bcng": 5738, "HO": 5739, "system": 5740, "change": 5741, "ietet": 5742, "\u00c3\u00b6st": 5743, "\u0120Niel": 5744, "quis": 5745, "\u0120sup": 5746, "\u0120unternehmen": 5747, "\u0120betonen": 5748, "\u0120betrachte": 5749, "\u0120speaking": 5750, "\u0120Delegation": 5751, "itude": 5752, "\u0120developments": 5753, "\u0120firstly": 5754, "str\u00c3\u00b6": 5755, "\u0120remark": 5756, "\u0120Treaties": 5757, "\u0120communities": 5758, "\u00c3\u00a4rkung": 5759, "\u0120activity": 5760, "orgnis": 5761, "\u0120pressure": 5762, "\u0120liability": 5763, "ournal": 5764, "\u0120\u00c3\u00a4hn": 5765, "\u0120geworden": 5766, "\u0120capacity": 5767, "kung": 5768, "min": 5769, "inden": 5770, "\u0120bod": 5771, "\u0120intens": 5772, "\u00c3\u00bcglich": 5773, "amm": 5774, "zeuge": 5775, "sec": 5776, "\u0120explo": 5777, "\u0120offensichtlich": 5778, "\u0120requires": 5779, "\u0120Arbeitslosigkeit": 5780, "\u0120Folge": 5781, "\u0120Justice": 5782, "\u0120ethnic": 5783, "\u0120Volksgesundheit": 5784, "\u0120m\u00c3\u00bc\u00c3\u0141te": 5785, "\u0120Priorit\u00c3\u00a4ten": 5786, "bs": 5787, "dra": 5788, "rep": 5789, "\u0120instead": 5790, "gem\u00c3\u00a4\u00c3\u0141": 5791, "\u0120Agenda": 5792, "\u0120Public": 5793, "schreit": 5794, "\u0120Tier": 5795, "\u0120dagegen": 5796, "\u0120forces": 5797, "\u0120contrary": 5798, "achtet": 5799, "\u0120Vertr\u00c3\u00a4ge": 5800, "\u0120\u00c3\u00bcbernehmen": 5801, "ience": 5802, "rittens": 5803, "\u0120beru": 5804, "reichend": 5805, "\u0120Jahrh": 5806, "\u0120perfect": 5807, "\u0120fell": 5808, "\u0120half": 5809, "\u0120bez\u00c3\u00bcglich": 5810, "grundlage": 5811, "\u0120difficulties": 5812, "\u0120Milliar": 5813, "\u0120begl\u00c3\u00bcckw\u00c3\u00bcnschen": 5814, "aign": 5815, "frieden": 5816, "ox": 5817, "\u0120bem": 5818, "ury": 5819, "\u0120verfolgen": 5820, "\u0120deep": 5821, "esses": 5822, "\u0120neu": 5823, "\u0120j\u00c3\u00a4hr": 5824, "\u0120Vorbereit": 5825, "\u0120Abschlu\u00c3\u0141": 5826, "\u00c3\u00a4renz": 5827, "okraten": 5828, "ussels": 5829, "iedr": 5830, "ired": 5831, "\u0120gewesen": 5832, "\u0120ensuring": 5833, "\u0120reality": 5834, "\u0120organisation": 5835, "\u0120Heute": 5836, "\u0120commitments": 5837, "\u0120treatment": 5838, "\u0120erm\u00c3\u00b6gl": 5839, "\u0120analysis": 5840, "\u0120paid": 5841, "\u0120message": 5842, "\u0120Harmonisierung": 5843, "wel": 5844, "\u0120ign": 5845, "\u00c3\u00a4us": 5846, "\u0120bekommen": 5847, "\u0120Sorge": 5848, "imate": 5849, "\u0120Rand": 5850, "\u0120l\u00c3\u00b6sen": 5851, "\u0120Verhalten": 5852, "\u0120vorhanden": 5853, "istisch": 5854, "\u0120quant": 5855, "assungen": 5856, "\u0120mag": 5857, "\u0120intention": 5858, "\u0120festgestellt": 5859, "gestimmt": 5860, "\u0120sicherlich": 5861, "\u0120creation": 5862, "\u0120Brussels": 5863, "\u0120Straf": 5864, "\u0120Zweifel": 5865, "\u0120administration": 5866, "\u0120diskutieren": 5867, "\u0120officials": 5868, "\u0120fr\u00c3\u00bcher": 5869, "\u0120Sanktionen": 5870, "\u0120erm\u00c3\u00b6glicht": 5871, "pl": 5872, "yse": 5873, "iter": 5874, "rec": 5875, "\u0120Since": 5876, "\u0120zul": 5877, "\u0120Terr": 5878, "\u0120Ku": 5879, "ierter": 5880, "\u0120Thank": 5881, "\u0120ersch": 5882, "\u0120rise": 5883, "\u0120vorher": 5884, "\u0120Ausbildung": 5885, "gerung": 5886, "\u0120incin": 5887, "\u0120prim": 5888, "\u0120impos": 5889, "\u0120Staat": 5890, "\u0120Mitteln": 5891, "\u012060": 5892, "\u0120Br\u00c3\u00bcssel": 5893, "\u0120documents": 5894, "mittag": 5895, "\u0120Wochen": 5896, "\u0120st\u00c3\u00a4rker": 5897, "\u0120exactly": 5898, "\u0120currency": 5899, "\u0120unanim": 5900, "\u0120bodies": 5901, "ging": 5902, "yond": 5903, "erzeug": 5904, "chnung": 5905, "\u0120sl": 5906, "ature": 5907, "\u0120bill": 5908, "\u0120eher": 5909, "\u0120Some": 5910, "\u0120gran": 5911, "\u0120B\u00c3\u00b6": 5912, "schn": 5913, "\u0120ge\u00c3\u00a4u\u00c3\u0141": 5914, "\u0120Nov": 5915, "\u0120schle": 5916, "\u0120enorm": 5917, "\u0120Aufnahme": 5918, "\u0120kontro": 5919, "\u0120internationale": 5920, "\u0120Haider": 5921, "\u0120advant": 5922, "\u0120Dar\u00c3\u00bcber": 5923, "\u0120direkt": 5924, "\u0120Mediterranean": 5925, "\u0120March": 5926, "\u0120participation": 5927, "\u0120Schulden": 5928, "\u0120networks": 5929, "\u0120repeat": 5930, "\u0120partnership": 5931, "\u0120campaign": 5932, "haus": 5933, "m\u00c3\u00b6glichkeit": 5934, "itives": 5935, "reck": 5936, "\u0120hour": 5937, "\u0120Ire": 5938, "\u0120Bu": 5939, "ulierung": 5940, "\u0120geleistet": 5941, "\u0120Inhalt": 5942, "\u0120leicht": 5943, "\u0120Stud": 5944, "\u0120school": 5945, "udge": 5946, "\u0120Einhaltung": 5947, "\u0120Ma\u00c3\u0141e": 5948, "ology": 5949, "h\u00c3\u00b6ren": 5950, "\u0120colleague": 5951, "\u0120Griechenland": 5952, "\u0120Eindruck": 5953, "\u0120anwesend": 5954, "erungs": 5955, "\u0120div": 5956, "\u0120ade": 5957, "\u0120wait": 5958, "urance": 5959, "\u0120grat": 5960, "\u0120kl": 5961, "indet": 5962, "\u01201995": 5963, "\u0120declar": 5964, "fallen": 5965, "\u0120useful": 5966, "\u0120urge": 5967, "\u0120moral": 5968, "\u0120pointed": 5969, "ifellos": 5970, "ekten": 5971, "\u0120demands": 5972, "\u0120family": 5973, "\u0120erf\u00c3\u00bcllen": 5974, "\u0120portugiesischen": 5975, "\u0120M\u00c3\u00a4rz": 5976, "\u0120Ressourcen": 5977, "\u0120Nielson": 5978, "bed": 5979, "bank": 5980, "gere": 5981, "pret": 5982, "\u0120dom": 5983, "\u0120side": 5984, "\u0120votes": 5985, "\u0120Aktionen": 5986, "\u0120Macht": 5987, "\u0120red": 5988, "\u0120zufrieden": 5989, "\u0120learn": 5990, "\u0120ship": 5991, "uded": 5992, "\u0120Einbe": 5993, "\u00c3\u00b6ren": 5994, "\u0120sp\u00c3\u00a4ter": 5995, "\u0120gestern": 5996, "sibilities": 5997, "renz": 5998, "\u0120Landwir": 5999, "\u0120views": 6000, "\u0120geschehen": 6001, "\u0120smok": 6002, "\u0120acceptable": 6003, "\u0120Austrian": 6004, "\u0120Zweck": 6005, "\u0120Subsid": 6006, "\u0120Balkans": 6007, "\u0120konnte": 6008, "\u0120language": 6009, "\u0120Ireland": 6010, "iled": 6011, "setzt": 6012, "vis": 6013, "itial": 6014, "\u0120sum": 6015, "ieben": 6016, "leisch": 6017, "\u0120beyond": 6018, "\u0120Worte": 6019, "\u0120concept": 6020, "\u0120dealt": 6021, "opol": 6022, "\u0120Zw": 6023, "\u0120Zur": 6024, "\u0120Ausgaben": 6025, "\u0120proport": 6026, "\u0120Einsch": 6027, "\u0120accident": 6028, "\u0120Abgeordneter": 6029, "iarity": 6030, "\u0120milk": 6031, "\u0120Aspekt": 6032, "\u0120grounds": 6033, "\u0120Iraq": 6034, "\u0120November": 6035, "just": 6036, "ought": 6037, "tes": 6038, "entwurf": 6039, "\u00c3\u00bcg": 6040, "\u0120bein": 6041, "\u0120gre": 6042, "\u0120Ban": 6043, "\u0120Wes": 6044, "uls": 6045, "lying": 6046, "\u0120Lom": 6047, "ustr": 6048, "sper": 6049, "spekt": 6050, "\u0120Einsatz": 6051, "\u0120Einzel": 6052, "\u0120genannten": 6053, "riend": 6054, "\u0120operation": 6055, "\u0120gemeinschaftlichen": 6056, "\u0120parts": 6057, "konom": 6058, "\u0120highly": 6059, "\u0120positiv": 6060, "gewicht": 6061, "\u0120letter": 6062, "\u0120au\u00c3\u0141erord": 6063, "andidaten": 6064, "\u0120versucht": 6065, "\u0120assessment": 6066, "\u0120Praxis": 6067, "\u0120pursu": 6068, "\u0120Verteidigung": 6069, "RB": 6070, "\u0120dise": 6071, "\u0120worth": 6072, "\u0120sk": 6073, "reff": 6074, "icherung": 6075, "\u0120bad": 6076, "arder": 6077, "uth": 6078, "\u0120alone": 6079, "\u0120dead": 6080, "\u0120near": 6081, "\u0120withdra": 6082, "\u0120Schlie\u00c3\u0141": 6083, "auen": 6084, "auft": 6085, "\u0120Chamber": 6086, "\u012037": 6087, "\u0120empf": 6088, "\u0120drawn": 6089, "etheless": 6090, "abilit\u00c3\u00a4t": 6091, "\u0120Mai": 6092, "\u0120committed": 6093, "\u0120personal": 6094, "\u0120anti": 6095, "\u0120Solana": 6096, "\u0120beginning": 6097, "\u0120erw\u00c3\u00a4hnt": 6098, "\u0120schwerwie": 6099, "\u0120earlier": 6100, "\u0120zahlreiche": 6101, "\u0120Empfehlung": 6102, "\u0120safegu": 6103, "\u0120associ": 6104, "\u0120Initiativen": 6105, "\u0120Einbeziehung": 6106, "zust": 6107, "\u0120initial": 6108, "\u0120et": 6109, "\u0120anerk": 6110, "\u0120Spiel": 6111, "\u0120Wahlen": 6112, "\u0120Kat": 6113, "\u0120Ra": 6114, "\u0120gek": 6115, "\u0120delegation": 6116, "\u0120Stat": 6117, "\u0120comprehens": 6118, "\u0120explan": 6119, "\u0120Ort": 6120, "\u0120Vorschl\u00c3\u00a4gen": 6121, "abelling": 6122, "\u0120\u00c3\u00bcbrig": 6123, "\u0120Nieder": 6124, "uern": 6125, "itious": 6126, "\u0120send": 6127, "\u0120sage": 6128, "\u0120body": 6129, "aler": 6130, "\u0120bear": 6131, "ush": 6132, "\u0120Rules": 6133, "\u0120erk": 6134, "\u0120Never": 6135, "\u0120exchange": 6136, "liegt": 6137, "\u0120voraus": 6138, "\u012023": 6139, "\u0120Forderungen": 6140, "\u0120Umfang": 6141, "\u0120argument": 6142, "\u0120Sprache": 6143, "\u01202002": 6144, "m\u00c3\u00a4\u00c3\u0141ig": 6145, "\u0120dealing": 6146, "\u0120simple": 6147, "spr\u00c3\u00bcn": 6148, "\u0120Gegenteil": 6149, "\u0120Portugal": 6150, "\u0120remains": 6151, "\u0120leave": 6152, "\u0120franz\u00c3\u00b6sischen": 6153, "\u0120industrial": 6154, "\u0120S\u00c3\u00bcdafr": 6155, "\u0120fellow": 6156, "RBAN": 6157, "blemen": 6158, "ehm": 6159, "\u0120thought": 6160, "\u0120summit": 6161, "arch": 6162, "\u0120nah": 6163, "\u0120unfortunately": 6164, "\u0120beein": 6165, "\u0120Iran": 6166, "etimes": 6167, "\u0120code": 6168, "\u0120Schwe": 6169, "range": 6170, "\u00c3\u00b6rt": 6171, "\u0120Kollegin": 6172, "\u0120Hauses": 6173, "\u0120African": 6174, "\u0120erforderlichen": 6175, "\u0120successful": 6176, "\u0120erneuer": 6177, "\u0120schwierig": 6178, "\u0120spielen": 6179, "\u0120Ver\u00c3\u00a4nderungen": 6180, "\u0120Milliarden": 6181, "\u0120Subsidiar": 6182, "\u0120wid": 6183, "\u0120wonder": 6184, "\u0120w\u00c3\u00a4ren": 6185, "\u0120mut": 6186, "\u0120pr\u00c3\u00a4": 6187, "entscheid": 6188, "\u0120name": 6189, "\u00c3\u00a4her": 6190, "\u00c3\u00a4ss": 6191, "\u0120anders": 6192, "\u0120Alle": 6193, "schuld": 6194, "verstanden": 6195, "\u0120Verletz": 6196, "\u0120Reformen": 6197, "\u00c3\u00a4ne": 6198, "\u0120\u00c3\u00bcberzeugt": 6199, "zeigt": 6200, "\u0120concentr": 6201, "\u0120keines": 6202, "\u0120perspect": 6203, "\u0120submitted": 6204, "\u0120providing": 6205, "istence": 6206, "schiede": 6207, "\u0120helfen": 6208, "\u0120Mont": 6209, "\u0120improving": 6210, "\u012090": 6211, "\u0120looking": 6212, "\u0120derzeitigen": 6213, "\u0120Unser": 6214, "\u0120postal": 6215, "letzt": 6216, "\u0120subsidiarity": 6217, "\u0120Aktionsp": 6218, "\u0120konzentrieren": 6219, "\u0120Aktivit\u00c3\u00a4ten": 6220, "\u0120Buiten": 6221, "FE": 6222, "ex": 6223, "j\u00c3\u00a4hr": 6224, "oted": 6225, "inced": 6226, "\u0120situ": 6227, "\u0120ehr": 6228, "\u0120niedr": 6229, "\u0120cle": 6230, "\u0120unmittel": 6231, "\u0120beginnen": 6232, "\u0120zunehmen": 6233, "\u0120Mos": 6234, "\u0120gives": 6235, "\u0120Abfall": 6236, "\u0120apprec": 6237, "\u0120gesetzt": 6238, "aufen": 6239, "\u0120events": 6240, "\u0120actual": 6241, "\u0120Verbindung": 6242, "\u0120vielmehr": 6243, "\u0120Bedenken": 6244, "strumente": 6245, "\u0120endg\u00c3\u00bclt": 6246, "\u0120transparent": 6247, "\u0120reasonable": 6248, "\u0120mainly": 6249, "\u0120wishes": 6250, "\u0120occur": 6251, "\u0120garant": 6252, "\u0120\u00c3\u013ebereinkommen": 6253, "\u0120January": 6254, "\u0120Beteiligung": 6255, "je": 6256, "val": 6257, "enary": 6258, "urd": 6259, "\u0120Sinn": 6260, "rak": 6261, "\u0120Fahr": 6262, "\u0120Kinn": 6263, "\u0120Global": 6264, "\u0120UK": 6265, "\u0120URBAN": 6266, "\u0120verste": 6267, "\u0120LI": 6268, "anner": 6269, "\u0120Stad": 6270, "weist": 6271, "\u0120Beweis": 6272, "esehen": 6273, "\u0120entgegen": 6274, "\u0120divers": 6275, "\u0120Grunde": 6276, "\u0120disapp": 6277, "\u0120Grunds\u00c3\u00a4tze": 6278, "\u0120active": 6279, "\u0120negative": 6280, "\u0120Beitritt": 6281, "\u0120\u00c3\u00b6ffentliche": 6282, "\u0120plenary": 6283, "\u0120Priv": 6284, "\u0120receive": 6285, "\u0120closely": 6286, "\u0120grunds\u00c3\u00a4tz": 6287, "coming": 6288, "\u0120Organisationen": 6289, "\u0120encourage": 6290, "\u0120December": 6291, "\u0120Kinnock": 6292, "50": 6293, "vere": 6294, "zed": 6295, "\u0120wan": 6296, "\u0120Agricult": 6297, "\u0120Bl": 6298, "\u0120Lux": 6299, "\u0120defence": 6300, "oples": 6301, "\u0120Nutzung": 6302, "\u0120reserv": 6303, "\u012028": 6304, "\u0120mehrere": 6305, "\u0120respond": 6306, "\u0120autom": 6307, "\u0120organised": 6308, "zeichnen": 6309, "\u0120regionalen": 6310, "\u0120Ihren": 6311, "\u0120Verwaltungs": 6312, "pr\u00c3\u00bcft": 6313, "\u0120Verpflichtung": 6314, "\u0120convinced": 6315, "\u0120Geschichte": 6316, "\u0120Legal": 6317, "\u0120reflect": 6318, "\u0120Erfahrungen": 6319, "acy": 6320, "mand": 6321, "rennung": 6322, "to": 6323, "\u0120bar": 6324, "\u0120fear": 6325, "\u0120frei": 6326, "\u00c3\u00a4st": 6327, "\u00c3\u00a4fen": 6328, "\u0120forget": 6329, "\u0120verm": 6330, "iveau": 6331, "\u0120Anges": 6332, "steller": 6333, "uchen": 6334, "ording": 6335, "\u0120sagt": 6336, "\u0120genug": 6337, "\u0120besondere": 6338, "samm": 6339, "\u00c3\u00bctzt": 6340, "\u0120Char": 6341, "\u0120sonst": 6342, "legungen": 6343, "\u0120Hinter": 6344, "\u0120m\u00c3\u00b6glicherweise": 6345, "\u0120urspr\u00c3\u00bcn": 6346, "w\u00c3\u00a4ss": 6347, "\u0120zehn": 6348, "\u0120violence": 6349, "\u0120erkl\u00c3\u00a4rt": 6350, "\u0120early": 6351, "\u0120Herausforderungen": 6352, "\u0120Herausforderung": 6353, "\u0120merely": 6354, "\u0120Koh\u00c3\u00a4renz": 6355, "\u0120immediately": 6356, "\u0120Wissenschaft": 6357, "\u0120jeweiligen": 6358, "\u0120substantial": 6359, "\u0120bem\u00c3\u00bc": 6360, "The": 6361, "cel": 6362, "reign": 6363, "\u0120f\u00c3\u00a4": 6364, "\u0120element": 6365, "asse": 6366, "asbourg": 6367, "\u0120Etik": 6368, "ommer": 6369, "\u0120F\u00c3\u00bchr": 6370, "\u0120later": 6371, "\u0120former": 6372, "\u0120condu": 6373, "\u0120erschein": 6374, "\u0120Nur": 6375, "\u0120Sto": 6376, "cknow": 6377, "\u0120Anfang": 6378, "\u0120Gruppe": 6379, "\u0120consist": 6380, "ollar": 6381, "flu\u00c3\u0141": 6382, "wortet": 6383, "ginn": 6384, "\u0120additives": 6385, "itzen": 6386, "\u0120involving": 6387, "erkennung": 6388, "\u0120Seiten": 6389, "\u0120Republik": 6390, "\u0120harmonisation": 6391, "\u0120challenges": 6392, "\u0120animal": 6393, "\u0120eingesetzt": 6394, "QU": 6395, "VO": 6396, "ef": 6397, "chst": 6398, "unch": 6399, "\u0120firm": 6400, "\u0120ec": 6401, "\u0120unable": 6402, "\u0120univers": 6403, "\u0120Ereign": 6404, "\u0120EQU": 6405, "\u0120beige": 6406, "\u0120Ist": 6407, "\u0120gesehen": 6408, "\u0120Bot": 6409, "\u0120Drittens": 6410, "\u0120constant": 6411, "\u0120descr": 6412, "\u0120depend": 6413, "\u0120Rechn": 6414, "\u0120sch\u00c3\u00bctzen": 6415, "\u0120politisch": 6416, "\u0120jede": 6417, "\u0120prefer": 6418, "\u0120evalu": 6419, "\u0120solutions": 6420, "losen": 6421, "\u0120Tele": 6422, "\u0120Ma\u00c3\u0141nahme": 6423, "\u0120ways": 6424, "\u0120entspricht": 6425, "\u0120strategic": 6426, "\u0120contribute": 6427, "\u0120steps": 6428, "\u0120structures": 6429, "\u0120introduced": 6430, "\u0120Stabilit\u00c3\u00a4t": 6431, "\u0120figures": 6432, "\u0120commercial": 6433, "\u0120Dezember": 6434, "\u0120MEPs": 6435, "\u0120vehicles": 6436, "\u0120burden": 6437, "\u0120spirit": 6438, "\u0120wanted": 6439, "\u0120EQUAL": 6440, "),": 6441, "k\u00c3\u00bcnd": 6442, "sk": 6443, "\u0120age": 6444, "\u0120acknow": 6445, "\u0120After": 6446, "igran": 6447, "\u0120Such": 6448, "ette": 6449, "\u0120Hause": 6450, "verse": 6451, "\u0120ergriffen": 6452, "\u0120aufzu": 6453, "\u0120Unfortunately": 6454, "\u0120jene": 6455, "ford": 6456, "\u0120\u00c3\u00bcberein": 6457, "\u0120ausf\u00c3\u00bchr": 6458, "\u0120handeln": 6459, "\u0120gleiche": 6460, "\u0120bringt": 6461, "010": 6462, "vorschlag": 6463, "\u0120addressed": 6464, "\u0120Wettbewerbsf\u00c3\u00a4higkeit": 6465, "\u0120milit\u00c3\u00a4r": 6466, "\u0120Friday": 6467, "\u0120verf\u00c3\u00bcgen": 6468, "\u0120Januar": 6469, "grenzung": 6470, "\u0120effizient": 6471, "\u0120Nevertheless": 6472, "\u0120Luxem": 6473, "EC": 6474, "iens": 6475, "m\u00c3\u00b6glich": 6476, "making": 6477, "ric": 6478, "inational": 6479, "\u0120typ": 6480, "isc": 6481, "\u0120big": 6482, "llschaften": 6483, "either": 6484, "oler": 6485, "\u0120kaum": 6486, "ffiz": 6487, "ffnung": 6488, "\u0120aufmerksam": 6489, "\u0120neigh": 6490, "opoul": 6491, "\u0120Nord": 6492, "\u0120vorlegen": 6493, "r\u00c3\u00a4ge": 6494, "erences": 6495, "\u0120chance": 6496, "\u0120speed": 6497, "\u0120says": 6498, "\u0120Finn": 6499, "\u0120repla": 6500, "\u0120technischen": 6501, "\u0120sometimes": 6502, "\u0120transition": 6503, "\u0120kommenden": 6504, "\u0120gr\u00c3\u00b6\u00c3\u0141ere": 6505, "\u0120Republic": 6506, "\u0120radio": 6507, "\u0120becoming": 6508, "udgets": 6509, "\u0120LIFE": 6510, "\u0120Angesichts": 6511, "\u0120neighbour": 6512, "kolog": 6513, "unsch": 6514, "\u0120wach": 6515, "\u0120inten": 6516, "\u0120infra": 6517, "\u0120Funktion": 6518, "\u0120Che": 6519, "\u0120Lud": 6520, "\u0120Anerkennung": 6521, "\u0120heart": 6522, "\u0120entstehen": 6523, "\u0120enfor": 6524, "\u0120unternommen": 6525, "\u0120Rats": 6526, "\u0120Rechtsgrundlage": 6527, "\u0120Strasbourg": 6528, "\u0120adopting": 6529, "\u0120Haarder": 6530, "\u0120geschlossen": 6531, "afft": 6532, "\u0120definition": 6533, "\u0120absolut": 6534, "\u0120leaders": 6535, "COS": 6536, "\u0120Erkl\u00c3\u00a4rungen": 6537, "\u0120qualifiz": 6538, "\u0120Kritik": 6539, "\u0120Voraussetzung": 6540, "\u0120erkl\u00c3\u00a4ren": 6541, "\u0120coherence": 6542, "\u0120sinnvoll": 6543, "\u0120Thirdly": 6544, "\u0120kontroll": 6545, "ave": 6546, "orre": 6547, "\u0120br": 6548, "\u0120nennen": 6549, "\u0120vess": 6550, "\u0120Spe": 6551, "\u0120einverstanden": 6552, "\u0120gain": 6553, "\u0120lik": 6554, "\u0120Voll": 6555, "absicht": 6556, "\u0120erweit": 6557, "\u0120sea": 6558, "r\u00c3\u00a4gt": 6559, "\u0120Behandlung": 6560, "\u0120provides": 6561, "\u0120office": 6562, "gendes": 6563, "\u0120ausgewogen": 6564, "\u0120competit": 6565, "sprogramm": 6566, "\u0120stattfinden": 6567, "\u0120Turk": 6568, "\u0120media": 6569, "\u0120Festlegung": 6570, "\u0120widersp": 6571, "\u0120building": 6572, "\u0120ambitious": 6573, "\u0120beteiligt": 6574, "\u0120Familien": 6575, "\u0120Garant": 6576, "\u0120Polize": 6577, "\u0120Moreover": 6578, "\u0120speech": 6579, "\u0120h\u00c3\u00a4ufig": 6580, "\u0120Schlie\u00c3\u0141lich": 6581, "ec": 6582, "eben": 6583, "ober": 6584, "wart": 6585, "wiesen": 6586, "\u0120dienen": 6587, "inter": 6588, "anten": 6589, "\u0120hig": 6590, "omb": 6591, "\u0120Sh": 6592, "\u0120Mindest": 6593, "iment": 6594, "\u0120Fonds": 6595, "uropa": 6596, "\u0120forth": 6597, "\u0120join": 6598, "\u0120Beginn": 6599, "gr\u00c3\u00bcnd": 6600, "\u0120raise": 6601, "\u0120gesetz": 6602, "\u0120Defin": 6603, "\u0120Umst": 6604, "\u0120financing": 6605, "\u0120geschieht": 6606, "\u0120attack": 6607, "\u0120reducing": 6608, "\u0120adoption": 6609, "\u0120au\u00c3\u0141erhalb": 6610, "scheinlich": 6611, "\u0120Stabilit\u00c3\u00a4ts": 6612, "\u0120konnten": 6613, "\u0120betroffenen": 6614, "\u0120block": 6615, "\u0120People": 6616, "\u0120happy": 6617, "\u0120maximum": 6618, "\u0120duty": 6619, "\u0120xenophobia": 6620, "SP": 6621, "aution": 6622, "apt": 6623, "iate": 6624, "zlich": 6625, "anen": 6626, "ancen": 6627, "\u0120fallen": 6628, "tei": 6629, "\u0120befinden": 6630, "\u0120Imp": 6631, "\u0120Sach": 6632, "\u0120einsetzen": 6633, "ulated": 6634, "bericht": 6635, "\u0120GVO": 6636, "\u0120Central": 6637, "\u0120verurs": 6638, "\u0120stimme": 6639, "ikation": 6640, "\u0120prices": 6641, "\u0120spent": 6642, "handels": 6643, "\u0120Mittelmeer": 6644, "\u0120establishment": 6645, "\u0120Health": 6646, "\u0120Gleichzeitig": 6647, "\u0120zeigen": 6648, "\u0120appropriations": 6649, "\u0120akzeptiert": 6650, "\u0120multinational": 6651, "\u0120versich": 6652, "\u0120increasingly": 6653, "\u0120American": 6654, "\u0120erf\u00c3\u00bcllt": 6655, "ynam": 6656, "\u0120H\u00c3\u00b6he": 6657, "\u0120keinerlei": 6658, "\u0120verehrte": 6659, "\u0120\u00c3\u013eberwachung": 6660, "\u0120betrachtet": 6661, "\u0120higher": 6662, "Be": 6663, "Gen": 6664, "eks": 6665, "fiz": 6666, "falt": 6667, "ser": 6668, "ypr": 6669, "\u0120trag": 6670, "\u0120thous": 6671, "atically": 6672, "\u0120mill": 6673, "\u0120manner": 6674, "tete": 6675, "\u0120em": 6676, "\u0120vir": 6677, "\u0120Mark": 6678, "imately": 6679, "olid": 6680, "\u0120weeks": 6681, "\u0120verfolgt": 6682, "\u0120erl\u00c3\u00a4": 6683, "ittees": 6684, "\u0120Jun": 6685, "\u0120Erw\u00c3\u00a4": 6686, "\u0120Ber\u00c3\u00bccksicht": 6687, "r\u00c3\u00a4sent": 6688, "\u0120Mitarbeit": 6689, "ished": 6690, "\u0120noise": 6691, "\u0120Chance": 6692, "ampere": 6693, "\u0120produced": 6694, "\u0120relig": 6695, "\u0120art": 6696, "\u0120asking": 6697, "f\u00c3\u00a4llen": 6698, "\u0120Spain": 6699, "\u0120\u00c3\u00b6kolog": 6700, "\u0120Vereinten": 6701, "ront": 6702, "ronic": 6703, "ifying": 6704, "\u0120befassen": 6705, "\u0120announ": 6706, "\u0120contains": 6707, "\u00c3\u00bctze": 6708, "\u0120covered": 6709, "\u0120traffic": 6710, "\u0120easy": 6711, "\u0120animals": 6712, "\u0120Vereinbarung": 6713, "embly": 6714, "General": 6715, "\u0120bietet": 6716, "\u0120harm": 6717, "\u0120Eing": 6718, "\u0120Even": 6719, "\u0120Acc": 6720, "\u0120B\u00c3\u00bc": 6721, "\u0120Dann": 6722, "dere": 6723, "\u0120Faktor": 6724, "ots": 6725, "respon": 6726, "\u0120ged": 6727, "aka": 6728, "annte": 6729, "\u0120rig": 6730, "gesetz": 6731, "urely": 6732, "\u0120Schritte": 6733, "\u0120Bereit": 6734, "angs": 6735, "\u0120Gruppen": 6736, "\u0120complex": 6737, "\u0120decide": 6738, "hafte": 6739, "ventionen": 6740, "\u0120attitude": 6741, "\u0120gefunden": 6742, "\u0120minorities": 6743, "\u0120Bestand": 6744, "\u0120verschiedene": 6745, "\u0120New": 6746, "\u0120h\u00c3\u00b6her": 6747, "\u0120Medien": 6748, "\u0120gegenw\u00c3\u00a4rtigen": 6749, "\u0120kompliz": 6750, "b\u00c3\u00bcrger": 6751, "\u0120au\u00c3\u0141erordentlich": 6752, "\u0120comprehensive": 6753, "\u0120competitiveness": 6754, "bor": 6755, "mutzung": 6756, "va": 6757, "unsten": 6758, "\u0120fla": 6759, "\u0120Tampere": 6760, "\u0120King": 6761, "\u0120verme": 6762, "\u0120extra": 6763, "\u0120Gr\u00c3\u00bc": 6764, "\u0120proposes": 6765, "\u0120income": 6766, "\u0120finde": 6767, "\u0120nationale": 6768, "\u0120gew\u00c3\u00a4hl": 6769, "\u0120known": 6770, "\u0120letzte": 6771, "\u0120transfer": 6772, "\u0120richtige": 6773, "ma\u00c3\u0141en": 6774, "\u0120Kontrollen": 6775, "\u0120Personal": 6776, "\u0120informed": 6777, "\u0120Normen": 6778, "\u0120enterpr": 6779, "\u0120Risiken": 6780, "\u0120staatlichen": 6781, "\u0120S\u00c3\u00bcdafrika": 6782, "\u0120situations": 6783, "\u0120Rechnungs": 6784, "\u0120Ludford": 6785, "mon": 6786, "\u0120wit": 6787, "\u0120Bild": 6788, "olz": 6789, "\u0120zudem": 6790, "\u0120La": 6791, "\u0120Zimbabwe": 6792, "ival": 6793, "\u0120sechs": 6794, "ausch": 6795, "\u0120umwelt": 6796, "\u0120ausschlie\u00c3\u0141lich": 6797, "\u0120doct": 6798, "\u0120Proced": 6799, "\u00c3\u00bcnden": 6800, "linge": 6801, "\u0120reply": 6802, "stimmung": 6803, "\u0120gestalten": 6804, "\u0120komme": 6805, "\u0120finanzielle": 6806, "\u0120company": 6807, "\u0120hervorge": 6808, "\u0120portugiesische": 6809, "\u0120illegal": 6810, "\u0120manufactur": 6811, "\u0120Angol": 6812, "\u0120Stra\u00c3\u0141burg": 6813, "feindlichkeit": 6814, "\u0120granted": 6815, "\u0120Buitenweg": 6816, "jected": 6817, "\u0120infrastruct": 6818, "\u0120Procedure": 6819, "aktion": 6820, "\u0120fulf": 6821, "\u0120Blick": 6822, "\u0120Freit": 6823, "\u0120labelling": 6824, "\u0120construct": 6825, "\u0120auszu": 6826, "\u0120ausreichend": 6827, "\u0120Ents": 6828, "\u0120charter": 6829, "\u0120Consum": 6830, "\u0120Although": 6831, "\u0120Alban": 6832, "richtungen": 6833, "suchen": 6834, "\u0120Auft": 6835, "\u0120laws": 6836, "\u0120d\u00c3\u00bcrfte": 6837, "\u0120bedarf": 6838, "\u0120L\u00c3\u00b6sungen": 6839, "\u0120Friedens": 6840, "ailed": 6841, "\u0120century": 6842, "\u0120Preis": 6843, "g\u00c3\u00a4nz": 6844, "\u0120Today": 6845, "\u0120borders": 6846, "\u0120attempt": 6847, "\u0120penalt": 6848, "\u0120s\u00c3\u00a4mtliche": 6849, "\u0120Zust\u00c3\u00a4ndigkeit": 6850, "iciency": 6851, "reffend": 6852, "\u0120Globalisierung": 6853, "\u0120Etikett": 6854, "\u0120Turkish": 6855, "\u0120Ber\u00c3\u00bccksichtigung": 6856, "zone": 6857, "orgt": 6858, "\u0120mist": 6859, "\u0120emb": 6860, "\u00c3\u00a4den": 6861, "\u00c3\u00a4um": 6862, "\u0120bezieht": 6863, "\u0120zut": 6864, "\u0120lives": 6865, "\u0120Go": 6866, "\u0120geograph": 6867, "\u0120Inst": 6868, "\u0120excess": 6869, "\u0120mitt": 6870, "\u0120Bezug": 6871, "\u0120Vorhaben": 6872, "sektor": 6873, "\u012027": 6874, "\u0120Grenz": 6875, "werber": 6876, "\u00c3\u00a4hrung": 6877, "\u0120substances": 6878, "\u0120\u00c3\u013eberzeug": 6879, "\u0120zweifellos": 6880, "\u0120nunmehr": 6881, "frastruktur": 6882, "\u0120deliver": 6883, "\u0120gr\u00c3\u00b6\u00c3\u0141ten": 6884, "\u0120Besorgnis": 6885, "\u0120happened": 6886, "\u0120F\u00c3\u00a4lle": 6887, "\u0120recognised": 6888, "\u0120bedeuten": 6889, "\u0120Dennoch": 6890, "\u0120Fremdenfeindlichkeit": 6891, "\u0120Beamten": 6892, "\u0120renewable": 6893, "bild": 6894, "vo": 6895, "zut": 6896, "\u0120angeb": 6897, "\u00c3\u00a4cht": 6898, "\u0120beabsicht": 6899, "\u0120Sweden": 6900, "\u0120einf": 6901, "\u0120einschlie\u00c3\u0141lich": 6902, "\u0120grenz": 6903, "\u0120Kindern": 6904, "\u0120Kaka": 6905, "issens": 6906, "einen": 6907, "\u0120erfahren": 6908, "\u0120Revision": 6909, "\u0120Rechnung": 6910, "akter": 6911, "\u0120vorge": 6912, "\u0120June": 6913, "\u0120Schaden": 6914, "\u0120Problemen": 6915, "\u0120regime": 6916, "\u012026": 6917, "\u0120interv": 6918, "\u0120peoples": 6919, "\u0120Formen": 6920, "\u0120thinking": 6921, "\u0120approval": 6922, "\u0120gerne": 6923, "\u0120involve": 6924, "\u0120achieving": 6925, "sprogram": 6926, "\u0120condition": 6927, "\u0120eigene": 6928, "\u0120Produkte": 6929, "\u0120Redner": 6930, "\u0120Bev\u00c3\u00b6lkerungs": 6931, "\u0120W\u00c3\u00a4hrungs": 6932, "\u0120Risiko": 6933, "ugoslaw": 6934, "\u0120conclude": 6935, "\u0120Fehler": 6936, "\u0120genuine": 6937, "\u0120Agriculture": 6938, "\u0120According": 6939, "21": 6940, "AP": 6941, "AT": 6942, "MU": 6943, "uelle": 6944, "reaten": 6945, "ande": 6946, "\u0120ehem": 6947, "\u0120anschlie\u00c3\u0141en": 6948, "ingt": 6949, "ederal": 6950, "\u0120Mir": 6951, "ulieren": 6952, "\u0120verwendet": 6953, "ktors": 6954, "laus": 6955, "schaftliche": 6956, "lines": 6957, "\u0120\u00c3\u013eberpr\u00c3\u00bc": 6958, "ologie": 6959, "ziplin": 6960, "\u0120sensitive": 6961, "\u0120calling": 6962, "\u0120relationship": 6963, "\u0120Liste": 6964, "\u0120diskutiert": 6965, "\u0120optim": 6966, "\u0120emphasise": 6967, "\u0120Wohl": 6968, "\u0120Kontin": 6969, "\u0120Democrats": 6970, "\u0120safeguard": 6971, "\u0120Kingdom": 6972, "bung": 6973, "f\u00c3\u00a4hr": 6974, "\u0120t\u00c3\u00a4t": 6975, "\u0120targe": 6976, "\u0120wants": 6977, "rochen": 6978, "\u0120Sw": 6979, "\u0120Punkten": 6980, "\u0120verteid": 6981, "\u0120willing": 6982, "\u0120Commissioners": 6983, "\u0120abstimmen": 6984, "\u0120Begriff": 6985, "\u012029": 6986, "\u0120amt": 6987, "\u0120betrachten": 6988, "\u0120proposing": 6989, "\u0120concrete": 6990, "urop\u00c3\u00a4ischen": 6991, "acter": 6992, "\u0120Sprachen": 6993, "\u0120elements": 6994, "\u0120Betrie": 6995, "\u0120\u00c3\u00a4u\u00c3\u0141ern": 6996, "\u0120konkret": 6997, "\u0120vorgesehenen": 6998, "\u0120entwickelt": 6999, "\u0120original": 7000, "\u0120unterschiedliche": 7001, "\u0120contradict": 7002, "\u0120m\u00c3\u00bc\u00c3\u0141ten": 7003, "\u0120electronic": 7004, "\u0120Empfehlungen": 7005, "\u0120choice": 7006, "\u0120explain": 7007, "\u0120unterst\u00c3\u00bctze": 7008, "\u0120Dienstleistungen": 7009, "\u0120wollte": 7010, "itet": 7011, "\u0120Mc": 7012, "\u0120Ph": 7013, "\u0120Insel": 7014, "\u0120Instrumente": 7015, "\u0120Zentral": 7016, "enswert": 7017, "\u0120goal": 7018, "ized": 7019, "\u0120exper": 7020, "\u0120related": 7021, "\u0120\u00c3\u00b6sterreich": 7022, "\u0120Programms": 7023, "zeichnung": 7024, "\u0120includes": 7025, "\u0120weshalb": 7026, "\u0120vorgeschlagene": 7027, "\u0120immigration": 7028, "\u0120introduce": 7029, "\u0120recommendation": 7030, "\u0120study": 7031, "\u0120Katastrophe": 7032, "l\u00c3\u00a4\u00c3\u0141lich": 7033, "\u0120Vermittlungs": 7034, "\u0120exercise": 7035, "\u0120enormous": 7036, "\u0120Definition": 7037, "\u0120vermeiden": 7038, "\u0120ehemal": 7039, "body": 7040, "kret": 7041, "nel": 7042, "rupt": 7043, "\u0120test": 7044, "alien": 7045, "\u0120friend": 7046, "\u0120annehmen": 7047, "geber": 7048, "\u0120Ev": 7049, "\u0120Sen": 7050, "\u0120Sonder": 7051, "\u0120Pap": 7052, "\u0120gesellschaft": 7053, "sch\u00c3\u00a4d": 7054, "\u0120whom": 7055, "\u0120klare": 7056, "\u0120Gest": 7057, "\u0120formal": 7058, "ump": 7059, "\u0120veran": 7060, "\u0120NAF": 7061, "amentar": 7062, "\u0120rasch": 7063, "\u0120Anp": 7064, "\u0120abzu": 7065, "\u0120Unions": 7066, "\u0120competen": 7067, "\u0120Einflu\u00c3\u0141": 7068, "ierende": 7069, "werten": 7070, "\u0120technische": 7071, "\u0120...": 7072, "\u00c3\u00a4rkten": 7073, "\u0120limits": 7074, "\u0120opposed": 7075, "\u0120Vielen": 7076, "h\u00c3\u00b6hung": 7077, "\u0120excl": 7078, "\u0120qualified": 7079, "\u0120behandeln": 7080, "\u0120recommendations": 7081, "\u0120Italy": 7082, "\u0120Worten": 7083, "\u0120ECHO": 7084, "\u0120Priorit\u00c3\u00a4t": 7085, "\u0120continuing": 7086, "\u0120languages": 7087, "\u0120behaup": 7088, "\u0120zust\u00c3\u00a4ndigen": 7089, "\u0120Germany": 7090, "chanismen": 7091, "wanderung": 7092, "\u0120pers\u00c3\u00b6nlich": 7093, "\u0120st\u00c3\u00a4ndig": 7094, "\u0120wiederholen": 7095, "\u0120Barnier": 7096, "\u0120Kommissionsmitglied": 7097, "\u0120eingereicht": 7098, "\u0120\u00c3\u00bcbrigens": 7099, "\u0120Juni": 7100, "\u0120Freitag": 7101, "ees": 7102, "wing": 7103, "\u0120threaten": 7104, "isziplin": 7105, "reib": 7106, "ares": 7107, "\u0120Ak": 7108, "\u0120Aud": 7109, "\u0120Gel": 7110, "\u0120Verst\u00c3\u00a4nd": 7111, "\u0120Vergleich": 7112, "\u0120sele": 7113, "\u0120sehe": 7114, "akte": 7115, "\u0120Commissions": 7116, "\u0120chair": 7117, "stag": 7118, "\u0120spezif": 7119, "\u0120Mensch": 7120, "\u0120solcher": 7121, "\u0120Leist": 7122, "\u0120gr\u00c3\u00bcnd": 7123, "\u0120equality": 7124, "\u0120anderes": 7125, "\u0120statements": 7126, "\u0120tasks": 7127, "\u0120parliaments": 7128, "\u0120Urs": 7129, ")).": 7130, "\u0120Todes": 7131, "\u0120zus\u00c3\u00a4tzliche": 7132, "\u0120appeal": 7133, "\u0120besch\u00c3\u00a4ftigen": 7134, "\u0120character": 7135, "\u0120reagieren": 7136, "\u0120Deutsch": 7137, "\u0120ignor": 7138, "called": 7139, "len": 7140, "\u0120afr": 7141, "\u0120mand": 7142, "ari": 7143, "\u0120came": 7144, "urally": 7145, "\u0120Mor": 7146, "\u0120recyc": 7147, "schet": 7148, "\u0120Flexib": 7149, "\u0120l\u00c3\u00a4nger": 7150, "\u0120alternative": 7151, "\u0120proof": 7152, "\u0120err": 7153, "\u0120Verl": 7154, "\u0120mittel": 7155, "\u0120Anal": 7156, "\u0120Anspruch": 7157, "stelle": 7158, "\u0120ability": 7159, "\u0120ausges": 7160, "\u0120ausdr\u00c3\u00bccklich": 7161, "\u012022": 7162, "\u0120interin": 7163, "\u0120Einige": 7164, "\u0120Chancen": 7165, "\u0120dram": 7166, "\u0120Haft": 7167, "\u0120Yet": 7168, "\u0120reduced": 7169, "\u0120contributions": 7170, "\u0120calls": 7171, "\u0120anderem": 7172, "\u0120Gr\u00c3\u00bcnde": 7173, "\u0120Hohen": 7174, "unternehmen": 7175, "\u0120unabh\u00c3\u00a4ngig": 7176, "\u0120Engagement": 7177, "\u0120Bemerkungen": 7178, "\u0120Gedanken": 7179, "\u0120influen": 7180, "\u0120zugunsten": 7181, "\u0120perfectly": 7182, "\u0120hours": 7183, "\u0120adequate": 7184, "sammlung": 7185, "\u0120erl\u00c3\u00a4ut": 7186, "schetschen": 7187, "ifor": 7188, "wu\u00c3\u0141": 7189, "ances": 7190, "\u00c3\u00bcter": 7191, "\u0120Moz": 7192, "\u0120einsch": 7193, "imat": 7194, "\u0120reden": 7195, "\u0120Tr": 7196, "\u0120K\u00c3\u00bc": 7197, "\u0120sofort": 7198, "\u0120erfolgen": 7199, "\u0120stock": 7200, "\u0120deg": 7201, "\u0120St\u00c3\u00a4rkung": 7202, "\u0120abgeschlossen": 7203, "\u0120Auss": 7204, "\u0120Vorgehen": 7205, "\u0120compens": 7206, "\u0120politischer": 7207, "\u0120impression": 7208, "\u0120otherwise": 7209, "\u0120space": 7210, "\u0120Leider": 7211, "\u0120dennoch": 7212, "trol": 7213, "\u0120elected": 7214, "\u0120ideas": 7215, "\u0120supplement": 7216, "\u0120guarantees": 7217, "\u0120persons": 7218, "\u0120prior": 7219, "\u0120Dienste": 7220, "\u0120class": 7221, "\u0120structure": 7222, "COD": 7223, "\u0120shows": 7224, "\u0120benefits": 7225, "\u0120subsidies": 7226, "\u0120judicial": 7227, "\u0120obligations": 7228, "chanisms": 7229, "\u0120speziell": 7230, "\u0120ausgezeichneten": 7231, "\u0120package": 7232, "\u0120superv": 7233, "str\u00c3\u00b6m": 7234, "m\u00c3\u00b6glichkeiten": 7235, "f\u00c3\u00a4lt": 7236, "uct": 7237, "viel": 7238, "volle": 7239, "ente": 7240, "enze": 7241, "\u0120bank": 7242, "\u0120Moment": 7243, "schw": 7244, "\u0120listen": 7245, "\u0120lines": 7246, "\u0120Zyp": 7247, "\u0120NG": 7248, "\u0120coco": 7249, "\u0120mechanisms": 7250, "\u0120aussprechen": 7251, "\u0120Bewertung": 7252, "\u0120Vorred": 7253, "\u00c3\u00b6rdert": 7254, "\u0120\u00c3\u0126r": 7255, "\u0120hinzu": 7256, "\u0120moder": 7257, "\u0120arm": 7258, "\u0120hohe": 7259, "\u0120putting": 7260, "\u0120improved": 7261, "sequently": 7262, "\u0120braucht": 7263, "\u0120airport": 7264, "\u0120territor": 7265, "\u0120falls": 7266, "organisationen": 7267, "\u0120scheme": 7268, "\u0120Landwirte": 7269, "\u0120schwerwiegen": 7270, "ffizien": 7271, "\u0120intends": 7272, "\u0120cocoa": 7273, "br": 7274, "\u0120ult": 7275, "\u0120affairs": 7276, "ones": 7277, "unt": 7278, "\u0120hor": 7279, "\u0120Dimension": 7280, "\u0120Wunsch": 7281, "\u00c3\u00bcrk": 7282, "\u0120Roth": 7283, "\u0120Nutzen": 7284, "\u0120coast": 7285, "\u0120cooper": 7286, "\u0120entit": 7287, "\u0120facing": 7288, "\u0120usw": 7289, "\u0120Einrichtung": 7290, "\u0120Mitglieds": 7291, "\u0120Konsequ": 7292, "\u0120evidence": 7293, "\u0120submit": 7294, "\u0120konstru": 7295, "\u0120300": 7296, "\u0120record": 7297, "\u0120gewisse": 7298, "\u0120einzus": 7299, "\u0120begrenz": 7300, "\u0120197": 7301, "\u0120Gleichgewicht": 7302, "\u0120aufgefordert": 7303, "\u0120Italien": 7304, "\u0120history": 7305, "\u0120wahrscheinlich": 7306, "\u0120Spanien": 7307, "\u0120vollst\u00c3\u00a4ndig": 7308, "\u0120britischen": 7309, "\u0120sogenannten": 7310, "\u0120Verh\u00c3\u00a4ltnis": 7311, "\u0120Weiter": 7312, "\u0120Vorbereitung": 7313, "\u0120Privat": 7314, "feld": 7315, "sized": 7316, "\u0120dimension": 7317, "\u0120pub": 7318, "\u0120paper": 7319, "\u0120hop": 7320, "\u0120vig": 7321, "\u0120Systems": 7322, "\u0120Malt": 7323, "\u0120TSE": 7324, "\u0120ones": 7325, "\u0120gebe": 7326, "\u0120Verz\u00c3\u00b6": 7327, "\u0120neues": 7328, "\u0120Zahlen": 7329, "\u0120Stimme": 7330, "\u0120vorzulegen": 7331, "\u0120Anteil": 7332, "ielt": 7333, "tedly": 7334, "\u0120Schwer": 7335, "gruppe": 7336, "uell": 7337, "\u0120Einw": 7338, "\u0120supporting": 7339, "\u012031": 7340, "\u0120responsibilities": 7341, "\u0120remov": 7342, "\u0120herzlich": 7343, "\u0120lost": 7344, "geleitet": 7345, "\u0120promoting": 7346, "\u0120delighted": 7347, "\u0120plant": 7348, "\u0120critical": 7349, "\u0120Ministers": 7350, "\u0120erw\u00c3\u00a4hn": 7351, "\u0120Erzeugnisse": 7352, "\u0120generally": 7353, "\u0120reinfor": 7354, "\u0120Willen": 7355, "ugoslav": 7356, "\u0120criticism": 7357, "yprus": 7358, "\u0120fulfil": 7359, "\u0120grenz\u00c3\u00bcber": 7360, "\u0120Zypern": 7361, "PT": 7362, "craft": 7363, "iot": 7364, "iable": 7365, "iform": 7366, "van": 7367, "ya": 7368, "\u0120u": 7369, "\u0120tw": 7370, "\u0120t\u00c3\u00bcrk": 7371, "\u0120bureau": 7372, "leiten": 7373, "\u0120neither": 7374, "\u0120Ethiop": 7375, "otion": 7376, "\u0120Cyprus": 7377, "\u0120Unabh\u00c3\u00a4ng": 7378, "\u0120jetz": 7379, "qualit\u00c3\u00a4t": 7380, "ibet": 7381, "ungsver": 7382, "\u0120abend": 7383, "\u0120Schweden": 7384, "bek\u00c3\u00a4mpfung": 7385, "\u0120Erh\u00c3\u00b6hung": 7386, "\u0120implic": 7387, "\u0120prevention": 7388, "obin": 7389, "\u0120Why": 7390, "\u0120approve": 7391, "\u0120Meeres": 7392, "\u0120Umweltschutz": 7393, "\u0120Umweltfragen": 7394, "\u0120cars": 7395, "\u0120Yugoslav": 7396, "greif": 7397, "\u0120parlamentar": 7398, "\u0120introduction": 7399, "\u0120Forschungs": 7400, "\u0120carefully": 7401, "\u0120umfassende": 7402, "\u0120highlight": 7403, "\u0120Schiffe": 7404, "\u0120vorschlagen": 7405, "taaten": 7406, "\u0120Beschl\u00c3\u00bcsse": 7407, "\u0120ge\u00c3\u00a4u\u00c3\u0141ert": 7408, "\u0120Katifor": 7409, "\u0120Mozamb": 7410, "\u0120Katiforis": 7411, "DE": 7412, "uerung": 7413, "\u0120achten": 7414, "\u0120aktiv": 7415, "ona": 7416, "estens": 7417, "\u0120fr": 7418, "ara": 7419, "\u0120hol": 7420, "\u0120Sa": 7421, "\u0120Meth": 7422, "\u0120Mold": 7423, "olon": 7424, "\u0120Dan": 7425, "\u0120Dim": 7426, "\u0120Wicht": 7427, "\u0120lay": 7428, "osen": 7429, "\u0120conference": 7430, "open": 7431, "ungsbe": 7432, "tzen": 7433, "\u0120interpret": 7434, "\u0120adapt": 7435, "\u0120committees": 7436, "\u0120laid": 7437, "\u0120Vorschlags": 7438, "\u0120Alters": 7439, "\u0120attach": 7440, "\u0120extreme": 7441, "lexible": 7442, "\u0120glauben": 7443, "\u0120advoc": 7444, "zwischen": 7445, "\u0120technologies": 7446, "\u0120demokratische": 7447, "COM": 7448, "\u0120strongly": 7449, "\u0120contract": 7450, "\u0120Erzeuger": 7451, "\u0120Roman": 7452, "\u0120facilit": 7453, "\u0120Widerspruch": 7454, "\u0120flexibility": 7455, "\u0120tackle": 7456, "freiheit": 7457, "\u0120Warum": 7458, "\u0120Pr\u00c3\u00bcfung": 7459, "border": 7460, "ffizienz": 7461, "\u0120don": 7462, "\u0120betr\u00c3\u00a4cht": 7463, "\u0120beef": 7464, "\u00c3\u00b6der": 7465, "\u0120dauer": 7466, "\u0120Christ": 7467, "\u0120aufzunehmen": 7468, "\u0120stimmt": 7469, "\u0120Lauf": 7470, "\u0120Verfahrens": 7471, "\u0120Infrastruktur": 7472, "atever": 7473, "r\u00c3\u00a4ft": 7474, "\u0120schl\u00c3\u00a4gt": 7475, "\u0120amer": 7476, "\u0120enj": 7477, "\u0120compla": 7478, "\u0120betont": 7479, "assend": 7480, "\u0120Regulation": 7481, "head": 7482, "\u0120prem": 7483, "\u0120outcome": 7484, "l\u00c3\u00a4tzen": 7485, "\u0120perman": 7486, "\u0120interesting": 7487, "\u0120Monate": 7488, "\u0120Monetary": 7489, "\u0120represents": 7490, "sequent": 7491, "\u0120besonderen": 7492, "\u0120\u00c3\u00b6ffentlich": 7493, "\u0120elimin": 7494, "\u0120aircraft": 7495, "\u0120operations": 7496, "\u0120gew\u00c3\u00a4hrleistet": 7497, "\u0120opposition": 7498, "airo": 7499, "\u0120Assembly": 7500, "\u0120Irland": 7501, "\u0120destro": 7502, "\u0120erzielt": 7503, "\u0120instance": 7504, "\u0120schemes": 7505, "\u0120suspend": 7506, "\u0120patent": 7507, "\u0120\u00c3\u013ebergangs": 7508, "\u0120advantage": 7509, "\u0120perspective": 7510, "zedon": 7511, "\u0120witness": 7512, "gibt": 7513, "licht": 7514, "nimmt": 7515, "ound": 7516, "ino": 7517, "\u0120tut": 7518, "iste": 7519, "\u0120beziehen": 7520, "\u0120Trotz": 7521, "\u0120auft": 7522, "\u0120erkennen": 7523, "ateful": 7524, "\u0120vorbereit": 7525, "\u0120Anliegen": 7526, "\u0120Anforderungen": 7527, "\u0120entschlossen": 7528, "ruh": 7529, "\u01201994": 7530, "\u0120weiterer": 7531, "richten": 7532, "\u0120wenigen": 7533, "iode": 7534, "\u0120involves": 7535, "tendlich": 7536, "\u0120Flugh": 7537, "\u0120competitive": 7538, "licherweise": 7539, "\u0120\u00c3\u0138l": 7540, "\u0120expression": 7541, "\u0120zur\u00c3\u00bcckge": 7542, "\u0120einger": 7543, "\u0120Fischler": 7544, "\u0120Kontroll": 7545, "\u0120andererseits": 7546, "\u0120integrated": 7547, "\u0120globalisation": 7548, "\u0120Liberalen": 7549, "\u0120precaution": 7550, "zuf\u00c3\u00bcgen": 7551, "\u00c3\u00a4hlen": 7552, "\u0120displa": 7553, "\u0120Milch": 7554, "\u0120Greek": 7555, "\u0120derartige": 7556, "\u0120claim": 7557, "\u0120Bemerkung": 7558, "\u0120impossible": 7559, "\u0120Rechnungshof": 7560, "\u0120publish": 7561, "KOM": 7562, "mm": 7563, "\u0120temp": 7564, "iting": 7565, "altet": 7566, "roht": 7567, "\u0120told": 7568, "oms": 7569, "llaf": 7570, "ilst": 7571, "\u0120Kre": 7572, "\u0120Europol": 7573, "\u0120ge\u00c3\u00a4ndert": 7574, "\u0120gezeigt": 7575, "\u0120stabil": 7576, "\u0120Verf": 7577, "\u0120seien": 7578, "\u0120suc": 7579, "\u0120Angriff": 7580, "halte": 7581, "\u0120respekt": 7582, "gested": 7583, "\u0120End": 7584, "\u0120managed": 7585, "\u0120enor": 7586, "reichung": 7587, "\u0120Unterschiede": 7588, "front": 7589, "\u0120Sellaf": 7590, "\u0120internationaler": 7591, "haften": 7592, "\u0120angeht": 7593, "reitung": 7594, "\u0120positions": 7595, "\u0120Arbeitszeit": 7596, "\u0120gr\u00c3\u00b6\u00c3\u0141te": 7597, "\u0120Sozialdem": 7598, "\u0120aims": 7599, "\u0120benach": 7600, "\u0120Subject": 7601, "\u0120happening": 7602, "\u0120teilweise": 7603, "\u0120unterschiedlichen": 7604, "\u0120Regionalpolitik": 7605, "\u0120erfolgreich": 7606, "\u0120Partnerschaft": 7607, "\u0120consultation": 7608, "\u0120quotas": 7609, "\u0120Technologien": 7610, "\u0120GMOs": 7611, "\u0120einbezogen": 7612, "\u0120pr\u00c3\u00a4z": 7613, "igrants": 7614, "\u0120\u00c3\u013eberpr\u00c3\u00bcfung": 7615, "Staaten": 7616, "jekt": 7617, "\u0120tro": 7618, "\u0120treten": 7619, "itory": 7620, "\u0120h\u00c3\u00a4lt": 7621, "\u0120cal": 7622, "\u00c3\u00bcben": 7623, "stuff": 7624, "\u0120Every": 7625, "icip": 7626, "\u0120rejected": 7627, "\u00c3\u00b6hn": 7628, "\u0120Ru": 7629, "\u0120convention": 7630, "\u0120ergeben": 7631, "\u0120\u00c3\u00bcbertragen": 7632, "istan": 7633, "\u0120Jed": 7634, "\u0120genere": 7635, "f\u00c3\u00bchrten": 7636, "flanzen": 7637, "\u0120insurance": 7638, "gelassen": 7639, "\u0120knows": 7640, "\u0120offiz": 7641, "\u0120arrange": 7642, "\u0120added": 7643, "\u00c3\u00a4lter": 7644, "\u0120freien": 7645, "\u0120Hinweis": 7646, "\u0120serve": 7647, "\u0120Ord": 7648, "\u0120positiven": 7649, "\u0120Betrifft": 7650, "\u0120representative": 7651, "\u0120Many": 7652, "\u0120Darum": 7653, "\u0120balanced": 7654, "\u0120Strukturen": 7655, "\u0120starting": 7656, "zielle": 7657, "\u0120nonetheless": 7658, "\u0120bound": 7659, "\u0120danger": 7660, "\u0120surpr": 7661, "\u0120Selbstverst\u00c3\u00a4ndlich": 7662, "Europe": 7663, "\u0120Konflik": 7664, "\u0120Wirklichkeit": 7665, "\u0120Irak": 7666, "\u0120planning": 7667, "eschr\u00c3\u00a4nkt": 7668, "\u0120f\u00c3\u00a4llt": 7669, "\u0120forthcoming": 7670, "\u0120Consumer": 7671, "\u0120\u00c3\u013eberzeugung": 7672, "\u0120Mozambique": 7673, "\u0120Sellafield": 7674, "EU": 7675, "IT": 7676, "hre": 7677, "\u0120\u010d\u010a": 7678, "reben": 7679, "regel": 7680, "\u0120base": 7681, "\u0120bieten": 7682, "\u0120f\u00c3\u00bc": 7683, "\u0120flexible": 7684, "geiz": 7685, "\u0120Systeme": 7686, "\u0120gave": 7687, "\u0120Kr\u00c3\u00a4": 7688, "\u0120k\u00c3\u00bcrz": 7689, "\u0120Hoch": 7690, "\u0120gelangen": 7691, "\u0120soeben": 7692, "oses": 7693, "versch": 7694, "\u0120Ins": 7695, "spolit": 7696, "\u0120exem": 7697, "ensus": 7698, "\u0120suchen": 7699, "\u0120vorbe": 7700, "\u0120Anla\u00c3\u0141": 7701, "erring": 7702, "\u0120attend": 7703, "anging": 7704, "\u0120Mitgliedern": 7705, "\u0120efficiency": 7706, "\u012035": 7707, "\u0120welcom": 7708, "\u0120frage": 7709, "\u0120klaren": 7710, "\u0120minority": 7711, "\u0120gr\u00c3\u00b6\u00c3\u0141eren": 7712, "\u0120territory": 7713, "\u0120Voraussetzungen": 7714, "\u0120H\u00c3\u00b6chst": 7715, "\u0120Roma": 7716, "\u0120distribution": 7717, "\u0120Februar": 7718, "\u0120February": 7719, "\u0120uneing": 7720, "\u0120Gr\u00c3\u00bcnen": 7721, "\u0120Auditors": 7722, "\u0120Deutschland": 7723, "04": 7724, "NS": 7725, "SV": 7726, "l\u00c3\u00a4nd": 7727, "uz": 7728, "\u0120minister": 7729, "\u0120m\u00c3\u00bcnd": 7730, "\u0120frag": 7731, "\u0120unc": 7732, "\u0120beide": 7733, "uses": 7734, "\u0120Mob": 7735, "\u0120rech": 7736, "\u0120late": 7737, "\u0120Viele": 7738, "osal": 7739, "\u0120Lat": 7740, "\u0120neben": 7741, "lau": 7742, "inding": 7743, "\u0120miteinander": 7744, "\u0120Kommissionspr\u00c3\u00a4sident": 7745, "\u0120Ern": 7746, "\u0120Presse": 7747, "nahm": 7748, "\u0120finance": 7749, "\u0120warten": 7750, "l\u00c3\u00a4ss": 7751, "\u0120nationaler": 7752, "\u012032": 7753, "\u0120debates": 7754, "\u0120\u00c3\u013eberlegungen": 7755, "\u0120gewalt": 7756, "\u0120assure": 7757, "\u0120Control": 7758, "richtlinie": 7759, "\u0120series": 7760, "\u0120getting": 7761, "gemeinschaft": 7762, "\u012095": 7763, "\u0120stehenden": 7764, "\u0120operators": 7765, "\u0120detailed": 7766, "\u0120closer": 7767, "riminalit\u00c3\u00a4t": 7768, "\u0120linked": 7769, "\u0120gradu": 7770, "\u0120Basis": 7771, "\u0120verloren": 7772, "vergence": 7773, "\u0120Mosamb": 7774, "\u0120NAFO": 7775, "\u0120degree": 7776, "n\u00c3\u00bc": 7777, "punkte": 7778, "yer": 7779, "year": 7780, "enfalls": 7781, "orf": 7782, "anischen": 7783, "\u0120flag": 7784, "roh": 7785, "\u0120emissions": 7786, "\u0120angebracht": 7787, "stat": 7788, "\u0120IC": 7789, "\u0120Simbabwe": 7790, "\u0120react": 7791, "\u0120reaction": 7792, "\u0120Tibet": 7793, "\u0120Fer": 7794, "\u0120zufolge": 7795, "\u0120Lann": 7796, "ivity": 7797, "\u0120legen": 7798, "\u0120Anfragen": 7799, "steht": 7800, "\u0120heav": 7801, "\u0120comply": 7802, "\u0120consensus": 7803, "samkeit": 7804, "\u0120Aufbau": 7805, "\u0120See": 7806, "\u0120welch": 7807, "\u0120Entwicklungspolitik": 7808, "\u0120drast": 7809, "\u0120wesentliche": 7810, "\u0120gef\u00c3\u00b6rdert": 7811, "\u0120Mazedon": 7812, "\u0120sensible": 7813, "schiedet": 7814, "\u0120defined": 7815, "\u0120Ihrem": 7816, "hebung": 7817, "\u0120conflicts": 7818, "\u0120causes": 7819, "\u0120bilden": 7820, "\u0120Informationsgesellschaft": 7821, "\u0120Sektoren": 7822, "\u0120Fl\u00c3\u00bcchtlinge": 7823, "\u0120appears": 7824, "\u0120timet": 7825, "rokrat": 7826, "\u0120floor": 7827, "\u0120diversity": 7828, "\u0120virt": 7829, "\u0120succeed": 7830, "\u0120Lannoy": 7831, "ca": 7832, "systeme": 7833, "\u0120acht": 7834, "esten": 7835, "\u0120setzt": 7836, "\u0120pun": 7837, "\u0120pornograph": 7838, "igne": 7839, "\u0120Mo": 7840, "\u0120Klar": 7841, "\u0120Cor": 7842, "abor": 7843, "\u0120construction": 7844, "\u0120erfolgt": 7845, "tritt": 7846, "spr\u00c3\u00bc": 7847, "\u0120coll": 7848, "\u0120abgele": 7849, "\u0120Wege": 7850, "\u0120Berat": 7851, "seh": 7852, "astricht": 7853, "\u00c3\u00b6rder": 7854, "\u0120prison": 7855, "sibly": 7856, "\u0120decis": 7857, "\u0120Techn": 7858, "\u0120grateful": 7859, "\u0120naturally": 7860, "\u0120launch": 7861, "\u0120gelungen": 7862, "\u0120signed": 7863, "\u0120regionale": 7864, "\u0120erfordert": 7865, "\u0120Maastricht": 7866, "\u0120eingegangen": 7867, "\u0120informieren": 7868, "\u0120Vielleicht": 7869, "\u0120Gemeinsame": 7870, "\u0120vorliegende": 7871, "\u0120Arbeitspl\u00c3\u00a4tzen": 7872, "\u0120Minutes": 7873, "\u0120combating": 7874, "\u0120examine": 7875, "tellten": 7876, "\u0120verabschiedet": 7877, "\u0120methods": 7878, "\u0120verantwortlich": 7879, "\u0120Krisen": 7880, "\u0120falsch": 7881, "beh\u00c3\u00b6rde": 7882, "\u0120influence": 7883, "\u0120bureauc": 7884, "\u0120Lannoye": 7885, "II": 7886, "cent": 7887, "cement": 7888, "lose": 7889, "renn": 7890, "vi": 7891, "vent": 7892, "zwe": 7893, "zure": 7894, "\u0120dre": 7895, "unruh": 7896, "\u0120cust": 7897, "\u0120beings": 7898, "\u0120Sign": 7899, "\u0120einig": 7900, "\u0120convergence": 7901, "\u0120verweisen": 7902, "\u0120erfre": 7903, "\u0120Realit\u00c3\u00a4t": 7904, "\u0120vorange": 7905, "\u0120vorgenommen": 7906, "\u0120ausger": 7907, "\u0120Jetzt": 7908, "\u0120Erwart": 7909, "\u0120Argument": 7910, "\u0120failed": 7911, "\u0120nachdr\u00c3\u00bccklich": 7912, "\u01201993": 7913, "\u0120discip": 7914, "\u0120arr": 7915, "\u012048": 7916, "\u0120urban": 7917, "\u0120seitens": 7918, "\u0120taxation": 7919, "\u0120Brenn": 7920, "\u0120closed": 7921, "\u0120contained": 7922, "\u0120Fortschritt": 7923, "\u0120participate": 7924, "\u0120betreffenden": 7925, "\u0120Trade": 7926, "nungsgem\u00c3\u00a4\u00c3\u0141": 7927, "\u0120ordnungsgem\u00c3\u00a4\u00c3\u0141": 7928, "\u0120incineration": 7929, "schnitt": 7930, "\u0120conduct": 7931, "\u0120Angola": 7932, "\u0120constructive": 7933, "\u0120ausgesprochen": 7934, "\u0120grenz\u00c3\u00bcberschreit": 7935, "fleisch": 7936, "\u0120ton": 7937, "itime": 7938, "atively": 7939, "\u0120inade": 7940, "\u0120night": 7941, "\u0120n\u00c3\u00b6t": 7942, "\u0120unbe": 7943, "rap": 7944, "emit": 7945, "\u0120Bur": 7946, "\u0120From": 7947, "bere": 7948, "\u0120Krank": 7949, "\u0120Gu": 7950, "\u0120verstanden": 7951, "andal": 7952, "\u0120Inn": 7953, "\u0120ras": 7954, "ugnisse": 7955, "\u0120Bef\u00c3\u00bcr": 7956, "grenzen": 7957, "\u0120thereby": 7958, "\u0120manage": 7959, "\u0120appoint": 7960, "\u0120\u00c3\u0126thiop": 7961, "l\u00c3\u00a4ge": 7962, "wirkt": 7963, "\u0120factor": 7964, "hagen": 7965, "selben": 7966, "f\u00c3\u00bchl": 7967, "\u0120continent": 7968, "\u0120notwendige": 7969, "\u0120seiten": 7970, "\u0120besseren": 7971, "dienste": 7972, "\u0120guaranteed": 7973, "\u0120controls": 7974, "\u0120umfang": 7975, "\u0120eingef\u00c3\u00bchrt": 7976, "stoff": 7977, "\u0120postpon": 7978, "\u0120individuals": 7979, "\u0120railway": 7980, "\u0120l\u00c3\u00a4ndliche": 7981, "s\u00c3\u00a4tzen": 7982, "\u0120Fremdenverkehr": 7983, "\u0120Serbia": 7984, "\u0120Resolution": 7985, "\u0120Drittl\u00c3\u00a4ndern": 7986, "\u0120target": 7987, "\u0120ceil": 7988, "\u0120separate": 7989, "\u0120nahe": 7990, "\u0120Schweiz": 7991, "\u0120Malta": 7992, "\u0120enjoy": 7993, "\u0120Mosambik": 7994, "commun": 7995, "fu": 7996, "erten": 7997, "\u0120sla": 7998, "\u0120sorg": 7999, "atible": 8000, "orum": 8001, "\u0120unless": 8002, "\u0120Element": 8003, "\u0120Effizienz": 8004, "\u0120Don": 8005, "\u0120W\u00c3\u00bcr": 8006, "\u0120Waffen": 8007, "ulations": 8008, "\u0120Rent": 8009, "\u0120lies": 8010, "\u0120fordert": 8011, "\u0120conciliation": 8012, "achs": 8013, "\u0120desire": 8014, "qual": 8015, "\u0120coup": 8016, "\u0120rass": 8017, "\u0120vorzu": 8018, "\u0120abgestimmt": 8019, "\u0120compar": 8020, "\u0120compuls": 8021, "\u0120conserv": 8022, "\u0120expens": 8023, "\u0120considers": 8024, "\u0120einzigen": 8025, "actory": 8026, "\u0120monopol": 8027, "\u01202006": 8028, "sproz": 8029, "\u0120investments": 8030, "\u0120folgendes": 8031, "\u0120Besonder": 8032, "\u0120Neu": 8033, "\u0120hervorheben": 8034, "\u0120Zus\u00c3\u00a4tz": 8035, "\u0120meaning": 8036, "\u0120Freiheiten": 8037, "\u0120nieder": 8038, "\u0120suggested": 8039, "\u0120Feststellung": 8040, "\u0120disasters": 8041, "\u0120obligation": 8042, "\u0120Green": 8043, "\u0120elsewhere": 8044, "\u0120symp": 8045, "\u0120erh\u00c3\u00b6hen": 8046, "\u0120disease": 8047, "\u0120Verletzung": 8048, "\u0120clean": 8049, "\u0120precautionary": 8050, "%.": 8051, "ernen": 8052, "erma\u00c3\u0141en": 8053, "itable": 8054, "attet": 8055, "\u0120Akt": 8056, "\u0120zeit": 8057, "\u0120grie": 8058, "\u0120forced": 8059, "\u0120Comp": 8060, "\u0120Verk": 8061, "\u0120wert": 8062, "ibiot": 8063, "\u0120Vorbe": 8064, "\u0120daraus": 8065, "\u0120worse": 8066, "\u0120compl": 8067, "\u0120durchzuf\u00c3\u00bchren": 8068, "igkeits": 8069, "\u0120gegenseit": 8070, "barer": 8071, "istenz": 8072, "\u0120Meines": 8073, "endence": 8074, "\u0120Interoper": 8075, "\u0120letzt": 8076, "\u0120highest": 8077, "reitet": 8078, "versorgung": 8079, "\u0120allowing": 8080, "\u0120bek\u00c3\u00a4mpfen": 8081, "\u0120bekr\u00c3\u00a4ft": 8082, "\u0120einzelstaat": 8083, "\u0120fighting": 8084, "\u0120version": 8085, "\u0120k\u00c3\u00bcnftigen": 8086, "\u0120Vorsorge": 8087, "\u0120Greens": 8088, "\u0120demonst": 8089, "\u0120started": 8090, "\u0120lower": 8091, "\u0120Vereinbarungen": 8092, "\u0120Lebensmittelsicherheit": 8093, "\u0120Konsult": 8094, "\u0120Welche": 8095, "\u0120sources": 8096, "\u0120exclusion": 8097, "\u0120elektronischen": 8098, "\u0120designed": 8099, "\u0120Bananen": 8100, "Ab": 8101, "hy": 8102, "lings": 8103, "\u0120ut": 8104, "\u0120af": 8105, "ato": 8106, "\u0120Mand": 8107, "\u0120Bird": 8108, "\u0120Wales": 8109, "\u0120zugr": 8110, "idd": 8111, "\u0120dahin": 8112, "ables": 8113, "\u0120sovere": 8114, "\u0120stor": 8115, "\u0120stip": 8116, "\u0120Li": 8117, "\u0120Lank": 8118, "\u0120Verst": 8119, "\u0120Versuch": 8120, "\u0120jem": 8121, "\u0120Rechten": 8122, "ibed": 8123, "\u0120vorgelegten": 8124, "\u0120Angaben": 8125, "\u0120sichern": 8126, "\u0120\u00c3\u00bcberall": 8127, "schau": 8128, "\u0120ausgehen": 8129, "ertrag": 8130, "\u0120faced": 8131, "\u0120Einigung": 8132, "\u00c3\u00bcnde": 8133, "\u00c3\u00b6rper": 8134, "\u0120politic": 8135, "osev": 8136, "\u0120worked": 8137, "\u0120justified": 8138, "\u0120factors": 8139, "worfen": 8140, "\u0120insist": 8141, "\u0120Seattle": 8142, "active": 8143, "\u0120Daf\u00c3\u00bcr": 8144, "\u0120scale": 8145, "\u0120citizen": 8146, "\u0120Verbraucherpolitik": 8147, "\u0120Organis": 8148, "\u0120Quoten": 8149, "\u0120Trans": 8150, "weder": 8151, "stehenden": 8152, "\u0120growing": 8153, "\u0120Energien": 8154, "\u0120Vielfalt": 8155, "\u0120board": 8156, "\u0120passed": 8157, "\u0120Milosev": 8158, "\u0120zahlreichen": 8159, "\u0120entirely": 8160, "\u0120praktisch": 8161, "\u0120Prakt": 8162, "\u0120beschr\u00c3\u00a4nken": 8163, "\u0120Budgetary": 8164, "\u0120j\u00c3\u00bcngsten": 8165, "\u0120gratulieren": 8166, "\u0120smoking": 8167, "\u0120Monti": 8168, "\u0120Botschaft": 8169, "opoulos": 8170, "\u0120vessels": 8171, "\u0120doctors": 8172, "\u0120griech": 8173, "\u0120zugrunde": 8174, "\u0120sovereign": 8175, "besch\u00c3\u00a4ft": 8176, "ipp": 8177, "kungen": 8178, "rne": 8179, "enkt": 8180, "onom": 8181, "isted": 8182, "atischen": 8183, "rechten": 8184, "\u0120h\u00c3\u00b6ren": 8185, "\u0120union": 8186, "\u0120Soll": 8187, "\u0120Sri": 8188, "\u0120zerst": 8189, "\u0120eingeb": 8190, "icted": 8191, "imal": 8192, "amer": 8193, "\u0120Tun": 8194, "\u0120Tschetschen": 8195, "\u0120zuk": 8196, "\u0120kennen": 8197, "\u0120prospect": 8198, "\u0120er\u00c3\u00b6r": 8199, "\u0120Ungleich": 8200, "\u0120Univers": 8201, "\u0120Verlauf": 8202, "\u0120NR": 8203, "akis": 8204, "\u0120nachdem": 8205, "\u0120stelle": 8206, "\u01201992": 8207, "chnya": 8208, "otechnolog": 8209, "\u0120supports": 8210, "mittelt": 8211, "\u0120evening": 8212, "\u0120letztendlich": 8213, "\u0120Wirtschaftspolitik": 8214, "\u0120Zielsetzungen": 8215, "\u0120Abstimmungen": 8216, "\u0120truly": 8217, "\u01202003": 8218, "\u0120wissenschaftlichen": 8219, "\u0120urgency": 8220, "\u0120Only": 8221, "\u0120Sozialschutz": 8222, "kommt": 8223, "\u0120institutionellen": 8224, "\u0120n\u00c3\u00a4chste": 8225, "ifizierung": 8226, "\u0120erinnert": 8227, "\u0120protecting": 8228, "\u0120ernsthaft": 8229, "\u0120Ratspr\u00c3\u00a4sidentschaft": 8230, "stellungen": 8231, "\u0120grundlegende": 8232, "\u0120Familie": 8233, "\u0120Byrne": 8234, "\u0120occasions": 8235, "\u0120Hintergrund": 8236, "\u0120Chechnya": 8237, "\u0120enterprises": 8238, "\u0120\u00c3\u0126rz": 8239, "n\u00c3\u00bcp": 8240, "\u0120compulsory": 8241, "-,": 8242, "AR": 8243, "besch": 8244, "lit": 8245, "mar": 8246, "ton": 8247, "uens": 8248, "\u01200": 8249, "\u0120aver": 8250, "itrak": 8251, "\u0120session": 8252, "reche": 8253, "\u0120bir": 8254, "\u0120isol": 8255, "\u0120Pact": 8256, "utin": 8257, "\u0120auff": 8258, "\u0120loss": 8259, "\u0120Hung": 8260, "\u0120Hul": 8261, "\u0120ver\u00c3\u00a4nder": 8262, "\u0120verst\u00c3\u00a4nd": 8263, "\u0120seven": 8264, "\u0120exists": 8265, "\u0120allzu": 8266, "\u0120range": 8267, "\u0120Beob": 8268, "\u0120Ausnahme": 8269, "\u0120Schre": 8270, "\u0120Erarbeitung": 8271, "\u0120enh": 8272, "apan": 8273, "\u0120Defiz": 8274, "strategie": 8275, "\u0120acquis": 8276, "\u0120Herzen": 8277, "\u0120meetings": 8278, "\u0120define": 8279, "\u0120niemals": 8280, "\u0120verbessert": 8281, "\u0120drawing": 8282, "\u0120besch\u00c3\u00a4ftigt": 8283, "\u0120erheblich": 8284, "\u0120seeking": 8285, "\u0120speziellen": 8286, "\u0120Idee": 8287, "\u0120bilateral": 8288, "\u0120occasion": 8289, "what": 8290, "\u0120ehrgeiz": 8291, "\u0120afrikanischen": 8292, "\u0120Ethiopia": 8293, "\u0120jetzigen": 8294, "\u0120Dimitrak": 8295, "stuffs": 8296, "\u0120arrangements": 8297, "\u0120Mazedonien": 8298, "communications": 8299, "\u0120Birdal": 8300, "\u0120Milosevic": 8301, "\u0120Dimitrakopoulos": 8302, "brit": 8303, "based": 8304, "cision": 8305, "fangen": 8306, "hib": 8307, "zieren": 8308, "\u0120dign": 8309, "\u0120sw": 8310, "atur": 8311, "teten": 8312, "\u0120Modell": 8313, "ico": 8314, "eitigung": 8315, "\u00c3\u00b6p": 8316, "\u0120whatever": 8317, "\u0120Rind": 8318, "\u0120forest": 8319, "\u0120sole": 8320, "\u0120Zeich": 8321, "ikations": 8322, "trieben": 8323, "\u0120Report": 8324, "\u0120Reaktion": 8325, "\u0120\u00c3\u00bcbernommen": 8326, "\u0120Bek": 8327, "ahren": 8328, "\u0120Ausgrenzung": 8329, "heits": 8330, "\u0120Abf\u00c3\u00a4lle": 8331, "cedon": 8332, "f\u00c3\u00bchrungs": 8333, "\u0120somewhat": 8334, "\u0120gewiss": 8335, "\u0120amended": 8336, "\u0120welcher": 8337, "\u0120requested": 8338, "programm": 8339, "\u0120wiederum": 8340, "\u0120Zielen": 8341, "\u0120rapporteurs": 8342, "\u0120Arbeitsmarkt": 8343, "\u0120Heimat": 8344, "\u012070": 8345, "\u0120Macedon": 8346, "\u0120practices": 8347, "greement": 8348, "\u0120speaker": 8349, "\u0120privaten": 8350, "\u0120oppos": 8351, "\u0120technological": 8352, "\u0120niemand": 8353, "\u0120violations": 8354, "\u0120Diskussionen": 8355, "\u0120terror": 8356, "\u0120Gemeinschaftsin": 8357, "\u0120\u00c3\u013ebereinstimmung": 8358, "\u0120Wirkung": 8359, "\u0120employees": 8360, "\u0120Spanish": 8361, "\u0120briefly": 8362, "\u0120ben\u00c3\u00b6tigen": 8363, "entwicklung": 8364, "politischen": 8365, "\u0120declaration": 8366, "\u0120anerkannt": 8367, "\u0120Umst\u00c3\u00a4nden": 8368, "\u0120NGOs": 8369, "\u0120timetable": 8370, "\u0120Modern": 8371, "besch\u00c3\u00a4ftigung": 8372, "CNS": 8373, "ball": 8374, "cast": 8375, "feit": 8376, "mil": 8377, "nes": 8378, "pakt": 8379, "wal": 8380, "\u0120dynam": 8381, "\u0120har": 8382, "\u0120hund": 8383, "\u0120nations": 8384, "\u0120crop": 8385, "\u00c3\u00a4s": 8386, "\u0120beunruh": 8387, "\u0120Agreement": 8388, "\u0120Swed": 8389, "icate": 8390, "\u0120ging": 8391, "\u0120reiter": 8392, "ama": 8393, "\u0120Tobin": 8394, "\u0120denken": 8395, "\u0120gepr\u00c3\u00bcft": 8396, "\u0120deleg": 8397, "\u0120abst": 8398, "\u0120Je": 8399, "\u0120Ober": 8400, "\u0120incident": 8401, "\u0120genannt": 8402, "\u0120imposed": 8403, "inken": 8404, "\u0120Unterschied": 8405, "ception": 8406, "amente": 8407, "klang": 8408, "\u0120Atlant": 8409, "\u0120eingehalten": 8410, "rechtlichen": 8411, "\u0120operate": 8412, "f\u00c3\u00a4hig": 8413, "\u0120befa\u00c3\u0141t": 8414, "\u0120Italian": 8415, "\u0120label": 8416, "\u0120geeigne": 8417, "\u0120Wachstums": 8418, "\u0120immediate": 8419, "strafe": 8420, "\u0120Russia": 8421, "\u0120Genehm": 8422, "\u0120spoken": 8423, "\u0120kulturellen": 8424, "\u0120proportion": 8425, "\u0120types": 8426, "\u0120thousands": 8427, "\u0120\u00c3\u0126thiopien": 8428, "\u0120zuk\u00c3\u00bcnft": 8429, "mien": 8430, "na": 8431, "isierten": 8432, "\u0120won": 8433, "\u0120writ": 8434, "reifen": 8435, "\u0120front": 8436, "techn": 8437, "\u0120passen": 8438, "\u0120cigaret": 8439, "ash": 8440, "\u0120EG": 8441, "igend": 8442, "uting": 8443, "\u0120regel": 8444, "\u0120D\u00c3\u00a4n": 8445, "\u0120Dring": 8446, "schung": 8447, "hrten": 8448, "\u00c3\u00b6konom": 8449, "\u0120Ro": 8450, "\u0120Ganz": 8451, "\u0120wealth": 8452, "anda": 8453, "\u0120st\u00c3\u00a4r": 8454, "\u0120Versammlung": 8455, "\u0120mitteilen": 8456, "\u0120Anzahl": 8457, "\u0120meant": 8458, "\u0120ausreichen": 8459, "\u0120Begr\u00c3\u00bcnd": 8460, "\u0120regular": 8461, "\u0120ende": 8462, "\u0120gen\u00c3\u00bc": 8463, "\u0120accomp": 8464, "\u0120permit": 8465, "\u0120Leute": 8466, "ildet": 8467, "\u0120hoffentlich": 8468, "\u0120resolve": 8469, "\u0120bringing": 8470, "\u0120promotion": 8471, "\u0120gr\u00c3\u00b6\u00c3\u0141er": 8472, "\u0120supply": 8473, "\u0120umfassend": 8474, "\u0120ready": 8475, "\u0120allgemeine": 8476, "\u0120Exper": 8477, "\u0120occup": 8478, "\u0120Binnenmarktes": 8479, "\u0120appell": 8480, "\u0120w\u00c3\u00bcnschen": 8481, "\u0120Gro\u00c3\u0141brit": 8482, "\u0120massive": 8483, "\u0120Eastern": 8484, "\u0120incorporated": 8485, "\u0120funktioniert": 8486, "\u0120belong": 8487, "\u0120allocated": 8488, "\u0120best\u00c3\u00a4tigt": 8489, "\u0120Betrugs": 8490, "\u0120verurteilt": 8491, "\u0120diesbez\u00c3\u00bcglich": 8492, "\u0120Mitarbeiter": 8493, "\u0120Verst\u00c3\u00a4ndnis": 8494, "\u0120Analyse": 8495, "\u0120entitled": 8496, "\u0120konstrukt": 8497, "\u0120abgelehnt": 8498, "\u0120Tschetschenien": 8499, "\u0120Gro\u00c3\u0141britann": 8500, "Die": 8501, "avour": 8502, "national": 8503, "oon": 8504, "systems": 8505, "zusammen": 8506, "\u0120dig": 8507, "\u0120dritten": 8508, "inner": 8509, "\u0120slow": 8510, "aters": 8511, "orient": 8512, "\u0120binding": 8513, "\u0120inte": 8514, "\u0120fle": 8515, "\u0120anstatt": 8516, "\u0120tool": 8517, "\u0120Eigen": 8518, "\u0120Sorgen": 8519, "emark": 8520, "ima": 8521, "schlag": 8522, "\u0120Ter": 8523, "ilater": 8524, "\u0120Kriminalit\u00c3\u00a4t": 8525, "\u0120fordere": 8526, "resented": 8527, "\u0120verring": 8528, "ver\u00c3\u00a4n": 8529, "\u0120Zigaret": 8530, "aket": 8531, "\u0120oral": 8532, "\u0120Journal": 8533, "\u0120Japan": 8534, "\u0120darunter": 8535, "\u01202010": 8536, "\u0120amounts": 8537, "\u0120politics": 8538, "\u0120consolid": 8539, "\u0120spricht": 8540, "\u0120sprach": 8541, "\u0120expert": 8542, "\u0120differences": 8543, "\u0120Zeitplan": 8544, "icherungs": 8545, "\u0120festzulegen": 8546, "\u0120festgelegten": 8547, "itzer": 8548, "\u0120Teilen": 8549, "\u0120Freedom": 8550, "\u0120requirement": 8551, "\u0120vollkommen": 8552, "\u0120plants": 8553, "\u0120leading": 8554, "\u0120precise": 8555, "wegs": 8556, "\u0120kleine": 8557, "\u0120Frist": 8558, "\u0120verf\u00c3\u00bcgt": 8559, "\u0120poorest": 8560, "\u0120Agrarpolitik": 8561, "\u0120border": 8562, "\u0120traditional": 8563, "\u0120suffering": 8564, "\u0120legitimate": 8565, "\u0120Zusatzstoffe": 8566, "\u0120Russian": 8567, "\u0120Geneva": 8568, "\u0120remarks": 8569, "\u0120etc": 8570, "ommerce": 8571, "\u0120versichern": 8572, "\u0120targets": 8573, "\u0120dignity": 8574, "Vertrag": 8575, "dent": 8576, "fa\u00c3\u0141t": 8577, "kre": 8578, "lated": 8579, "ming": 8580, "pr\u00c3\u00a4sident": 8581, "uk": 8582, "\u0120\u00c3\u00a4rm": 8583, "chsel": 8584, "\u0120thor": 8585, "isemit": 8586, "orate": 8587, "\u0120Ebenso": 8588, "\u0120Po": 8589, "\u0120Tagen": 8590, "\u0120Women": 8591, "lichung": 8592, "\u0120zugelassen": 8593, "\u0120Ky": 8594, "\u0120whilst": 8595, "\u0120Ru\u00c3\u0141": 8596, "\u0120len": 8597, "\u0120Glaub": 8598, "orthern": 8599, "\u0120prove": 8600, "\u0120Lab": 8601, "\u0120Ziff": 8602, "tsein": 8603, "spunkt": 8604, "004": 8605, "ields": 8606, "upts": 8607, "\u0120sieben": 8608, "\u0120m\u00c3\u00b6glichen": 8609, "\u0120obsta": 8610, "\u0120issu": 8611, "\u0120considerations": 8612, "\u0120greatest": 8613, "\u0120weiteres": 8614, "\u0120Problems": 8615, "\u00c3\u00b6\u00c3\u0141e": 8616, "standing": 8617, "\u0120irre": 8618, "\u0120supposed": 8619, "\u0120rechtlichen": 8620, "\u0120bestimmter": 8621, "\u0120begr\u00c3\u00bc\u00c3\u0141t": 8622, "\u0120revision": 8623, "\u0120Stra\u00c3\u0141en": 8624, "\u0120opening": 8625, "\u0120Hoffnung": 8626, "\u0120amongst": 8627, "\u0120MEDA": 8628, "\u0120studies": 8629, "\u0120extended": 8630, "\u0120grundlegenden": 8631, "\u0120erzielen": 8632, "\u0120television": 8633, "\u0120telecommunications": 8634, "\u0120exception": 8635, "kosten": 8636, "\u0120Lastly": 8637, "\u0120lokalen": 8638, "\u0120Charakter": 8639, "\u0120announced": 8640, "\u0120t\u00c3\u00a4tig": 8641, "\u0120horiz": 8642, "\u0120pornography": 8643, "\u0120NRO": 8644, "\u0120average": 8645, "\u0120D\u00c3\u00a4nemark": 8646, "\u0120thorough": 8647, "\u0120obstac": 8648, "Ber": 8649, "pay": 8650, "sieht": 8651, "tin": 8652, "vors": 8653, "wide": 8654, "\u0120dan": 8655, "\u0120apart": 8656, "tehen": 8657, "leun": 8658, "\u0120pill": 8659, "\u0120pensions": 8660, "\u0120angest": 8661, "\u0120uniform": 8662, "\u0120Eig": 8663, "\u0120Akte": 8664, "\u0120Sav": 8665, "\u0120lob": 8666, "\u0120korre": 8667, "\u0120H\u00c3\u00a4l": 8668, "\u0120diesel": 8669, "\u0120erle": 8670, "\u0120jun": 8671, "\u0120respected": 8672, "ufe": 8673, "\u0120Schreiben": 8674, "\u0120Office": 8675, "\u0120seines": 8676, "\u0120envis": 8677, "\u0120betreffend": 8678, "\u0120Geber": 8679, "\u0120spezielle": 8680, "heim": 8681, "\u0120spending": 8682, "\u0120anyone": 8683, "\u0120acts": 8684, "\u0120assume": 8685, "\u0120500": 8686, "\u0120protected": 8687, "\u0120Mittelpunkt": 8688, "\u0120wirklichen": 8689, "f\u00c3\u00a4ll": 8690, "\u0120zweck": 8691, "\u0120Nachbar": 8692, "\u0120Nachdruck": 8693, "\u0120angek\u00c3\u00bcnd": 8694, "\u0120examples": 8695, "\u0120sicherstellen": 8696, "\u0120Freiz": 8697, "\u0120Organe": 8698, "\u0120personally": 8699, "\u0120immigrants": 8700, "zwungen": 8701, "\u0120changed": 8702, "\u0120Gegenstand": 8703, "\u0120release": 8704, "\u0120recognition": 8705, "\u0120links": 8706, "\u0120potent": 8707, "\u0120sexual": 8708, "\u0120visit": 8709, "\u0120Serbien": 8710, "\u0120Denmark": 8711, "\u0120spielt": 8712, "\u0120koh": 8713, "\u0120innovation": 8714, "\u0120irgendein": 8715, "\u0120coherent": 8716, "\u0120tariff": 8717, "\u0120mobil": 8718, "\u0120schlimm": 8719, "spartei": 8720, "\u0120Subsidiarit\u00c3\u00a4t": 8721, "\u0120manufacturers": 8722, "\u0120implications": 8723, "\u0120Ordnung": 8724, "\u0120decisive": 8725, "\u0120demonstrated": 8726, "\u0120Modernisierung": 8727, "\u0120H\u00c3\u00a4lfte": 8728, "DS": 8729, "aust": 8730, "bod": 8731, "commerce": 8732, "eb": 8733, "uner": 8734, "\u0120wom": 8735, "lein": 8736, "gehens": 8737, "\u0120Bund": 8738, "elte": 8739, "\u0120retain": 8740, "olk": 8741, "\u0120zuletzt": 8742, "\u0120alten": 8743, "\u0120verlei": 8744, "\u0120erarbeitet": 8745, "\u0120Verring": 8746, "ungsbereich": 8747, "\u0120\u00c3\u00bcberzeugen": 8748, "\u0120Einklang": 8749, "\u0120disag": 8750, "\u0120accounts": 8751, "\u0120difference": 8752, "\u0120Gesetze": 8753, "\u0120welchen": 8754, "program": 8755, "\u012042": 8756, "\u0120verbind": 8757, "\u0120realise": 8758, "lemente": 8759, "\u0120presence": 8760, "\u0120gebill": 8761, "\u0120capable": 8762, "stoffen": 8763, "\u0120understanding": 8764, "urteilung": 8765, "\u0120Socialists": 8766, "\u0120veget": 8767, "\u0120folgende": 8768, "\u0120vereinbar": 8769, "\u0120highlighted": 8770, "\u0120reconstruction": 8771, "\u0120credibility": 8772, "\u0120improvements": 8773, "\u0120fehlt": 8774, "\u0120undertakings": 8775, "\u0120herrscht": 8776, "\u0120Security": 8777, "\u0120exploitation": 8778, "\u0120Stabilit\u00c3\u00a4tspakt": 8779, "\u0120Flexibilit\u00c3\u00a4t": 8780, "\u0120permanent": 8781, "\u0120letztlich": 8782, "\u0120Swedish": 8783, "\u0120Dringlichkeit": 8784, "25": 8785, "SA": 8786, "det": 8787, "mos": 8788, "nt": 8789, "ints": 8790, "itel": 8791, "ald": 8792, "\u0120fu": 8793, "ley": 8794, "\u00c3\u00a4umen": 8795, "igerung": 8796, "\u0120She": 8797, "utor": 8798, "\u0120Ben": 8799, "\u0120Bos": 8800, "ille": 8801, "\u0120Kind": 8802, "\u00c3\u00bcrf": 8803, "\u0120High": 8804, "\u0120verlangt": 8805, "\u00c3\u00a4ngt": 8806, "\u0120existence": 8807, "\u0120russ": 8808, "\u0120Theato": 8809, "\u0120Stunden": 8810, "\u0120shared": 8811, "\u0120mechan": 8812, "\u0120Beisp": 8813, "\u0120Ausbe": 8814, "\u0120Ausarbeitung": 8815, "\u0120dipl": 8816, "lined": 8817, "\u0120legally": 8818, "\u0120Konzept": 8819, "\u0120mehreren": 8820, "\u0120solve": 8821, "gebie": 8822, "\u0120damals": 8823, "\u012038": 8824, "\u0120debating": 8825, "reift": 8826, "\u0120wichtiges": 8827, "\u0120involvement": 8828, "wirtschaftung": 8829, "\u0120gel\u00c3\u00b6st": 8830, "\u0120Beseitigung": 8831, "\u0120Produktion": 8832, "ikanen": 8833, "\u0120nevertheless": 8834, "\u0120families": 8835, "\u0120Prinzipien": 8836, "\u0120clarify": 8837, "\u0120Belgium": 8838, "\u0120M\u00c3\u00a4rkte": 8839, "\u0120Koh\u00c3\u00a4s": 8840, "\u0120counterfeit": 8841, "\u0120inspection": 8842, "\u0120Tourismus": 8843, "vergenz": 8844, "\u0120extensive": 8845, "\u0120Andererseits": 8846, "\u0120B\u00c3\u00b6sch": 8847, "\u0120concentrate": 8848, "\u0120Aktionsplan": 8849, "\u0120unmittelbar": 8850, "\u0120Stoffe": 8851, "\u0120universal": 8852, "\u0120hervorgehoben": 8853, "\u0120Yugoslavia": 8854, "\u0120Innov": 8855, "\u0120Interoperabilit\u00c3\u00a4t": 8856, "\u0120Vorsorgeprinzip": 8857, "iddle": 8858, "\u0120Zigaretten": 8859, "\u0120Beispiele": 8860, "\u0120diplom": 8861, "VP": 8862, "\u0120tr\u00c3\u00a4gt": 8863, "\u0120sides": 8864, "ather": 8865, "\u0120bla": 8866, "\u0120mach": 8867, "\u0120unf": 8868, "\u0120unre": 8869, "\u0120S\u00c3\u00a4": 8870, "\u0120Swo": 8871, "\u0120Mann": 8872, "ragt": 8873, "\u0120Budgets": 8874, "\u0120Kandidaten": 8875, "umed": 8876, "\u0120er\u00c3\u00b6ff": 8877, "\u0120Nether": 8878, "\u0120Real": 8879, "\u0120leiden": 8880, "ifteen": 8881, "ckung": 8882, "\u0120Anlagen": 8883, "\u0120Europeans": 8884, "\u0120Ja": 8885, "\u0120Joint": 8886, "\u0120Ausma\u00c3\u0141": 8887, "\u0120Wird": 8888, "\u0120Vorgehens": 8889, "\u0120genutzt": 8890, "\u0120Konvergenz": 8891, "\u0120solches": 8892, "\u0120vieler": 8893, "\u0120gewissen": 8894, "\u0120bestimmt": 8895, "\u0120wichtigste": 8896, "\u0120approx": 8897, "sucht": 8898, "\u00c3\u00a4ltigen": 8899, "\u0120Hersteller": 8900, "\u0120opinions": 8901, "\u0120followed": 8902, "\u0120Wettbewerbspolitik": 8903, "\u0120secure": 8904, "016": 8905, "\u0120simpl": 8906, "wirkung": 8907, "\u0120collective": 8908, "\u0120Marktes": 8909, "\u0120offenbar": 8910, "\u0120Entwicklungsl\u00c3\u00a4nder": 8911, "\u0120built": 8912, "\u0120oppose": 8913, "bereiche": 8914, "\u0120multi": 8915, "\u0120margin": 8916, "\u0120Obwohl": 8917, "IPC": 8918, "\u0120Untersuchung": 8919, "\u0120extension": 8920, "\u0120emergency": 8921, "\u0120juris": 8922, "\u0120Niederlan": 8923, "\u0120experts": 8924, "\u0120competence": 8925, "openhagen": 8926, "\u0120Ferber": 8927, "rapie": 8928, "\u0120Zeichen": 8929, "boda": 8930, "\u0120Swoboda": 8931, "\u0120Netherlands": 8932, "bo": 8933, "liament": 8934, "macht": 8935, "set": 8936, "wind": 8937, "\u0120diss": 8938, "\u0120wettbewerb": 8939, "\u0120fift": 8940, "\u0120phen": 8941, "enty": 8942, "\u0120toler": 8943, "stance": 8944, "\u0120Ster": 8945, "\u0120M\u00c3\u00bc": 8946, "\u0120Mart": 8947, "\u0120eingebracht": 8948, "\u0120Pflanzen": 8949, "\u0120Tai": 8950, "\u0120Wissens": 8951, "\u0120Rule": 8952, "\u0120kam": 8953, "\u0120HIPC": 8954, "\u0120imag": 8955, "\u0120ver\u00c3\u00b6ff": 8956, "verletz": 8957, "\u0120italien": 8958, "herr": 8959, "ugt": 8960, "\u0120Sch\u00c3\u00a4den": 8961, "\u0120adjust": 8962, "udem": 8963, "ishing": 8964, "\u0120possibly": 8965, "\u0120weitgehend": 8966, "\u01201990": 8967, "l\u00c3\u00a4ufig": 8968, "\u0120Entwicklungen": 8969, "\u0120placed": 8970, "\u0120nat\u00c3\u00bcr": 8971, "\u0120Hindern": 8972, "\u0120wenige": 8973, "\u0120Berichterstatters": 8974, "\u0120stands": 8975, "\u0120signal": 8976, "\u0120geboten": 8977, "\u0120bedauer": 8978, "\u0120Once": 8979, "\u0120Besuch": 8980, "\u0120richten": 8981, "\u0120Gleichstellung": 8982, "\u0120climate": 8983, "\u0120globalen": 8984, "ktivit\u00c3\u00a4t": 8985, "\u0120informiert": 8986, "mbol": 8987, "\u0120schwierigen": 8988, "\u0120ethnischen": 8989, "\u0120franz\u00c3\u00b6sische": 8990, "w\u00c3\u00bcrdigkeit": 8991, "stream": 8992, "\u0120proceedings": 8993, "2006": 8994, "\u0120Tourism": 8995, "stattung": 8996, "\u0120source": 8997, "\u0120j\u00c3\u00a4hrlich": 8998, "\u0120Zwischen": 8999, "\u0120Einschr\u00c3\u00a4n": 9000, "\u0120beinhal": 9001, "\u0120urspr\u00c3\u00bcnglichen": 9002, "\u0120beigetragen": 9003, "\u00c3\u00a4umt": 9004, "\u0120Vorredner": 9005, "\u0120Einwander": 9006, "lauben": 9007, "viour": 9008, "\u0120Erwartungen": 9009, "\u0120sorgf\u00c3\u00a4lt": 9010, "\u0120Zus\u00c3\u00a4tzlichkeit": 9011, "\u0120horizont": 9012, "\u0120phenomen": 9013, "IDS": 9014, "fers": 9015, "meld": 9016, "person": 9017, "session": 9018, "union": 9019, "\u0120waters": 9020, "regelung": 9021, "lehnung": 9022, "\u0120path": 9023, "\u0120Eben": 9024, "ingu": 9025, "\u0120island": 9026, "\u0120Mi\u00c3\u0141brauch": 9027, "\u0120eingeleitet": 9028, "\u0120Pa": 9029, "ichtlinie": 9030, "\u0120Tiere": 9031, "\u0120Waren": 9032, "\u0120Fore": 9033, "\u0120Kategor": 9034, "\u0120Rel": 9035, "\u0120Clear": 9036, "\u0120Here": 9037, "\u0120prosper": 9038, "\u0120prohib": 9039, "\u0120Zudem": 9040, "\u0120Netze": 9041, "endum": 9042, "akten": 9043, "\u0120rich": 9044, "\u0120vorrang": 9045, "\u0120Anmerk": 9046, "\u0120abuse": 9047, "\u0120Beachtung": 9048, "\u0120Jugoslaw": 9049, "\u0120Erk": 9050, "\u0120Armen": 9051, "\u0120Mitentscheid": 9052, "\u0120nachzu": 9053, "\u00c3\u00bchrt": 9054, "\u0120mu\u00c3\u0141ten": 9055, "hlt": 9056, "lock": 9057, "\u0120warm": 9058, "\u0120hinzuf\u00c3\u00bcgen": 9059, "\u0120moving": 9060, "ignet": 9061, "\u0120Verbot": 9062, "\u0120economies": 9063, "handlungen": 9064, "\u0120gro\u00c3\u0141es": 9065, "\u0120remote": 9066, "loyed": 9067, "\u0120monetary": 9068, "\u0120Flor": 9069, "\u0120sicherzustellen": 9070, "\u0120Handeln": 9071, "\u0120equip": 9072, "\u0120correspon": 9073, "\u0120drafting": 9074, "\u0120disposal": 9075, "\u0120teilen": 9076, "\u0120America": 9077, "\u0120familiar": 9078, "\u0120Diskriminierungen": 9079, "\u0120Tagung": 9080, "\u0120innovative": 9081, "\u0120Katastrophen": 9082, "\u0120jener": 9083, "\u0120demonstrate": 9084, "\u0120Wiederaufbau": 9085, "\u0120Stadt": 9086, "\u0120consistent": 9087, "\u0120ecological": 9088, "\u0120Vollbesch\u00c3\u00a4ftigung": 9089, "\u0120Polizei": 9090, "\u0120Bestandteil": 9091, "wu\u00c3\u0141tsein": 9092, "\u0120benachteil": 9093, "\u0120calc": 9094, "\u0120inadequate": 9095, "berecht": 9096, "\u0120Macedonia": 9097, "\u0120Freiz\u00c3\u00bcg": 9098, "\u0120Verringerung": 9099, "Ver": 9100, "economic": 9101, "pornograph": 9102, "tion": 9103, "ym": 9104, "instrument": 9105, "oral": 9106, "ros": 9107, "\u0120ey": 9108, "\u00c3\u00a4h": 9109, "\u0120touch": 9110, "\u0120Ident": 9111, "\u0120Ag": 9112, "\u0120AIDS": 9113, "\u0120Mug": 9114, "uts": 9115, "\u0120Bil": 9116, "\u0120Disziplin": 9117, "otential": 9118, "\u0120Then": 9119, "\u0120vertra": 9120, "\u0120verlangen": 9121, "\u0120rational": 9122, "\u0120Stability": 9123, "\u0120St\u00c3\u00a4d": 9124, "\u0120Any": 9125, "\u0120Erhaltung": 9126, "icks": 9127, "\u0120complic": 9128, "\u0120spread": 9129, "\u0120warn": 9130, "\u0120Verbreitung": 9131, "\u0120offers": 9132, "\u0120considerably": 9133, "\u0120inclusion": 9134, "\u0120attra": 9135, "\u0120Alli": 9136, "\u0120gestr": 9137, "\u0120consumption": 9138, "\u0120difficulty": 9139, "\u0120derzeitige": 9140, "z\u00c3\u00bcge": 9141, "areness": 9142, "\u0120mindestens": 9143, "ixed": 9144, "\u0120stressed": 9145, "\u0120humanit\u00c3\u00a4ren": 9146, "\u0120marine": 9147, "\u0120break": 9148, "going": 9149, "\u0120behaviour": 9150, "\u0120satisfactory": 9151, "\u0120heading": 9152, "ozi": 9153, "leitung": 9154, "\u0120einheitlichen": 9155, "\u0120verdient": 9156, "\u0120best\u00c3\u00a4tigen": 9157, "\u0120menschlichen": 9158, "\u0120undertaken": 9159, "\u0120diesbez\u00c3\u00bc": 9160, "\u0120Jahrhunder": 9161, "\u0120Jahrhundert": 9162, "\u0120codecision": 9163, "\u0120Ereignisse": 9164, "\u0120infrastructure": 9165, "\u0120mittl": 9166, "\u0120supplementary": 9167, "\u0120aftern": 9168, "\u0120Praktiken": 9169, "\u0120endeavour": 9170, "\u0120Ausbeutung": 9171, "\u0120beinhaltet": 9172, "\u0120Foreign": 9173, "Das": 9174, "ground": 9175, "\u0120\u00c3\u00a4lter": 9176, "\u0120tre": 9177, "iegen": 9178, "ichert": 9179, "\u0120inzwischen": 9180, "\u0120purely": 9181, "\u0120zahlen": 9182, "icans": 9183, "\u0120lauf": 9184, "\u0120gezogen": 9185, "ierend": 9186, "\u0120conven": 9187, "\u0120prosec": 9188, "\u0120Zoll": 9189, "indungen": 9190, "endt": 9191, "\u0120abziel": 9192, "\u0120umzusetzen": 9193, "\u0120sch\u00c3\u00a4d": 9194, "behandlung": 9195, "\u0120Vorteile": 9196, "\u0120Other": 9197, "\u0120interested": 9198, "\u0120interpre": 9199, "\u0120quorum": 9200, "\u0120Berichten": 9201, "\u0120Einwanderung": 9202, "\u0120preced": 9203, "\u0120teile": 9204, "bargo": 9205, "\u0120substance": 9206, "\u0120Chin": 9207, "\u0120represented": 9208, "\u0120underm": 9209, "\u0120Stauner": 9210, "\u0120Rechtsstaat": 9211, "\u0120lautet": 9212, "\u0120effectiveness": 9213, "\u0120trend": 9214, "iums": 9215, "\u0120Unternehmens": 9216, "\u0120awareness": 9217, "\u0120aimed": 9218, "\u0120Verbesserungen": 9219, "\u0120prepare": 9220, "\u0120judgement": 9221, "\u0120wirksame": 9222, "\u0120depart": 9223, "\u0120emphasis": 9224, "\u0120Basque": 9225, "\u0120repeated": 9226, "\u0120landwirtschaft": 9227, "\u0120zust\u00c3\u00a4ndig": 9228, "\u0120association": 9229, "\u0120sufficiently": 9230, "\u0120figure": 9231, "\u0120constitute": 9232, "\u0120profess": 9233, "\u0120beeintr\u00c3\u00a4cht": 9234, "\u0120verstehe": 9235, "\u0120Market": 9236, "\u0120flax": 9237, "\u0120Anpassung": 9238, "\u0120Gelder": 9239, "\u0120welchem": 9240, "\u0120W\u00c3\u00bcrde": 9241, "\u0120Liikanen": 9242, "\u0120Hulten": 9243, "\u0120\u00c3\u00a4rmsten": 9244, "\u0120lengt": 9245, "\u0120Freiz\u00c3\u00bcgigkeit": 9246, "Par": 9247, "dire": 9248, "huber": 9249, "pendence": 9250, "sc": 9251, "tung": 9252, "t\u00c3\u00a4us": 9253, "ening": 9254, "\u0120sinc": 9255, "anf": 9256, "\u0120fern": 9257, "\u0120nation": 9258, "\u0120unne": 9259, "\u0120via": 9260, "\u0120Are": 9261, "\u0120Sk": 9262, "\u0120einerseits": 9263, "\u0120Dub": 9264, "derly": 9265, "\u0120Rural": 9266, "ischem": 9267, "\u0120Get": 9268, "\u0120Gl\u00c3\u00bcck": 9269, "\u0120G\u00c3\u00bcter": 9270, "otten": 9271, "\u0120weap": 9272, "\u0120vert": 9273, "\u0120verwe": 9274, "\u0120erh\u00c3\u00a4lt": 9275, "\u0120erlassen": 9276, "acher": 9277, "\u0120Instead": 9278, "\u0120exec": 9279, "\u0120Ann": 9280, "\u0120Another": 9281, "auso": 9282, "\u0120Schuld": 9283, "\u0120Prof": 9284, "\u0120Ablehnung": 9285, "\u00c3\u00a4rkte": 9286, "\u0120chem": 9287, "\u0120contact": 9288, "\u0120intentions": 9289, "\u0120mehrfach": 9290, "\u0120nationals": 9291, "\u0120Verbrennung": 9292, "\u0120letzter": 9293, "\u0120glaub": 9294, "\u0120follows": 9295, "stande": 9296, "\u0120deliber": 9297, "\u0120finanziert": 9298, "\u0120umfa\u00c3\u0141t": 9299, "\u0120additionality": 9300, "\u0120payments": 9301, "\u0120operational": 9302, "\u0120Platz": 9303, "\u0120Gegensatz": 9304, "\u0120introducing": 9305, "\u0120defic": 9306, "\u0120exceed": 9307, "\u0120afford": 9308, "\u0120identity": 9309, "\u0120Britain": 9310, "\u0120zus\u00c3\u00a4tzlichen": 9311, "\u0120Perhaps": 9312, "\u0120materials": 9313, "\u0120granting": 9314, "\u0120Barcel": 9315, "\u0120protest": 9316, "\u0120Secret": 9317, "\u0120Western": 9318, "\u0120arguments": 9319, "\u0120likely": 9320, "\u0120penalty": 9321, "\u0120Wohlstand": 9322, "\u0120mandate": 9323, "\u0120facilitate": 9324, "\u0120politicians": 9325, "\u0120auffor": 9326, "\u0120Genehmigung": 9327, "\u0120digital": 9328, "\u0120Ru\u00c3\u0141land": 9329, "\u0120Clearly": 9330, "\u0120afternoon": 9331, "\u0120unnecess": 9332, "\u0120Dublin": 9333, "\u0120Barcelona": 9334, "LD": 9335, "kur": 9336, "mlich": 9337, "m\u00c3\u00a4rkte": 9338, "ps": 9339, "chel": 9340, "\u0120ahead": 9341, "\u0120wide": 9342, "reb": 9343, "\u0120n\u00c3\u00bctz": 9344, "\u0120n\u00c3\u00a4her": 9345, "\u0120anzunehmen": 9346, "\u0120unl": 9347, "\u0120Ele": 9348, "\u0120Mac": 9349, "emm": 9350, "\u0120gone": 9351, "denkt": 9352, "\u0120lose": 9353, "\u0120gehalten": 9354, "ffung": 9355, "andels": 9356, "\u0120stake": 9357, "\u0120deserv": 9358, "\u0120Zul": 9359, "iko": 9360, "\u0120section": 9361, "\u0120voran": 9362, "ordnungen": 9363, "\u0120schafft": 9364, "\u0120Osten": 9365, "\u0120entstanden": 9366, "\u0120chann": 9367, "\u0120mu\u00c3\u0141te": 9368, "\u0120incent": 9369, "\u0120spreche": 9370, "feil": 9371, "l\u00c3\u00a4uft": 9372, "\u0120feeding": 9373, "\u0120transe": 9374, "\u0120relates": 9375, "\u0120refers": 9376, "\u0120referring": 9377, "\u0120Meinungs": 9378, "\u0120room": 9379, "\u0120round": 9380, "\u0120courage": 9381, "finanz": 9382, "\u0120resolved": 9383, "\u0120numerous": 9384, "hilos": 9385, "\u0120truth": 9386, "\u0120elderly": 9387, "\u0120benef": 9388, "\u0120kurzem": 9389, "\u0120gegebenenfalls": 9390, "\u0120treated": 9391, "wachstum": 9392, "\u0120Socialist": 9393, "\u0120Vorausschau": 9394, "\u0120Klima": 9395, "\u0120geltenden": 9396, "\u0120Antworten": 9397, "\u0120choose": 9398, "\u0120holding": 9399, "\u0120preparing": 9400, "\u0120M\u00c3\u00a4nner": 9401, "\u0120Nahrungsmittelhilfe": 9402, "\u0120details": 9403, "\u0120Zivilgesellschaft": 9404, "\u0120niedrig": 9405, "\u0120bem\u00c3\u00bcht": 9406, "\u0120wachsen": 9407, "vollen": 9408, "\u0120Ursachen": 9409, "\u0120territorial": 9410, "\u0120generell": 9411, "\u0120Lanka": 9412, "\u0120\u00c3\u0126rzte": 9413, "\u0120Schreyer": 9414, "\u0120Rindfleisch": 9415, "\u0120Begr\u00c3\u00bcndung": 9416, "upts\u00c3\u00a4ch": 9417, "aktionen": 9418, "nach": 9419, "oij": 9420, "po": 9421, "sh": 9422, "ender": 9423, "\u0120dritte": 9424, "\u0120dopp": 9425, "atom": 9426, "anas": 9427, "\u0120hil": 9428, "geht": 9429, "omin": 9430, "\u0120EP": 9431, "\u0120Som": 9432, "\u0120zer": 9433, "\u0120Plo": 9434, "\u0120Bolk": 9435, "\u0120Dut": 9436, "ulich": 9437, "\u0120Vice": 9438, "\u0120weist": 9439, "\u0120vergleich": 9440, "\u0120Streit": 9441, "\u0120vorhin": 9442, "\u0120Parlamente": 9443, "001": 9444, "\u0120schrift": 9445, "\u0120Ausnahmen": 9446, "\u0120Oz": 9447, "\u0120Arten": 9448, "\u0120Abkommens": 9449, "grad": 9450, "\u0120Gefahren": 9451, "linary": 9452, "\u0120beraten": 9453, "ystemen": 9454, "\u0120spend": 9455, "agne": 9456, "\u0120Arbeiten": 9457, "\u0120sold": 9458, "\u0120facts": 9459, "\u012034": 9460, "\u0120relativ": 9461, "\u0120politically": 9462, "\u0120Bed\u00c3\u00bcrf": 9463, "\u0120frequ": 9464, "\u0120Kooperation": 9465, "\u0120Geb\u00c3\u00a4": 9466, "\u0120Imm": 9467, "\u0120trust": 9468, "\u0120helping": 9469, "\u0120Generation": 9470, "hold": 9471, "\u0120subjects": 9472, "\u0120Entwicklungsl\u00c3\u00a4ndern": 9473, "\u0120applicant": 9474, "\u0120eindeutige": 9475, "leistungen": 9476, "\u0120Beh\u00c3\u00b6rde": 9477, "\u0120option": 9478, "\u0120starke": 9479, "\u0120umfassenden": 9480, "\u0120Volkspartei": 9481, "\u0120Irish": 9482, "\u0120distributed": 9483, "\u0120Krise": 9484, "\u0120Kompeten": 9485, "\u0120beschr\u00c3\u00a4nkt": 9486, "\u0120quota": 9487, "soever": 9488, "\u0120menschliche": 9489, "Initiative": 9490, "kr\u00c3\u00a4fte": 9491, "\u0120erscheint": 9492, "\u0120erl\u00c3\u00a4utern": 9493, "\u0120sympath": 9494, "\u0120Gro\u00c3\u0141britannien": 9495, "\u0120Mugabe": 9496, "\u0120Plooij": 9497, "\u0120Bolkeste": 9498, "24": 9499, "wers": 9500, "yed": 9501, "\u0120tief": 9502, "itologie": 9503, "\u0120inf": 9504, "\u0120hence": 9505, "\u0120town": 9506, "\u0120Eur": 9507, "\u0120Sow": 9508, "\u0120Material": 9509, "\u0120einstimm": 9510, "\u0120Pr\u00c3\u00a4s": 9511, "\u0120relie": 9512, "\u0120West": 9513, "\u0120haupts\u00c3\u00a4ch": 9514, "opf": 9515, "ustry": 9516, "\u0120Netz": 9517, "lieben": 9518, "\u0120vorstellen": 9519, "ausende": 9520, "\u0120auseinander": 9521, "\u0120ausgesetzt": 9522, "\u0120interoper": 9523, "\u00c3\u00bcss": 9524, "\u0120partly": 9525, "\u0120impose": 9526, "apital": 9527, "ratic": 9528, "\u0120Zusammenhalt": 9529, "handelt": 9530, "\u0120processes": 9531, "\u0120Politiker": 9532, "\u0120Problematik": 9533, "\u0120competent": 9534, "\u00c3\u00a4ngst": 9535, "\u0120sets": 9536, "\u0120gutes": 9537, "\u0120gelingt": 9538, "\u0120au\u00c3\u0141en": 9539, "\u0120taxes": 9540, "\u0120governance": 9541, "raums": 9542, "kommun": 9543, "\u0120freedoms": 9544, "\u0120double": 9545, "\u0120Vertretern": 9546, "\u0120applying": 9547, "\u0120distort": 9548, "\u0120verwiesen": 9549, "\u0120maintaining": 9550, "\u0120easily": 9551, "\u0120bananas": 9552, "fertigt": 9553, "\u0120beantworten": 9554, "\u0120failure": 9555, "\u0120wesentlicher": 9556, "\u0120correctly": 9557, "\u0120erhebliche": 9558, "\u0120Perspekt": 9559, "\u0120interessiert": 9560, "\u0120einheitliche": 9561, "\u0120Komitologie": 9562, "h\u00c3\u00a4ngen": 9563, "\u0120Mexico": 9564, "\u0120slight": 9565, "zustimmen": 9566, "\u0120erneuerbaren": 9567, "\u0120appreciate": 9568, "\u0120constantly": 9569, "\u0120acknowled": 9570, "\u0120Etikettierung": 9571, "\u0120beabsichtigt": 9572, "\u0120recycling": 9573, "\u0120auftreten": 9574, "\u0120published": 9575, "zureich": 9576, "\u0120Labour": 9577, "\u0120Savary": 9578, "\u0120Bolkestein": 9579, "08": 9580, "AC": 9581, "bels": 9582, "eten": 9583, "gle": 9584, "hner": 9585, "katastrop": 9586, "machen": 9587, "rum": 9588, "zio": 9589, "\u0120thir": 9590, "orry": 9591, "\u0120berecht": 9592, "\u0120fil": 9593, "\u0120nine": 9594, "\u0120unm\u00c3\u00b6glich": 9595, "\u0120bemer": 9596, "\u0120bewegen": 9597, "\u0120reicht": 9598, "schl": 9599, "tert": 9600, "ulner": 9601, "\u0120lar": 9602, "ischung": 9603, "\u0120Vitor": 9604, "abling": 9605, "\u0120Langen": 9606, "\u0120Ze": 9607, "spiel": 9608, "ques": 9609, "uf\u00c3\u00bchren": 9610, "\u0120Europ\u00c3\u00a4er": 9611, "\u0120Offen": 9612, "sekret": 9613, "\u0120entweder": 9614, "\u0120Presidents": 9615, "\u0120quote": 9616, "\u00c3\u00a4tigkeiten": 9617, "\u00c3\u00bccken": 9618, "\u0120whatsoever": 9619, "l\u00c3\u00a4chen": 9620, "\u0120Grunds\u00c3\u00a4tzen": 9621, "gebiet": 9622, "\u0120relatively": 9623, "\u0120Finland": 9624, "ients": 9625, "f\u00c3\u00a4llig": 9626, "tragung": 9627, "\u0120scr": 9628, "\u0120Having": 9629, "\u0120Finanzierungs": 9630, "\u00c3\u00a4tzen": 9631, "bald": 9632, "gleichheit": 9633, "\u0120communications": 9634, "\u0120schwed": 9635, "\u0120stattf": 9636, "\u0120corrupt": 9637, "\u0120answers": 9638, "\u0120peaceful": 9639, "leistung": 9640, "\u0120maritime": 9641, "\u0120continued": 9642, "\u0120Steuerzahl": 9643, "\u0120Fl\u00c3\u00bcchtlings": 9644, "\u0120satisfied": 9645, "\u0120staatliche": 9646, "\u0120Tradition": 9647, "\u0120unverz\u00c3\u00bcglich": 9648, "\u0120happens": 9649, "\u0120Generaldire": 9650, "\u0120verst\u00c3\u00a4rkt": 9651, "\u0120verst\u00c3\u00a4rken": 9652, "\u0120Kommunikation": 9653, "\u0120planned": 9654, "\u0120Wahrheit": 9655, "zubauen": 9656, "\u0120straf": 9657, "\u0120Terror": 9658, "\u0120millions": 9659, "\u0120rigor": 9660, "\u0120Todesstrafe": 9661, "olonial": 9662, "\u0120collabor": 9663, "\u0120n\u00c3\u00b6tig": 9664, "\u0120conservation": 9665, "\u0120opposite": 9666, "\u0120Glaubw\u00c3\u00bcrdigkeit": 9667, "\u0120jurisdict": 9668, "Parliament": 9669, "ZB": 9670, "cause": 9671, "gers": 9672, "i\u00c3\u00b6": 9673, "krit": 9674, "ofern": 9675, "vit": 9676, "itative": 9677,
[...]
